{
  "version": "1.0",
  "truncation": null,
  "padding": null,
  "added_tokens": [
    {
      "id": 0,
      "content": "<|endoftext|>",
      "single_word": false,
      "lstrip": false,
      "rstrip": false,
      "normalized": false,
      "special": true
    }
  ],
  "normalizer": null,
  "pre_tokenizer": {
    "type": "ByteLevel",
    "add_prefix_space": false,
    "trim_offsets": true,
    "use_regex": true
  },
  "post_processor": null,
  "decoder": {
    "type": "ByteLevel",
    "add_prefix_space": true,
    "trim_offsets": true,
    "use_regex": true
  },
  "model": {
    "type": "BPE",
    "dropout": null,
    "unk_token": null,
    "continuing_subword_prefix": null,
    "end_of_word_suffix": null,
    "fuse_unk": false,
    "byte_fallback": false,
    "ignore_merges": false,
    "vocab": {
      "<|endoftext|>": 0,
      "!": 1,
      "\"": 2,
      "#": 3,
      "$": 4,
      "%": 5,
      "&": 6,
      "'": 7,
      "(": 8,
      ")": 9,
      "*": 10,
      "+": 11,
      ",": 12,
      "-": 13,
      ".": 14,
      "/": 15,
      "0": 16,
      "1": 17,
      "2": 18,
      "3": 19,
      "4": 20,
      "5": 21,
      "6": 22,
      "7": 23,
      "8": 24,
      "9": 25,
      ":": 26,
      ";": 27,
      "<": 28,
      "=": 29,
      ">": 30,
      "?": 31,
      "@": 32,
      "A": 33,
      "B": 34,
      "C": 35,
      "D": 36,
      "E": 37,
      "F": 38,
      "G": 39,
      "H": 40,
      "I": 41,
      "J": 42,
      "K": 43,
      "L": 44,
      "M": 45,
      "N": 46,
      "O": 47,
      "P": 48,
      "Q": 49,
      "R": 50,
      "S": 51,
      "T": 52,
      "U": 53,
      "V": 54,
      "W": 55,
      "X": 56,
      "Y": 57,
      "Z": 58,
      "[": 59,
      "\\": 60,
      "]": 61,
      "^": 62,
      "_": 63,
      "`": 64,
      "a": 65,
      "b": 66,
      "c": 67,
      "d": 68,
      "e": 69,
      "f": 70,
      "g": 71,
      "h": 72,
      "i": 73,
      "j": 74,
      "k": 75,
      "l": 76,
      "m": 77,
      "n": 78,
      "o": 79,
      "p": 80,
      "q": 81,
      "r": 82,
      "s": 83,
      "t": 84,
      "u": 85,
      "v": 86,
      "w": 87,
      "x": 88,
      "y": 89,
      "z": 90,
      "{": 91,
      "|": 92,
      "}": 93,
      "~": 94,
      "¡": 95,
      "¢": 96,
      "£": 97,
      "¤": 98,
      "¥": 99,
      "¦": 100,
      "§": 101,
      "¨": 102,
      "©": 103,
      "ª": 104,
      "«": 105,
      "¬": 106,
      "®": 107,
      "¯": 108,
      "°": 109,
      "±": 110,
      "²": 111,
      "³": 112,
      "´": 113,
      "µ": 114,
      "¶": 115,
      "·": 116,
      "¸": 117,
      "¹": 118,
      "º": 119,
      "»": 120,
      "¼": 121,
      "½": 122,
      "¾": 123,
      "¿": 124,
      "À": 125,
      "Á": 126,
      "Â": 127,
      "Ã": 128,
      "Ä": 129,
      "Å": 130,
      "Æ": 131,
      "Ç": 132,
      "È": 133,
      "É": 134,
      "Ê": 135,
      "Ë": 136,
      "Ì": 137,
      "Í": 138,
      "Î": 139,
      "Ï": 140,
      "Ð": 141,
      "Ñ": 142,
      "Ò": 143,
      "Ó": 144,
      "Ô": 145,
      "Õ": 146,
      "Ö": 147,
      "×": 148,
      "Ø": 149,
      "Ù": 150,
      "Ú": 151,
      "Û": 152,
      "Ü": 153,
      "Ý": 154,
      "Þ": 155,
      "ß": 156,
      "à": 157,
      "á": 158,
      "â": 159,
      "ã": 160,
      "ä": 161,
      "å": 162,
      "æ": 163,
      "ç": 164,
      "è": 165,
      "é": 166,
      "ê": 167,
      "ë": 168,
      "ì": 169,
      "í": 170,
      "î": 171,
      "ï": 172,
      "ð": 173,
      "ñ": 174,
      "ò": 175,
      "ó": 176,
      "ô": 177,
      "õ": 178,
      "ö": 179,
      "÷": 180,
      "ø": 181,
      "ù": 182,
      "ú": 183,
      "û": 184,
      "ü": 185,
      "ý": 186,
      "þ": 187,
      "ÿ": 188,
      "Ā": 189,
      "ā": 190,
      "Ă": 191,
      "ă": 192,
      "Ą": 193,
      "ą": 194,
      "Ć": 195,
      "ć": 196,
      "Ĉ": 197,
      "ĉ": 198,
      "Ċ": 199,
      "ċ": 200,
      "Č": 201,
      "č": 202,
      "Ď": 203,
      "ď": 204,
      "Đ": 205,
      "đ": 206,
      "Ē": 207,
      "ē": 208,
      "Ĕ": 209,
      "ĕ": 210,
      "Ė": 211,
      "ė": 212,
      "Ę": 213,
      "ę": 214,
      "Ě": 215,
      "ě": 216,
      "Ĝ": 217,
      "ĝ": 218,
      "Ğ": 219,
      "ğ": 220,
      "Ġ": 221,
      "ġ": 222,
      "Ģ": 223,
      "ģ": 224,
      "Ĥ": 225,
      "ĥ": 226,
      "Ħ": 227,
      "ħ": 228,
      "Ĩ": 229,
      "ĩ": 230,
      "Ī": 231,
      "ī": 232,
      "Ĭ": 233,
      "ĭ": 234,
      "Į": 235,
      "į": 236,
      "İ": 237,
      "ı": 238,
      "Ĳ": 239,
      "ĳ": 240,
      "Ĵ": 241,
      "ĵ": 242,
      "Ķ": 243,
      "ķ": 244,
      "ĸ": 245,
      "Ĺ": 246,
      "ĺ": 247,
      "Ļ": 248,
      "ļ": 249,
      "Ľ": 250,
      "ľ": 251,
      "Ŀ": 252,
      "ŀ": 253,
      "Ł": 254,
      "ł": 255,
      "Ń": 256,
      "de": 257,
      "Ġe": 258,
      "Ġde": 259,
      "Ġl": 260,
      "os": 261,
      "Ġp": 262,
      "Ġa": 263,
      "ar": 264,
      "Ġc": 265,
      "en": 266,
      "er": 267,
      "es": 268,
      "on": 269,
      "Ġs": 270,
      "ue": 271,
      "as": 272,
      "or": 273,
      "ci": 274,
      "an": 275,
      "Ã³": 276,
      "que": 277,
      "ad": 278,
      "Ġla": 279,
      "in": 280,
      "Ġen": 281,
      "un": 282,
      "Ġm": 283,
      "Ġque": 284,
      "al": 285,
      "Ġel": 286,
      "re": 287,
      "st": 288,
      "Ġt": 289,
      "Ġy": 290,
      "ent": 291,
      "ÃŃ": 292,
      "di": 293,
      "Ã¡": 294,
      "Ġun": 295,
      "Ġcon": 296,
      "ti": 297,
      "Ã³n": 298,
      "Ġse": 299,
      "do": 300,
      "Ġn": 301,
      "Ġh": 302,
      "ro": 303,
      "ic": 304,
      "ra": 305,
      "Ġf": 306,
      "om": 307,
      "Ġlos": 308,
      "Ġv": 309,
      "te": 310,
      "am": 311,
      "Ġdel": 312,
      "aci": 313,
      "ri": 314,
      "Ġin": 315,
      "Ġsu": 316,
      "res": 317,
      "Ã©": 318,
      "Ġpar": 319,
      "ol": 320,
      "Ġes": 321,
      "Ġre": 322,
      "Ġest": 323,
      "ado": 324,
      "Ġpor": 325,
      "le": 326,
      "to": 327,
      "ta": 328,
      "Ġdi": 329,
      "bi": 330,
      "Ġal": 331,
      "Ġo": 332,
      "Ã±": 333,
      "Ġcom": 334,
      "Ġg": 335,
      "da": 336,
      "ĠC": 337,
      "ec": 338,
      "Ġlas": 339,
      "ab": 340,
      "vi": 341,
      "Ġno": 342,
      "ÃŃa": 343,
      "Ġuna": 344,
      "Ġpara": 345,
      "mp": 346,
      "si": 347,
      "Ġ\"": 348,
      "ĠM": 349,
      "aciÃ³n": 350,
      "Ġd": 351,
      "ĠP": 352,
      "ui": 353,
      "ente": 354,
      "Ãº": 355,
      "ĠA": 356,
      "cu": 357,
      "ari": 358,
      "Ġb": 359,
      "li": 360,
      "Ġpro": 361,
      "El": 362,
      "ay": 363,
      "ones": 364,
      "tu": 365,
      "dad": 366,
      "tr": 367,
      "gu": 368,
      "el": 369,
      "Ġper": 370,
      "Ã¡s": 371,
      "ter": 372,
      "Ġcu": 373,
      "ru": 374,
      "mi": 375,
      "ĠS": 376,
      "ac": 377,
      "Ġlo": 378,
      "ada": 379,
      "ist": 380,
      "tor": 381,
      "go": 382,
      "ciÃ³n": 383,
      "Ġex": 384,
      "Ġ1": 385,
      "Ġdes": 386,
      "ma": 387,
      "la": 388,
      "lo": 389,
      "Ġ2": 390,
      "\",": 391,
      "ĠE": 392,
      "den": 393,
      "Ġi": 394,
      "Ġsi": 395,
      "ran": 396,
      "ch": 397,
      "Ġj": 398,
      "Ġmi": 399,
      "cia": 400,
      "tos": 401,
      "ĠB": 402,
      "Ġ(": 403,
      "ali": 404,
      "La": 405,
      "vo": 406,
      "qui": 407,
      "Ã¡n": 408,
      "ando": 409,
      "Ġac": 410,
      "Ġme": 411,
      "se": 412,
      "ados": 413,
      "ento": 414,
      "mo": 415,
      "ca": 416,
      "aj": 417,
      "tes": 418,
      "Ġmu": 419,
      "ales": 420,
      "ĠR": 421,
      "ĠmÃ¡s": 422,
      "Ġvi": 423,
      "00": 424,
      "ica": 425,
      "co": 426,
      "us": 427,
      "ras": 428,
      "bre": 429,
      "era": 430,
      "Ġan": 431,
      "ĠF": 432,
      "ador": 433,
      "Ġti": 434,
      "ten": 435,
      "Ġcomo": 436,
      "ĠU": 437,
      "lar": 438,
      "dos": 439,
      "ĠaÃ±": 440,
      "\".": 441,
      "ĠG": 442,
      "Ġto": 443,
      "ĠD": 444,
      "Ġres": 445,
      "du": 446,
      "En": 447,
      "Ġsus": 448,
      "tar": 449,
      "ĠL": 450,
      "fi": 451,
      "ero": 452,
      "Ġpo": 453,
      "Ġpres": 454,
      "Ġle": 455,
      "pu": 456,
      "Ġser": 457,
      "va": 458,
      "Ġso": 459,
      "ce": 460,
      "ĠT": 461,
      "Ġpa": 462,
      "tro": 463,
      "der": 464,
      "Ġtra": 465,
      "tra": 466,
      "ez": 467,
      "po": 468,
      "jo": 469,
      "io": 470,
      "ĠJ": 471,
      "ÃŃs": 472,
      "ĠI": 473,
      "em": 474,
      "ario": 475,
      "Ġpre": 476,
      "aron": 477,
      "pa": 478,
      "Ãºn": 479,
      "lan": 480,
      "ambi": 481,
      "ĠN": 482,
      "tre": 483,
      "lic": 484,
      "guay": 485,
      "eron": 486,
      "orm": 487,
      "Ġfue": 488,
      "ern": 489,
      "Ã©n": 490,
      "per": 491,
      "ll": 492,
      "man": 493,
      "onal": 494,
      "pe": 495,
      "ruguay": 496,
      "Ġhab": 497,
      "des": 498,
      "con": 499,
      "Ã©s": 500,
      "Ġeste": 501,
      "Ġpri": 502,
      "Ġfu": 503,
      "Ġpr": 504,
      "par": 505,
      "pi": 506,
      "Ġpas": 507,
      "Ġten": 508,
      "ver": 509,
      "ul": 510,
      "Ġar": 511,
      "gi": 512,
      "encia": 513,
      "emp": 514,
      "cl": 515,
      "aciones": 516,
      "ina": 517,
      "iden": 518,
      "gar": 519,
      "ico": 520,
      "Ġman": 521,
      "Ġci": 522,
      "gun": 523,
      "Ġsin": 524,
      "Ġha": 525,
      "Ġimp": 526,
      "ga": 527,
      "Ġentre": 528,
      "Ġpero": 529,
      "ene": 530,
      "il": 531,
      "ort": 532,
      "tros": 533,
      "Ġparti": 534,
      "min": 535,
      "Ġdis": 536,
      "siÃ³n": 537,
      "Ġinf": 538,
      "me": 539,
      "is": 540,
      "Ġju": 541,
      "za": 542,
      "ĠV": 543,
      "ues": 544,
      "Ġca": 545,
      "Ġhac": 546,
      "ĠaÃ±os": 547,
      "Ġemp": 548,
      "Ġinter": 549,
      "baj": 550,
      "Ġlle": 551,
      "ami": 552,
      "ĠO": 553,
      "ia": 554,
      "les": 555,
      "ens": 556,
      "Ġdijo": 557,
      "gÃºn": 558,
      "mos": 559,
      "ub": 560,
      "entes": 561,
      "amente": 562,
      "Ġexp": 563,
      "adas": 564,
      "cri": 565,
      "ante": 566,
      "tas": 567,
      "das": 568,
      "osi": 569,
      "Ġqui": 570,
      "Ġau": 571,
      "aliz": 572,
      "ambiÃ©n": 573,
      "Ġcas": 574,
      "Ġsobre": 575,
      "ni": 576,
      "ble": 577,
      "ĠpaÃŃs": 578,
      "tÃ³": 579,
      "Ġprim": 580,
      "Ġya": 581,
      "cial": 582,
      "gres": 583,
      "Ġ20": 584,
      "ur": 585,
      "Ġmedi": 586,
      "Ġap": 587,
      "ĠH": 588,
      "mente": 589,
      "Ġas": 590,
      "Ġpue": 591,
      "amos": 592,
      "qu": 593,
      "Ġcar": 594,
      "ores": 595,
      "ora": 596,
      "los": 597,
      "ces": 598,
      "tal": 599,
      "ctor": 600,
      "ĠestÃ¡": 601,
      "sti": 602,
      "ciones": 603,
      "rÃ¡": 604,
      "Ġ3": 605,
      "ber": 606,
      "son": 607,
      "Ġpol": 608,
      "Ġmar": 609,
      "cio": 610,
      "Ġdos": 611,
      "acional": 612,
      "Ġob": 613,
      "Ġfin": 614,
      "ech": 615,
      "zo": 616,
      "ĠIn": 617,
      "fer": 618,
      "endo": 619,
      "arios": 620,
      "Ġni": 621,
      "Con": 622,
      "ano": 623,
      "ara": 624,
      "Ġtrabaj": 625,
      "sta": 626,
      "Ã±a": 627,
      "ana": 628,
      "ba": 629,
      "aba": 630,
      "ĠtambiÃ©n": 631,
      "fic": 632,
      "Ġdesde": 633,
      "tivo": 634,
      ").": 635,
      "oy": 636,
      "tiv": 637,
      "clu": 638,
      "Ġu": 639,
      "cion": 640,
      "ÃŃn": 641,
      "Ġag": 642,
      "Ġcomp": 643,
      "enta": 644,
      "Ġesta": 645,
      "Ġcan": 646,
      "Ġhay": 647,
      "ino": 648,
      "dades": 649,
      "Ġson": 650,
      "arÃ¡": 651,
      "ÃŃas": 652,
      "Ġpresiden": 653,
      "Ġplan": 654,
      "ĠUruguay": 655,
      "ĠaÃ±o": 656,
      "Ġr": 657,
      "xi": 658,
      "adores": 659,
      "Ġli": 660,
      "so": 661,
      "Ġinform": 662,
      "Ġcre": 663,
      "entos": 664,
      "Los": 665,
      "lti": 666,
      "ven": 667,
      "ĠEl": 668,
      "Ġor": 669,
      "Ġnue": 670,
      "oc": 671,
      "Se": 672,
      "gui": 673,
      "erc": 674,
      "),": 675,
      "Ġmo": 676,
      "Ġtiene": 677,
      "Ġtu": 678,
      "esti": 679,
      "asta": 680,
      "Ġdo": 681,
      "Ġhi": 682,
      "Ġsol": 683,
      "mb": 684,
      "Ġ201": 685,
      "ir": 686,
      "ido": 687,
      "Ġte": 688,
      "Ġ-": 689,
      "duc": 690,
      "obi": 691,
      "Ġma": 692,
      "ve": 693,
      "Ġab": 694,
      "cip": 695,
      "pon": 696,
      "ista": 697,
      "obiern": 698,
      "Ġmin": 699,
      "ĠEst": 700,
      "dic": 701,
      "Ġcuando": 702,
      "gan": 703,
      "Ã©r": 704,
      "cias": 705,
      "mas": 706,
      "Ġmuch": 707,
      "Ġmuy": 708,
      "Ġver": 709,
      "Ġperson": 710,
      "Ġmay": 711,
      "tado": 712,
      "Ġdu": 713,
      "ÃŃti": 714,
      "Ġpod": 715,
      "na": 716,
      "no": 717,
      "gÃ³": 718,
      "Ġporque": 719,
      "ĠPa": 720,
      "Ãºlti": 721,
      "gent": 722,
      "Ġ4": 723,
      "Ġlu": 724,
      "deo": 725,
      "Ġtan": 726,
      "Ġcontra": 727,
      "Ġpe": 728,
      "Ġop": 729,
      "obierno": 730,
      "Ãºb": 731,
      "cios": 732,
      "Ġmis": 733,
      "tras": 734,
      "miento": 735,
      "ĠÃºlti": 736,
      "pec": 737,
      "Ġtodo": 738,
      "Si": 739,
      "Ġdon": 740,
      "bili": 741,
      "Ġmill": 742,
      "antes": 743,
      "las": 744,
      "gra": 745,
      "Ġ200": 746,
      "Ġbi": 747,
      "Ġpresidente": 748,
      "Ġmen": 749,
      "tura": 750,
      "Ġparte": 751,
      "Ġequi": 752,
      "mÃ¡s": 753,
      "ie": 754,
      "onte": 755,
      "Ġcor": 756,
      "Ġcons": 757,
      "uni": 758,
      "ÃŃan": 759,
      "Ġdeci": 760,
      "Ġhasta": 761,
      "ĠUni": 762,
      "ros": 763,
      "cas": 764,
      "ena": 765,
      "car": 766,
      "Ġempres": 767,
      "Ġgen": 768,
      "Ġdonde": 769,
      "Ġnues": 770,
      "Ġquien": 771,
      "Ġsal": 772,
      "Ġcam": 773,
      "uego": 774,
      "pues": 775,
      "orma": 776,
      "teri": 777,
      "Ġcol": 778,
      "Est": 779,
      "rante": 780,
      "Ġco": 781,
      "eros": 782,
      "Ġmillones": 783,
      "Ġ5": 784,
      "endi": 785,
      "able": 786,
      "Ġus": 787,
      "Ġposi": 788,
      "cur": 789,
      "Ġgran": 790,
      "ĠAr": 791,
      "Ġese": 792,
      "ud": 793,
      "paÃ±": 794,
      "Ġcos": 795,
      "por": 796,
      "emos": 797,
      "eces": 798,
      "Por": 799,
      "ciÃ³": 800,
      "ĠMar": 801,
      "Ġmej": 802,
      "Ġne": 803,
      "clusi": 804,
      "udi": 805,
      "im": 806,
      "lam": 807,
      "Ġrealiz": 808,
      "tiva": 809,
      "Ġtras": 810,
      "cha": 811,
      "Ġ19": 812,
      "Ġfun": 813,
      "Ġacu": 814,
      "gresar": 815,
      "ontevi": 816,
      "ĠCh": 817,
      "Ã±o": 818,
      "Es": 819,
      "ĠhabÃŃa": 820,
      "demÃ¡s": 821,
      "Ġuruguay": 822,
      "Ġgobierno": 823,
      "fir": 824,
      "ĠseÃ±": 825,
      "rÃ³": 826,
      "Ġmun": 827,
      "No": 828,
      "crip": 829,
      "ontevideo": 830,
      "Ġreci": 831,
      "Ġdec": 832,
      "ĠpolÃŃti": 833,
      "iz": 834,
      "Ġuno": 835,
      "Ġpun": 836,
      "eb": 837,
      "Ġad": 838,
      "Ġalgun": 839,
      "arse": 840,
      "et": 841,
      "Ġpuede": 842,
      "Ġ6": 843,
      "Ġtodos": 844,
      "ona": 845,
      "uer": 846,
      "Ġmes": 847,
      "lica": 848,
      "cos": 849,
      "Ġvez": 850,
      "ĠsegÃºn": 851,
      "fec": 852,
      "Ġter": 853,
      "it": 854,
      "Ġante": 855,
      "Ġhacer": 856,
      "je": 857,
      "Ġdire": 858,
      "Ġmayor": 859,
      "Ġgener": 860,
      "amiento": 861,
      "Ġqu": 862,
      "ĠMontevideo": 863,
      "000": 864,
      "alidad": 865,
      "Ġsuscrip": 866,
      "Ġsos": 867,
      "bol": 868,
      "Ġsuscriptor": 869,
      "ĠW": 870,
      "cciÃ³n": 871,
      "ja": 872,
      "ton": 873,
      "Ġtres": 874,
      "Ġnos": 875,
      "Ġtiemp": 876,
      "Ġch": 877,
      "pres": 878,
      "Ġbien": 879,
      "aria": 880,
      "ĠseÃ±al": 881,
      "tin": 882,
      "puÃ©s": 883,
      "ĠLa": 884,
      "ĠÃ©": 885,
      "Ġhace": 886,
      "Ġro": 887,
      "vel": 888,
      "Ġpasado": 889,
      "ĠRe": 890,
      "cal": 891,
      "ĠJu": 892,
      "Ġah": 893,
      "Ġcambi": 894,
      "gen": 895,
      "Ġseman": 896,
      "gue": 897,
      "oci": 898,
      "diÃ³": 899,
      "rente": 900,
      "..": 901,
      "Ġcer": 902,
      "ĠlÃŃ": 903,
      "Â¿": 904,
      "Ġpi": 905,
      "Ġint": 906,
      "ord": 907,
      "Ġdef": 908,
      "Ġbu": 909,
      "Ġmom": 910,
      "Ġencu": 911,
      "Ġgan": 912,
      "Ġpersonas": 913,
      "firm": 914,
      "iÃ³n": 915,
      "ĠPaÃŃs": 916,
      "icos": 917,
      "ĠpÃºb": 918,
      "cre": 919,
      "rar": 920,
      "Ġmejor": 921,
      "Ġhan": 922,
      "entro": 923,
      "Ġjue": 924,
      "Ġtran": 925,
      "laciÃ³n": 926,
      "entas": 927,
      "og": 928,
      "ĠCar": 929,
      "Ġdurante": 930,
      "ĠestÃ¡n": 931,
      "ĠNacional": 932,
      "tÃ¡": 933,
      "Ġhoy": 934,
      "sa": 935,
      "Ġbaj": 936,
      "Ġotros": 937,
      "gos": 938,
      "Ã©c": 939,
      "Ġconsi": 940,
      "stitu": 941,
      "ĠK": 942,
      "Ġhor": 943,
      "Ġlugar": 944,
      "Ġve": 945,
      "Ġdeb": 946,
      "tbol": 947,
      "Ġdest": 948,
      "Ġvol": 949,
      "anz": 950,
      "lio": 951,
      "yec": 952,
      "Ġda": 953,
      "fes": 954,
      "almente": 955,
      "rÃŃa": 956,
      "ren": 957,
      "Ġtiempo": 958,
      "Ġfal": 959,
      "gentina": 960,
      "Ã³m": 961,
      "Ġinv": 962,
      "Ġ7": 963,
      "Ġimport": 964,
      "lares": 965,
      "Ġden": 966,
      "Ġesa": 967,
      "Ġay": 968,
      "ĠPar": 969,
      "tri": 970,
      "Ġecon": 971,
      "Ġven": 972,
      "Ġprimer": 973,
      "uel": 974,
      "ĠCon": 975,
      "ea": 976,
      "Ġera": 977,
      "bir": 978,
      "Ġequipo": 979,
      "ĠRo": 980,
      "tori": 981,
      "ĠAn": 982,
      "tados": 983,
      "ge": 984,
      "ĠdespuÃ©s": 985,
      "enen": 986,
      "ment": 987,
      "ensa": 988,
      "In": 989,
      "Ġra": 990,
      "Ġesp": 991,
      "Ġeso": 992,
      "tivos": 993,
      "Ġactu": 994,
      "Ġminist": 995,
      "Las": 996,
      "Ġpresent": 997,
      "ĠdÃŃas": 998,
      "and": 999,
      "Ġsegun": 1000,
      "fici": 1001,
      "ral": 1002,
      "Ġentr": 1003,
      "Ġpes": 1004,
      "Ġtanto": 1005,
      "De": 1006,
      "ser": 1007,
      "Ġgol": 1008,
      "Ġsitu": 1009,
      "Ġfueron": 1010,
      "Ġmundo": 1011,
      "um": 1012,
      "argo": 1013,
      "Ġexplic": 1014,
      "segu": 1015,
      "Ġjug": 1016,
      "Ġpartido": 1017,
      "Ġproduc": 1018,
      "ÃŃo": 1019,
      "Ġotro": 1020,
      "uro": 1021,
      "bilidad": 1022,
      "Ġri": 1023,
      "Ġprin": 1024,
      "SegÃºn": 1025,
      "ici": 1026,
      "ĠprÃ³": 1027,
      "Ġej": 1028,
      "Ġrec": 1029,
      "Ġcaso": 1030,
      "Pero": 1031,
      "ĠSan": 1032,
      "Ġmomento": 1033,
      "entras": 1034,
      "ing": 1035,
      "Ġ8": 1036,
      "Ġtri": 1037,
      "ĠdÃŃa": 1038,
      "Ġproyec": 1039,
      "Ġhech": 1040,
      "uso": 1041,
      "Ġforma": 1042,
      "unque": 1043,
      "Ġcada": 1044,
      "rado": 1045,
      "val": 1046,
      "Ġusu": 1047,
      "Ġtom": 1048,
      "Ġestado": 1049,
      "Ġllev": 1050,
      "Ġprimera": 1051,
      "ĠAl": 1052,
      "Ġagre": 1053,
      "Ġcomun": 1054,
      "Ġintern": 1055,
      "udad": 1056,
      "Ġjun": 1057,
      "istas": 1058,
      "Ġdeclar": 1059,
      "Ġ10": 1060,
      "Ġneces": 1061,
      "tenido": 1062,
      "Ġhom": 1063,
      "Ġban": 1064,
      "ne": 1065,
      "ecu": 1066,
      "ere": 1067,
      "Ġelec": 1068,
      "aje": 1069,
      "ves": 1070,
      "ĠUS": 1071,
      "col": 1072,
      "ĠprÃ³xi": 1073,
      "Ġhoras": 1074,
      "Ġfi": 1075,
      "Ġmenos": 1076,
      "erte": 1077,
      "embre": 1078,
      "tido": 1079,
      "erdo": 1080,
      "Ġasegu": 1081,
      "Ġva": 1082,
      "Ġmismo": 1083,
      "Ġcri": 1084,
      "tir": 1085,
      "tad": 1086,
      "Ġdej": 1087,
      "iste": 1088,
      "arro": 1089,
      "icas": 1090,
      "Ġcin": 1091,
      "tiÃ³": 1092,
      "enz": 1093,
      "cho": 1094,
      "Ġam": 1095,
      "ĠpÃºblic": 1096,
      "at": 1097,
      "Ġantes": 1098,
      "Ġestudi": 1099,
      "Ġsegu": 1100,
      "Ã±os": 1101,
      "ĠdÃ³": 1102,
      "Ġqued": 1103,
      "Ġgru": 1104,
      "Ġluego": 1105,
      "aban": 1106,
      "cel": 1107,
      "Ġrespon": 1108,
      "Ġtrans": 1109,
      "Ġresul": 1110,
      "tivi": 1111,
      "ÃŃcu": 1112,
      "Ġnota": 1113,
      "ĠEx": 1114,
      "Ġahora": 1115,
      "ĠPe": 1116,
      "Ġespe": 1117,
      "Ġemb": 1118,
      "dio": 1119,
      "Ġprincip": 1120,
      "Ġsent": 1121,
      "Ġvo": 1122,
      "Ġcual": 1123,
      "Ġsemana": 1124,
      "Ġcuenta": 1125,
      "Ġproble": 1126,
      "ĠDe": 1127,
      "smo": 1128,
      "ori": 1129,
      "Ġinte": 1130,
      "Ġorgan": 1131,
      "Ã¡ti": 1132,
      "atro": 1133,
      "ceder": 1134,
      "Ġtener": 1135,
      "ĠLi": 1136,
      "Ġdist": 1137,
      "cer": 1138,
      "jer": 1139,
      "tan": 1140,
      "Ġhu": 1141,
      "Ġreg": 1142,
      "ĠserÃ¡": 1143,
      "terior": 1144,
      "Ġbas": 1145,
      "Ġpermi": 1146,
      "ini": 1147,
      "Ġnuestros": 1148,
      "Ġdisf": 1149,
      "--": 1150,
      "Ġlog": 1151,
      "Ġhist": 1152,
      "Ġru": 1153,
      "Ġtar": 1154,
      "fr": 1155,
      "amili": 1156,
      "Ġgra": 1157,
      "ĠEs": 1158,
      "ĠMu": 1159,
      "Ġles": 1160,
      "llo": 1161,
      "Al": 1162,
      "ile": 1163,
      "mento": 1164,
      "Ġciudad": 1165,
      "Ġsido": 1166,
      "dera": 1167,
      "Ġllam": 1168,
      "Ġvida": 1169,
      "ĠpaÃŃses": 1170,
      "Ġcl": 1171,
      "stas": 1172,
      "eno": 1173,
      "ĠasÃŃ": 1174,
      "riÃ³": 1175,
      "Ġmerc": 1176,
      "Para": 1177,
      "Ġtrabajo": 1178,
      "firmÃ³": 1179,
      "arias": 1180,
      "Ġdisfru": 1181,
      "anos": 1182,
      "taciÃ³n": 1183,
      "mar": 1184,
      "ĠArgentina": 1185,
      "Ġhaber": 1186,
      "Ġdifer": 1187,
      "Ġsali": 1188,
      "olu": 1189,
      "Ġ9": 1190,
      "Ġfuncion": 1191,
      "rÃ¡n": 1192,
      "Ġhaci": 1193,
      "Ġinvesti": 1194,
      "Ġdiri": 1195,
      "Ġindic": 1196,
      "Ġesc": 1197,
      "Ġtienen": 1198,
      "Ġcal": 1199,
      "Ġz": 1200,
      "Ġaunque": 1201,
      "che": 1202,
      "paÃ±a": 1203,
      "Ġestar": 1204,
      "Ġfamili": 1205,
      "ĠOb": 1206,
      "Ãºtbol": 1207,
      "Ġgente": 1208,
      "tam": 1209,
      "ĠsituaciÃ³n": 1210,
      "Ġpub": 1211,
      "Ġnivel": 1212,
      "pos": 1213,
      "Ġmientras": 1214,
      "Ġexclusi": 1215,
      "Ġmucho": 1216,
      "bu": 1217,
      "dida": 1218,
      "ĠCom": 1219,
      "Ġproces": 1220,
      "Ġdirector": 1221,
      "ridad": 1222,
      "Ġservi": 1223,
      "liz": 1224,
      "Ġsegui": 1225,
      "ĠlÃŃmi": 1226,
      "Ġsector": 1227,
      "ust": 1228,
      "jos": 1229,
      "Ġsuper": 1230,
      "Ġacceder": 1231,
      "Ġinst": 1232,
      "Ġplanes": 1233,
      "ĠexplicÃ³": 1234,
      "Ġbus": 1235,
      "Ġpla": 1236,
      "siones": 1237,
      "Ġacuerdo": 1238,
      "ĠseÃ±alÃ³": 1239,
      "Ġcomunic": 1240,
      "cribir": 1241,
      "ĠÃ¡": 1242,
      "Sus": 1243,
      "gado": 1244,
      "Ġrepres": 1245,
      "Ġnego": 1246,
      "Ġcomenz": 1247,
      "Ġusuario": 1248,
      "Ġotra": 1249,
      "Ġnuevo": 1250,
      "Ġsolo": 1251,
      "orte": 1252,
      "Ġref": 1253,
      "ĠUnidos": 1254,
      "encias": 1255,
      "Ġhecho": 1256,
      "Ã³lo": 1257,
      "Ġanun": 1258,
      "ĠEstados": 1259,
      "empre": 1260,
      "Ġmon": 1261,
      "Ġsab": 1262,
      "Ġfinal": 1263,
      "ama": 1264,
      "ĠademÃ¡s": 1265,
      "Ġcuatro": 1266,
      "nos": 1267,
      "ĠAm": 1268,
      "Ġempresa": 1269,
      "Ġmujer": 1270,
      "ĠDi": 1271,
      "ĠCo": 1272,
      "Ġestaba": 1273,
      "Ġcomi": 1274,
      "mpli": 1275,
      "AdemÃ¡s": 1276,
      "Ġprodu": 1277,
      "ĠJos": 1278,
      "dencia": 1279,
      "dial": 1280,
      "acion": 1281,
      "icÃŃa": 1282,
      "oria": 1283,
      "cti": 1284,
      "Ġfrente": 1285,
      "Ġunos": 1286,
      "ich": 1287,
      "ciales": 1288,
      "Ġ15": 1289,
      "gas": 1290,
      "Ġalgunos": 1291,
      "anza": 1292,
      "Ġpuntos": 1293,
      "ĠdÃ³lares": 1294,
      "Ġmeses": 1295,
      "rasil": 1296,
      "eÃ±a": 1297,
      "ĠlÃŃmites": 1298,
      "tario": 1299,
      "eri": 1300,
      "erio": 1301,
      "ĠÃ": 1302,
      "adi": 1303,
      "Ġcontin": 1304,
      "Ġhizo": 1305,
      "cÃ³": 1306,
      "Ġprogra": 1307,
      "Ġcontras": 1308,
      "dido": 1309,
      "Ġtoda": 1310,
      "Ġalgo": 1311,
      "Ġencon": 1312,
      "Ġof": 1313,
      "ĠpodÃ©s": 1314,
      "Ġdesarro": 1315,
      "dez": 1316,
      "ĠMin": 1317,
      "Ġcomer": 1318,
      "Ġapro": 1319,
      "ĠLe": 1320,
      "Ġform": 1321,
      "Ġley": 1322,
      "Ġsub": 1323,
      "lla": 1324,
      "Ġcab": 1325,
      "Ġexclusiva": 1326,
      "Des": 1327,
      "Ġval": 1328,
      "Ġministro": 1329,
      "av": 1330,
      "ĠY": 1331,
      "ece": 1332,
      "pital": 1333,
      "fe": 1334,
      "oso": 1335,
      "vers": 1336,
      "quier": 1337,
      "Ġestos": 1338,
      "ĠCol": 1339,
      "cul": 1340,
      "ĠJosÃ©": 1341,
      "cimiento": 1342,
      "ĠcontraseÃ±a": 1343,
      "Ġpoco": 1344,
      "Conoc": 1345,
      "Ġrecon": 1346,
      "Ġsuscriptores": 1347,
      "ani": 1348,
      "clusivo": 1349,
      "jica": 1350,
      "Ġtemp": 1351,
      "puesta": 1352,
      "Ġdomin": 1353,
      "Ġargent": 1354,
      "ConocÃ©": 1355,
      "ingresar": 1356,
      "Ġintentas": 1357,
      "Ingresar": 1358,
      "ĠExclusivo": 1359,
      "ĠdisfrutÃ¡": 1360,
      "Contenido": 1361,
      "cribirme": 1362,
      "Suscribirme": 1363,
      "Ġotras": 1364,
      "Ġdere": 1365,
      "Ġreuni": 1366,
      "ĠEstado": 1367,
      "Ġgrupo": 1368,
      "unes": 1369,
      "Ġtermin": 1370,
      "ĠinformÃ³": 1371,
      "Ġproyecto": 1372,
      "Ġellos": 1373,
      "Ġcent": 1374,
      "ĠquÃ©": 1375,
      "Ġinvestig": 1376,
      "ĠagregÃ³": 1377,
      "Ġminu": 1378,
      "Ġmedio": 1379,
      "istema": 1380,
      "rez": 1381,
      "ele": 1382,
      "Ġdestac": 1383,
      "FE": 1384,
      "biÃ³": 1385,
      "Ġini": 1386,
      "Ġapar": 1387,
      "ice": 1388,
      "Ġembargo": 1389,
      "vas": 1390,
      "Ġparticip": 1391,
      "una": 1392,
      "ĠinformaciÃ³n": 1393,
      "taron": 1394,
      "Ġrespec": 1395,
      "Ġtuvo": 1396,
      "ctu": 1397,
      "Ġinten": 1398,
      "dia": 1399,
      "ura": 1400,
      "ĠcompaÃ±": 1401,
      "Ġasi": 1402,
      "ortal": 1403,
      "hi": 1404,
      "Ã©cn": 1405,
      "var": 1406,
      "ancia": 1407,
      "Ġefec": 1408,
      "erto": 1409,
      "ĠBrasil": 1410,
      "Ġmal": 1411,
      "Ġtema": 1412,
      "Ġ12": 1413,
      "rÃŃ": 1414,
      "Ġesper": 1415,
      "arÃ¡n": 1416,
      "Ġexpres": 1417,
      "Ãºs": 1418,
      "Ã¡b": 1419,
      "Un": 1420,
      "ĠeconÃ³m": 1421,
      "tivas": 1422,
      "erg": 1423,
      "Ġfir": 1424,
      "Ġpues": 1425,
      "lu": 1426,
      "Ġsiempre": 1427,
      "ine": 1428,
      "omÃŃa": 1429,
      "Ġpoder": 1430,
      "Ġprevi": 1431,
      "Ġbar": 1432,
      "vos": 1433,
      "eza": 1434,
      "Ġsino": 1435,
      "Ã³mo": 1436,
      "Ġvarios": 1437,
      "Ġmercado": 1438,
      "yo": 1439,
      "Ġvisi": 1440,
      "Ġedi": 1441,
      "Ġir": 1442,
      "Ġlunes": 1443,
      "ĠpolÃŃtica": 1444,
      "Ġapo": 1445,
      "can": 1446,
      "ĠMa": 1447,
      "Ġconst": 1448,
      "ig": 1449,
      "Ġpon": 1450,
      "Ã©rica": 1451,
      "anci": 1452,
      "he": 1453,
      "Ġpropi": 1454,
      "ernes": 1455,
      "Sin": 1456,
      "bido": 1457,
      "Ġuruguayo": 1458,
      "dente": 1459,
      "Ġobje": 1460,
      "uela": 1461,
      "Ġrecu": 1462,
      "sis": 1463,
      "ĠÃ©l": 1464,
      "Ġk": 1465,
      "Ġpos": 1466,
      "Ġcap": 1467,
      "Ġayer": 1468,
      "ho": 1469,
      "dica": 1470,
      "Ġcinco": 1471,
      "Ġexper": 1472,
      "Ã³r": 1473,
      "Ġ18": 1474,
      "Ġpu": 1475,
      "Ġdar": 1476,
      "uar": 1477,
      "men": 1478,
      "ĠafirmÃ³": 1479,
      "Lo": 1480,
      "ĠPol": 1481,
      "Ġingres": 1482,
      "ed": 1483,
      "ĠSal": 1484,
      "tores": 1485,
      "ĠMinist": 1486,
      "Ġactivi": 1487,
      "eric": 1488,
      "Ġade": 1489,
      "cluy": 1490,
      "com": 1491,
      "toria": 1492,
      "ĠFern": 1493,
      "Ġhora": 1494,
      "elo": 1495,
      "tel": 1496,
      "Ġdif": 1497,
      "Ġtor": 1498,
      "ĠMujica": 1499,
      "Ġimportante": 1500,
      "Ġuni": 1501,
      "Ġ$": 1502,
      "Ġtele": 1503,
      "ira": 1504,
      "ĠÃºltimos": 1505,
      "ual": 1506,
      "osa": 1507,
      "Ġsistema": 1508,
      "Ġviernes": 1509,
      "ĠtÃ©cn": 1510,
      "?.": 1511,
      "ÃŃst": 1512,
      "Ġcosas": 1513,
      "Ġide": 1514,
      "vir": 1515,
      "Ġcul": 1516,
      "edad": 1517,
      "ap": 1518,
      "Ġnom": 1519,
      "Ġorganiz": 1520,
      "versi": 1521,
      "ĠBar": 1522,
      "Ġincl": 1523,
      "cup": 1524,
      "Ġautori": 1525,
      "Ġconf": 1526,
      "ĠÃºltimo": 1527,
      "ĠZ": 1528,
      "ĠInter": 1529,
      "adio": 1530,
      "osiciÃ³n": 1531,
      "Ġdebe": 1532,
      "ĠÃºn": 1533,
      "Ġnada": 1534,
      "Ġcomple": 1535,
      "Ġnin": 1536,
      "serv": 1537,
      "Ġsea": 1538,
      "vÃ©s": 1539,
      "Ã©rcol": 1540,
      "Ã©rcoles": 1541,
      "fica": 1542,
      "lig": 1543,
      "Ġestu": 1544,
      "ban": 1545,
      "Ġsegundo": 1546,
      "Ġtodas": 1547,
      "Ġdeber": 1548,
      "Ġmartes": 1549,
      "Ġencuent": 1550,
      "Ġjueves": 1551,
      "Ġregi": 1552,
      "Ġtipo": 1553,
      "van": 1554,
      "Ġseguridad": 1555,
      "Ġsen": 1556,
      "ĠCas": 1557,
      "paÃ±ol": 1558,
      "uniden": 1559,
      "ĠmiÃ©rcoles": 1560,
      "Ġoper": 1561,
      "uda": 1562,
      "Ġcr": 1563,
      "Ġcontro": 1564,
      "Ġcompar": 1565,
      "Ġesto": 1566,
      "sos": 1567,
      "Ġnacional": 1568,
      "raciÃ³n": 1569,
      "Ġregist": 1570,
      "adora": 1571,
      "enas": 1572,
      "Ġfuer": 1573,
      "tuvo": 1574,
      "Ã±ar": 1575,
      "visiÃ³n": 1576,
      "Este": 1577,
      "Cu": 1578,
      "inos": 1579,
      "Ġprensa": 1580,
      "zar": 1581,
      "Ġpublic": 1582,
      "bles": 1583,
      "Ġestadouniden": 1584,
      "ĠtravÃ©s": 1585,
      "Ġviol": 1586,
      "Ġsig": 1587,
      "Ġinteg": 1588,
      "Ġgeneral": 1589,
      "minist": 1590,
      "tante": 1591,
      "bo": 1592,
      "Ġnueva": 1593,
      "ĠpÃºblico": 1594,
      "...": 1595,
      "TambiÃ©n": 1596,
      "tener": 1597,
      "Ġempresas": 1598,
      "Ġsele": 1599,
      "tada": 1600,
      "ĠMi": 1601,
      "Ġmani": 1602,
      "Ġhacia": 1603,
      "Ġzona": 1604,
      "viÃ³": 1605,
      "ardo": 1606,
      "Ġfo": 1607,
      "Ġencontr": 1608,
      "Ġagu": 1609,
      "Ġall": 1610,
      "Ġcasa": 1611,
      "Ġpueden": 1612,
      "Ġminutos": 1613,
      "tÃ¡n": 1614,
      "Ġdenun": 1615,
      "ĠmÃ©": 1616,
      "Ġrepresent": 1617,
      "ĠindicÃ³": 1618,
      "enos": 1619,
      "Ġcasi": 1620,
      "oli": 1621,
      "Una": 1622,
      "Ġuti": 1623,
      "gn": 1624,
      "uis": 1625,
      "tamente": 1626,
      "ĠMinisterio": 1627,
      "rea": 1628,
      "ĠBu": 1629,
      "partam": 1630,
      "ĠsÃ³lo": 1631,
      "avi": 1632,
      "olog": 1633,
      "Ġtend": 1634,
      "Ġveces": 1635,
      "Ġespecial": 1636,
      "Ġdin": 1637,
      "Ġmili": 1638,
      "pen": 1639,
      "Ġhistoria": 1640,
      "erÃŃa": 1641,
      "Ġejemp": 1642,
      "ĠnÃº": 1643,
      "unca": 1644,
      "bres": 1645,
      "Ġocur": 1646,
      "Ġmos": 1647,
      "Ġ0": 1648,
      "orge": 1649,
      "cido": 1650,
      "Ġdomingo": 1651,
      "Ġ11": 1652,
      "Ġcambio": 1653,
      "emb": 1654,
      "Ġautoridades": 1655,
      "Ġtotal": 1656,
      "Ãºblica": 1657,
      "Ġ30": 1658,
      "esta": 1659,
      "ĠprÃ³ximo": 1660,
      "tonces": 1661,
      "Ġher": 1662,
      "Ġlocal": 1663,
      "teni": 1664,
      "be": 1665,
      "ĠPortal": 1666,
      "Ġnecesi": 1667,
      "adre": 1668,
      "ĠFran": 1669,
      "Ġpartidos": 1670,
      "Ġrespecto": 1671,
      "Ġins": 1672,
      "ĠcÃ³mo": 1673,
      "Ġmuchos": 1674,
      "ĠMun": 1675,
      "tidad": 1676,
      "Ġclas": 1677,
      "Ġpers": 1678,
      "ĠtenÃŃa": 1679,
      "unto": 1680,
      "acio": 1681,
      "Ġllegar": 1682,
      "ĠPo": 1683,
      "Ġestable": 1684,
      "ĠsÃŃ": 1685,
      "Ġdecir": 1686,
      "ĠasegurÃ³": 1687,
      "cil": 1688,
      "quez": 1689,
      "ismo": 1690,
      "ental": 1691,
      "ĠcÃ¡": 1692,
      "Ġigu": 1693,
      "Ġfinanci": 1694,
      "Ġclub": 1695,
      "fo": 1696,
      "sticia": 1697,
      "ficial": 1698,
      "Ġterc": 1699,
      "ric": 1700,
      "Ġcaus": 1701,
      "orn": 1702,
      "ĠaÃºn": 1703,
      "Ġprograma": 1704,
      "Ġprofes": 1705,
      "ĠEuro": 1706,
      "Ã±ana": 1707,
      "Ġinstitu": 1708,
      "ĠnÃºm": 1709,
      "Ġclar": 1710,
      "Ã³g": 1711,
      "Ġloc": 1712,
      "rera": 1713,
      "Ġcondi": 1714,
      "ĠÃģ": 1715,
      "este": 1716,
      "Ġata": 1717,
      "Ġafec": 1718,
      "ĠBan": 1719,
      "Ġtrata": 1720,
      "Ġevi": 1721,
      "dar": 1722,
      "Ġjunto": 1723,
      "Ġentren": 1724,
      "Ġami": 1725,
      "Ġpriv": 1726,
      "unta": 1727,
      "ĠfÃºtbol": 1728,
      "cent": 1729,
      "stri": 1730,
      "ĠespaÃ±ol": 1731,
      "tÃŃn": 1732,
      "omo": 1733,
      "Ġev": 1734,
      "Ġamb": 1735,
      "enda": 1736,
      "Ġdio": 1737,
      "ĠAle": 1738,
      "cep": 1739,
      "all": 1740,
      "Ġmanera": 1741,
      "ferencia": 1742,
      "Ġescri": 1743,
      "au": 1744,
      "tando": 1745,
      "Ġcompe": 1746,
      "Ġespec": 1747,
      "Ġdice": 1748,
      "ĠJuan": 1749,
      "Ġ14": 1750,
      "ĠllegÃ³": 1751,
      "Ġsan": 1752,
      "ĠFe": 1753,
      "gada": 1754,
      "Ġdesa": 1755,
      "americ": 1756,
      "Ġ'": 1757,
      "ron": 1758,
      "Ġgas": 1759,
      "Ã¡bado": 1760,
      "Ġproblemas": 1761,
      "Ġpens": 1762,
      "Ġcentro": 1763,
      "fa": 1764,
      "ach": 1765,
      "Ġpl": 1766,
      "Ġargentino": 1767,
      "Ġdistin": 1768,
      "pre": 1769,
      "ĠmaÃ±ana": 1770,
      "Ġ13": 1771,
      "Ġmisma": 1772,
      "Ġinver": 1773,
      "puesto": 1774,
      "dustri": 1775,
      "Ġcandida": 1776,
      "ĠMe": 1777,
      "ĠLuis": 1778,
      "ubo": 1779,
      "Ġhuman": 1780,
      "Ġenfr": 1781,
      "tific": 1782,
      "dor": 1783,
      "ĠpodrÃŃa": 1784,
      "Ġfuera": 1785,
      "Ã±arol": 1786,
      "Ġabri": 1787,
      "ific": 1788,
      "umi": 1789,
      "Ġyo": 1790,
      "Ġpunto": 1791,
      "ĠFrente": 1792,
      "ĠPartido": 1793,
      "vieron": 1794,
      "Ġ25": 1795,
      "Ġdirec": 1796,
      "ducaciÃ³n": 1797,
      "Ġalc": 1798,
      "ĠRod": 1799,
      "Ġadelan": 1800,
      "Ġnoche": 1801,
      "Ġofre": 1802,
      "Ġperio": 1803,
      "Ġvuel": 1804,
      "Ġmostr": 1805,
      "Ġconoci": 1806,
      "Ġmanifes": 1807,
      "uc": 1808,
      "Ġcli": 1809,
      "sto": 1810,
      "Ġlado": 1811,
      "eta": 1812,
      "Ġsuf": 1813,
      "ĠCan": 1814,
      "Ġjugar": 1815,
      "Ã¡z": 1816,
      "tali": 1817,
      "Ġfav": 1818,
      "Ġele": 1819,
      "ĠNo": 1820,
      "Ġdatos": 1821,
      "Ã¡zquez": 1822,
      "Ġba": 1823,
      "Ġtempor": 1824,
      "torio": 1825,
      "Ġbajo": 1826,
      "ĠmÃ¡": 1827,
      "vista": 1828,
      "ables": 1829,
      "Ġna": 1830,
      "Ġsocial": 1831,
      "Ġbal": 1832,
      "Ġliber": 1833,
      "Ġnovi": 1834,
      "Ġencuentro": 1835,
      "Ġsur": 1836,
      "ĠdecisiÃ³n": 1837,
      "Ġseis": 1838,
      "Ġ16": 1839,
      "Ġcuar": 1840,
      "ĠCent": 1841,
      "Ġfis": 1842,
      "ep": 1843,
      "echa": 1844,
      "Ġuruguayos": 1845,
      "Ġpartir": 1846,
      "Ġconsider": 1847,
      "mon": 1848,
      "Ġemi": 1849,
      "tantes": 1850,
      "Ġquienes": 1851,
      "Ġtrabajadores": 1852,
      "dan": 1853,
      "Ġconsul": 1854,
      "Ġale": 1855,
      "ĠsÃ¡bado": 1856,
      "Ġcier": 1857,
      "Ã¡ndez": 1858,
      "Ġcoment": 1859,
      "Ġcompro": 1860,
      "Ġoficial": 1861,
      "Ã©ti": 1862,
      "Ġpare": 1863,
      "ĠAmÃ©rica": 1864,
      "Ġtem": 1865,
      "Ġcumpli": 1866,
      "mes": 1867,
      "Ġaten": 1868,
      "arÃŃa": 1869,
      "trÃ¡s": 1870,
      "Ġnegoci": 1871,
      "Ġprecios": 1872,
      "Ġsac": 1873,
      "Ġdiario": 1874,
      "vÃŃa": 1875,
      "Ġdici": 1876,
      "Ġ17": 1877,
      "ĠVi": 1878,
      "ĠSu": 1879,
      "Ġnuestro": 1880,
      "Ġutiliz": 1881,
      "Ġdirig": 1882,
      "Ġprome": 1883,
      "bro": 1884,
      "mplio": 1885,
      "Ġigual": 1886,
      "Ġproceso": 1887,
      "chos": 1888,
      "Ġpen": 1889,
      "Hay": 1890,
      "cis": 1891,
      "Ġpal": 1892,
      "Ġemple": 1893,
      "Ġprop": 1894,
      "Ġaque": 1895,
      "Ġestas": 1896,
      "Ġrecl": 1897,
      "ĠmayorÃŃa": 1898,
      "Ġgrandes": 1899,
      "dir": 1900,
      "Me": 1901,
      "Ġdinero": 1902,
      "Ġtarde": 1903,
      "Ġmedidas": 1904,
      "ĠrelaciÃ³n": 1905,
      "ion": 1906,
      "Ġejemplo": 1907,
      "und": 1908,
      "ĠGar": 1909,
      "servador": 1910,
      "bar": 1911,
      "ĠEn": 1912,
      "Ġcrisis": 1913,
      "tero": 1914,
      "Ġaplic": 1915,
      "ĠmÃŃ": 1916,
      "ĠEj": 1917,
      "mu": 1918,
      "Ġdentro": 1919,
      "porte": 1920,
      "Ġsecre": 1921,
      "Ġpregun": 1922,
      "Ġfamilia": 1923,
      "ĠRi": 1924,
      "To": 1925,
      "Desde": 1926,
      "Ġhombre": 1927,
      "Ġfalta": 1928,
      "ior": 1929,
      "ologÃŃa": 1930,
      "Ġmedios": 1931,
      "ĠCarlos": 1932,
      "Ġexist": 1933,
      "uir": 1934,
      "Fu": 1935,
      "Ġplante": 1936,
      "ĠÃºltima": 1937,
      "Ġinternacional": 1938,
      "Ġcrecimiento": 1939,
      "aran": 1940,
      "Ġposible": 1941,
      "ĠJorge": 1942,
      "Mi": 1943,
      "gis": 1944,
      "iego": 1945,
      "estiÃ³n": 1946,
      "rasile": 1947,
      "Ġnunca": 1948,
      "rados": 1949,
      "ĠSe": 1950,
      "Ġentonces": 1951,
      "ĠObservador": 1952,
      "ĠreuniÃ³n": 1953,
      "Ġho": 1954,
      "zas": 1955,
      "FP": 1956,
      "oo": 1957,
      "enario": 1958,
      "Ġtenemos": 1959,
      "Ġjugadores": 1960,
      "Ġsegunda": 1961,
      "Ġenfrent": 1962,
      "Ġmovi": 1963,
      "Ġem": 1964,
      "Ġjuego": 1965,
      "bia": 1966,
      "ĠMartÃŃn": 1967,
      "Ġalgunas": 1968,
      "Ġorden": 1969,
      "ste": 1970,
      "ecutivo": 1971,
      "gro": 1972,
      "Su": 1973,
      "unidad": 1974,
      "Ġpuer": 1975,
      "mientos": 1976,
      "ĠGu": 1977,
      "Ġjo": 1978,
      "ya": 1979,
      "acionales": 1980,
      "Ġ2010": 1981,
      "Ġviaj": 1982,
      "cor": 1983,
      "Ġub": 1984,
      "ĠSo": 1985,
      "%.": 1986,
      "Ġestadounidense": 1987,
      "tera": 1988,
      "rio": 1989,
      "Cuando": 1990,
      "Ġalcanz": 1991,
      "Ġsentido": 1992,
      "ÃŃtu": 1993,
      "Ġcapital": 1994,
      "abor": 1995,
      "Ġvarias": 1996,
      "cional": 1997,
      "ĠMad": 1998,
      "ĠnÃºmero": 1999,
      "Ġtal": 2000,
      "Ġesos": 2001,
      "Ġbuena": 2002,
      "Ġhabi": 2003,
      "termin": 2004,
      "cen": 2005,
      "Ġofici": 2006,
      "ĠPolicÃŃa": 2007,
      "ĠVÃ¡zquez": 2008,
      "Ġvan": 2009,
      "idente": 2010,
      "don": 2011,
      "ĠPeÃ±arol": 2012,
      "Ġproblema": 2013,
      "ĠRep": 2014,
      "ablo": 2015,
      "inas": 2016,
      "tran": 2017,
      "cieron": 2018,
      "Ġmanda": 2019,
      "quÃŃ": 2020,
      "Esta": 2021,
      "Ġrep": 2022,
      "Ġder": 2023,
      "tud": 2024,
      "Ġcasos": 2025,
      "Ġmilitar": 2026,
      "ĠCa": 2027,
      "ĠPro": 2028,
      "gor": 2029,
      "Ġdefini": 2030,
      "tino": 2031,
      "form": 2032,
      "ha": 2033,
      "Ġcargo": 2034,
      "Ġw": 2035,
      "lor": 2036,
      "Ġvalor": 2037,
      "Ġposibilidad": 2038,
      "Ġavi": 2039,
      "rada": 2040,
      "ĠniÃ±os": 2041,
      "ecn": 2042,
      "fico": 2043,
      "ĠCor": 2044,
      "Ġhubo": 2045,
      "Ġfutu": 2046,
      "Ġjoven": 2047,
      "Ġfran": 2048,
      "bor": 2049,
      "eo": 2050,
      "Ġpersonal": 2051,
      "An": 2052,
      "alo": 2053,
      "ĠMundial": 2054,
      "Ġoport": 2055,
      "20": 2056,
      "Ġmedida": 2057,
      "Ġbrasile": 2058,
      "Ġrecur": 2059,
      "30": 2060,
      "Ġje": 2061,
      "ĠCam": 2062,
      "ĠAmplio": 2063,
      "Ġrecuper": 2064,
      "Ġsalud": 2065,
      "enez": 2066,
      "Ġconoc": 2067,
      "Ġcomunicado": 2068,
      "Ġservicios": 2069,
      "Ġ50": 2070,
      "Ġanti": 2071,
      "dentes": 2072,
      "ĠcampaÃ±a": 2073,
      "olÃ³g": 2074,
      "Ġ2011": 2075,
      "versidad": 2076,
      "ob": 2077,
      "Ġases": 2078,
      "Ġpel": 2079,
      "Ġpersona": 2080,
      "erro": 2081,
      "Ġpeque": 2082,
      "Ġenero": 2083,
      "Ġuruguaya": 2084,
      "ard": 2085,
      "tiene": 2086,
      "Ġpob": 2087,
      "Ġdepartam": 2088,
      "ĠselecciÃ³n": 2089,
      "onz": 2090,
      "Ġencar": 2091,
      "ela": 2092,
      "Ġsoci": 2093,
      "Ġpreo": 2094,
      "cular": 2095,
      "ĠRepÃºblica": 2096,
      "Ġ199": 2097,
      "Ġcerca": 2098,
      "ĠinvestigaciÃ³n": 2099,
      "ĠPla": 2100,
      "Ġseguir": 2101,
      "Ġindi": 2102,
      "ĠCi": 2103,
      "Ġado": 2104,
      "llas": 2105,
      "vil": 2106,
      "Ġrecord": 2107,
      "Ġkil": 2108,
      "Ġinteres": 2109,
      "oluciÃ³n": 2110,
      "guez": 2111,
      "iones": 2112,
      "Ġ21": 2113,
      "ĠNe": 2114,
      "Ġprincipal": 2115,
      "enezuela": 2116,
      "rero": 2117,
      "ete": 2118,
      "Ġmens": 2119,
      "ĠproducciÃ³n": 2120,
      "Ġfuerte": 2121,
      "Ġbase": 2122,
      "Ġestamos": 2123,
      "Ġobjetivo": 2124,
      "ĠEspaÃ±a": 2125,
      "Ġserie": 2126,
      "Ġcualquier": 2127,
      "Ġdeclaraciones": 2128,
      "eleb": 2129,
      "Ġautor": 2130,
      "Ġ24": 2131,
      "rad": 2132,
      "ĠlÃŃn": 2133,
      "Ġactual": 2134,
      "Ġestudio": 2135,
      "Ġdiciembre": 2136,
      "Ġmil": 2137,
      "Ġmues": 2138,
      "ques": 2139,
      "Ġsa": 2140,
      "ĠdifÃŃ": 2141,
      "Ġsigui": 2142,
      "Ġdetermin": 2143,
      "ctubre": 2144,
      "Ġcel": 2145,
      "Ġbo": 2146,
      "ĠPres": 2147,
      "ĠregiÃ³n": 2148,
      "ĠIntern": 2149,
      "Ġubic": 2150,
      "Ġinforme": 2151,
      "Ġjugador": 2152,
      "Ġmujeres": 2153,
      "ecer": 2154,
      "pendi": 2155,
      "Ġceleb": 2156,
      "Ġconj": 2157,
      "Ġinstal": 2158,
      "Ġperiodi": 2159,
      "Ġdocu": 2160,
      "tarÃ¡": 2161,
      "otros": 2162,
      "bal": 2163,
      "pel": 2164,
      "ry": 2165,
      "ĠMan": 2166,
      "Ġactividad": 2167,
      "Ġveci": 2168,
      "Ġmundial": 2169,
      "ĠvÃŃ": 2170,
      "ĠCopa": 2171,
      "Ġpan": 2172,
      "Ġfavor": 2173,
      "Ġ2012": 2174,
      "ĠTab": 2175,
      "cir": 2176,
      "ono": 2177,
      "ĠcomenzÃ³": 2178,
      "ĠeconomÃŃa": 2179,
      "ĠCri": 2180,
      "tag": 2181,
      "ĠAs": 2182,
      "ĠJusticia": 2183,
      "Ġestuvo": 2184,
      "Yo": 2185,
      "gre": 2186,
      "ller": 2187,
      "Ġincre": 2188,
      "ĠhabÃŃan": 2189,
      "ĠDiego": 2190,
      "Ġrel": 2191,
      "Ġlanz": 2192,
      "Ġincluy": 2193,
      "Ġdeli": 2194,
      "Ġperman": 2195,
      "Ġopin": 2196,
      "Ġfigu": 2197,
      "19": 2198,
      "dam": 2199,
      "Ġmane": 2200,
      "venes": 2201,
      "rendi": 2202,
      "Ġcondiciones": 2203,
      "ĠpolicÃŃa": 2204,
      "chas": 2205,
      "Ġprecio": 2206,
      "mÃ³": 2207,
      "ĠGobierno": 2208,
      "Ġries": 2209,
      "Ġjorn": 2210,
      "Ġhabl": 2211,
      "ĠSil": 2212,
      "ĠLu": 2213,
      "dores": 2214,
      "Ġresultados": 2215,
      "Ġtecn": 2216,
      "Ġparece": 2217,
      "zos": 2218,
      "Ġmuchas": 2219,
      "bajo": 2220,
      "mio": 2221,
      "Ġempez": 2222,
      "anto": 2223,
      "Ġcir": 2224,
      "ror": 2225,
      "Ġsue": 2226,
      "Ġiden": 2227,
      "Ġintent": 2228,
      "Ġcampe": 2229,
      "mentos": 2230,
      "dro": 2231,
      "ĠMal": 2232,
      "Ã¡m": 2233,
      "Ġincluso": 2234,
      "Ġlegis": 2235,
      "Ġsex": 2236,
      "Ġnosotros": 2237,
      "Ġfecha": 2238,
      "Ã³venes": 2239,
      "tiz": 2240,
      "ares": 2241,
      "th": 2242,
      "Ġdeman": 2243,
      "llos": 2244,
      "dico": 2245,
      "Ġsiendo": 2246,
      "Ġaument": 2247,
      "Ġella": 2248,
      "ĠBo": 2249,
      "ĠNue": 2250,
      "Ġoctubre": 2251,
      "dÃŃa": 2252,
      "ĠanunciÃ³": 2253,
      "ĠFernÃ¡ndez": 2254,
      "Ġinvi": 2255,
      "Ġsigue": 2256,
      "Ġconstru": 2257,
      "Ġ22": 2258,
      "Ġadminist": 2259,
      "Ġsor": 2260,
      "ĠVenezuela": 2261,
      "ola": 2262,
      "Ġacom": 2263,
      "ĠRa": 2264,
      "ĠmÃºs": 2265,
      "Ġfe": 2266,
      "Ġindustri": 2267,
      "Ġdispu": 2268,
      "Ġidea": 2269,
      "ger": 2270,
      "Ġconven": 2271,
      "Ġtitu": 2272,
      "Ġfon": 2273,
      "ĠquedÃ³": 2274,
      "Ġmuerte": 2275,
      "Ġ2009": 2276,
      "berto": 2277,
      "Ġmarzo": 2278,
      "Ã¡cti": 2279,
      "Ġhaya": 2280,
      "dieron": 2281,
      "Ġprimeros": 2282,
      "adie": 2283,
      "Ġvic": 2284,
      "eras": 2285,
      "ĠPer": 2286,
      "Ġvivi": 2287,
      "Ġjunio": 2288,
      "Ġconse": 2289,
      "Ġservicio": 2290,
      "Ġcapaci": 2291,
      "ple": 2292,
      "ĠdestacÃ³": 2293,
      "Ġquiere": 2294,
      "ĠDani": 2295,
      "rÃŃguez": 2296,
      "ĠBanco": 2297,
      "dose": 2298,
      "Ġtemporada": 2299,
      "Ġapoyo": 2300,
      "Ġcru": 2301,
      "ĠQ": 2302,
      "Ġdipu": 2303,
      "Ġespera": 2304,
      "Ġambos": 2305,
      "Ġrespons": 2306,
      "ĠpelÃŃcu": 2307,
      "Ġcantidad": 2308,
      "Ġbri": 2309,
      "ĠjÃ³venes": 2310,
      "Ġpron": 2311,
      "Ġraz": 2312,
      "jas": 2313,
      "greso": 2314,
      "Ġconfi": 2315,
      "Ġdebido": 2316,
      "ĠPablo": 2317,
      "ĠtÃ©cnico": 2318,
      "erra": 2319,
      "raron": 2320,
      "As": 2321,
      "Ġaumento": 2322,
      "Ah": 2323,
      "ĠpolÃŃtico": 2324,
      "Ġvac": 2325,
      "Ġconta": 2326,
      "Ġaf": 2327,
      "ĠmÃ¡xi": 2328,
      "Ġfuturo": 2329,
      "ceso": 2330,
      "Ġcali": 2331,
      "tom": 2332,
      "Ġ40": 2333,
      "vis": 2334,
      "Ġacus": 2335,
      "Ġcuer": 2336,
      "Ġcontrol": 2337,
      "ĠChile": 2338,
      "Ġ100": 2339,
      "via": 2340,
      "Ġcorre": 2341,
      "serva": 2342,
      "Ġsom": 2343,
      "Ġima": 2344,
      "ner": 2345,
      "Ġdirigi": 2346,
      "aya": 2347,
      "respon": 2348,
      "Ġfutbol": 2349,
      "Ġfiscal": 2350,
      "ĠtÃŃtu": 2351,
      "onia": 2352,
      "Ġaprob": 2353,
      "rir": 2354,
      "Ġagua": 2355,
      "Ġis": 2356,
      "Ġmode": 2357,
      "Ġexi": 2358,
      "Ġsolici": 2359,
      "Ġeuro": 2360,
      "Ġlargo": 2361,
      "neo": 2362,
      "ĠJo": 2363,
      "Ġfil": 2364,
      "ĠGonz": 2365,
      "ĠoposiciÃ³n": 2366,
      "Ġsigni": 2367,
      "Ã³p": 2368,
      "Ġarti": 2369,
      "rin": 2370,
      "ĠOr": 2371,
      "pas": 2372,
      "rid": 2373,
      "Ġrealidad": 2374,
      "cra": 2375,
      "ĠpÃºblica": 2376,
      "Ġanim": 2377,
      "Ġprepar": 2378,
      "Ġbuen": 2379,
      "Ġcif": 2380,
      "alizar": 2381,
      "%,": 2382,
      "Ġdesarrollo": 2383,
      "Como": 2384,
      "ĠRodrÃŃguez": 2385,
      "Ġvolver": 2386,
      "Ġmas": 2387,
      "amientos": 2388,
      "ĠAi": 2389,
      "ĠX": 2390,
      "tales": 2391,
      "Ġsolu": 2392,
      "voc": 2393,
      "ĠMÃ©": 2394,
      "Ġproductos": 2395,
      "ĠMo": 2396,
      "ĠdifÃŃcil": 2397,
      "tina": 2398,
      "virtiÃ³": 2399,
      "metros": 2400,
      "Ġnombre": 2401,
      "ĠÃºnico": 2402,
      "uri": 2403,
      "ray": 2404,
      "ĠlÃŃder": 2405,
      "ĠperÃŃo": 2406,
      "Ġconsecu": 2407,
      "ĠpoblaciÃ³n": 2408,
      "Ġencuentra": 2409,
      "ĠEFE": 2410,
      "tiembre": 2411,
      "Ġtrabajar": 2412,
      "Ġextra": 2413,
      "Ġescu": 2414,
      "fun": 2415,
      "Ġpudo": 2416,
      "Ġjulio": 2417,
      "ff": 2418,
      "vin": 2419,
      "Ġdiscu": 2420,
      "Ġart": 2421,
      "ĠÂ¿": 2422,
      "Ġblan": 2423,
      "Ġproductor": 2424,
      "enso": 2425,
      "uido": 2426,
      "Ġningun": 2427,
      "Ġfuncionarios": 2428,
      "ĠtelevisiÃ³n": 2429,
      "eci": 2430,
      "Entre": 2431,
      "Ġcondu": 2432,
      "rido": 2433,
      "Ġpresencia": 2434,
      "ajes": 2435,
      "Ġenfer": 2436,
      "Ġ2008": 2437,
      "Ã¡rez": 2438,
      "Ġav": 2439,
      "Ġatra": 2440,
      "tec": 2441,
      "Ġiz": 2442,
      "ex": 2443,
      "Ġtrasl": 2444,
      "tural": 2445,
      "EFE": 2446,
      "Ġresultado": 2447,
      "Ġredu": 2448,
      "Ġfuentes": 2449,
      "Ġsiete": 2450,
      "Ġeli": 2451,
      "one": 2452,
      "Ġnuestra": 2453,
      "ĠeducaciÃ³n": 2454,
      "taciones": 2455,
      "Ġpuesto": 2456,
      "pl": 2457,
      "Ġprimero": 2458,
      "Ġdetal": 2459,
      "bas": 2460,
      "ĠacompaÃ±": 2461,
      "Ã±as": 2462,
      "ĠcaÃŃ": 2463,
      "ĠEcon": 2464,
      "ĠIs": 2465,
      "vera": 2466,
      "Luego": 2467,
      "Ġrela": 2468,
      "anas": 2469,
      "ĠpasÃ³": 2470,
      "Ġsociedad": 2471,
      "ĠatrÃ¡s": 2472,
      "Ġdisp": 2473,
      "Ġocas": 2474,
      "Esto": 2475,
      "Ġrealizar": 2476,
      "Ã¡tico": 2477,
      "Ãºa": 2478,
      "gal": 2479,
      "Ġbene": 2480,
      "Ġvideo": 2481,
      "Ġmenor": 2482,
      "ĠvÃŃcti": 2483,
      "Ġmano": 2484,
      "mple": 2485,
      "Ġprue": 2486,
      "rantes": 2487,
      "ack": 2488,
      "alizaciÃ³n": 2489,
      "Ġcarrera": 2490,
      "ÃŃculo": 2491,
      "Ġbol": 2492,
      "ĠAires": 2493,
      "Ġesas": 2494,
      "Ġunas": 2495,
      "garon": 2496,
      "ei": 2497,
      "Ġnoviembre": 2498,
      "port": 2499,
      "Ġcamino": 2500,
      "Ġganar": 2501,
      "Ġnuevos": 2502,
      "Ġbaja": 2503,
      "Ġjornada": 2504,
      "Ġrecor": 2505,
      "tadas": 2506,
      "ĠMor": 2507,
      "cÃŃa": 2508,
      "Ġconflic": 2509,
      "Ġpropio": 2510,
      "Ġacep": 2511,
      "ĠInten": 2512,
      "Fue": 2513,
      "Ġtas": 2514,
      "Ġauto": 2515,
      "Ġprotag": 2516,
      "Ġpreocup": 2517,
      "Ġori": 2518,
      "eas": 2519,
      "ĠtodavÃŃa": 2520,
      "Ġespeci": 2521,
      "Ġmiemb": 2522,
      "ĠaquÃŃ": 2523,
      "50": 2524,
      "Ġelecciones": 2525,
      "Tras": 2526,
      "ĠdejÃ³": 2527,
      "ala": 2528,
      "ace": 2529,
      "Ġer": 2530,
      "Ġaclar": 2531,
      "Ġpromedio": 2532,
      "osto": 2533,
      "Ġexperi": 2534,
      "Ġconcre": 2535,
      "Ã³nica": 2536,
      "ĠEuropa": 2537,
      "lici": 2538,
      "curso": 2539,
      "rib": 2540,
      "Ġsemanas": 2541,
      "ĠningÃºn": 2542,
      "Ġpasar": 2543,
      "culo": 2544,
      "Ġdiferentes": 2545,
      "ĠVal": 2546,
      "ĠBuenos": 2547,
      "Ġello": 2548,
      "Ġjefe": 2549,
      "Ġveh": 2550,
      "Ġsociales": 2551,
      "Ġviene": 2552,
      "xico": 2553,
      "Ġpropuesta": 2554,
      "Ġfoto": 2555,
      "Ġobra": 2556,
      "Ġmayo": 2557,
      "Ġmetros": 2558,
      "Ġnorm": 2559,
      "Fuente": 2560,
      "Ġ23": 2561,
      "ĠserÃŃa": 2562,
      "dÃ³": 2563,
      "ĠtendrÃ¡": 2564,
      "Ġtemas": 2565,
      "illa": 2566,
      "ĠdeclarÃ³": 2567,
      "Ã¡g": 2568,
      "Ġprincipales": 2569,
      "Ġcorrespon": 2570,
      "Ġventa": 2571,
      "Ġcalidad": 2572,
      "Ġconocer": 2573,
      "Ġderro": 2574,
      "Ġinci": 2575,
      "ordin": 2576,
      "tivamente": 2577,
      "Ġpesar": 2578,
      "Ġrecono": 2579,
      "Ġcontr": 2580,
      "Ġexport": 2581,
      "ĠUniversidad": 2582,
      "Ġequipos": 2583,
      "Ġponer": 2584,
      "Ġagosto": 2585,
      "Ġprotagon": 2586,
      "ebrero": 2587,
      "lamento": 2588,
      "ĠPal": 2589,
      "Ġpopu": 2590,
      "guir": 2591,
      "enzo": 2592,
      "ĠdÃ©": 2593,
      "eran": 2594,
      "Ġlocales": 2595,
      "AsÃŃ": 2596,
      "ĠNueva": 2597,
      "Ġclaro": 2598,
      "Ġat": 2599,
      "Ġhablar": 2600,
      "Ġabril": 2601,
      "ĠCentral": 2602,
      "ese": 2603,
      "eren": 2604,
      "Ġalim": 2605,
      "Ġconsidera": 2606,
      "Ġhos": 2607,
      "Ġtriun": 2608,
      "ĠallÃ¡": 2609,
      "Ġhin": 2610,
      "Ġdepor": 2611,
      "Ġesti": 2612,
      "Ob": 2613,
      "ampo": 2614,
      "Ġplazo": 2615,
      "ĠrÃ¡": 2616,
      "Ġenten": 2617,
      "uales": 2618,
      "umo": 2619,
      "Ġfebrero": 2620,
      "eg": 2621,
      "Ġresto": 2622,
      "ĠHu": 2623,
      "cendi": 2624,
      "Ġevitar": 2625,
      "ĠdÃ©c": 2626,
      "Ġanterior": 2627,
      "ĠcrÃŃti": 2628,
      "Ġderechos": 2629,
      "rando": 2630,
      "adiÃ³": 2631,
      "Ġquer": 2632,
      "jeron": 2633,
      "Ġderecho": 2634,
      "xto": 2635,
      "ĠlÃŃnea": 2636,
      "sito": 2637,
      "Ġcami": 2638,
      "ĠRu": 2639,
      "ĠEjecutivo": 2640,
      "Ġinde": 2641,
      "isiÃ³n": 2642,
      "ende": 2643,
      "ĠDef": 2644,
      "Ġpasada": 2645,
      "uros": 2646,
      "ĠperÃŃodo": 2647,
      "graf": 2648,
      "ĠkilÃ³": 2649,
      "ĠDire": 2650,
      "Ġdispar": 2651,
      "ĠalgÃºn": 2652,
      "Ġpalab": 2653,
      "ficio": 2654,
      "ĠserÃ¡n": 2655,
      "Ten": 2656,
      "Ġnadie": 2657,
      "ĠrealizÃ³": 2658,
      "ĠGo": 2659,
      "10": 2660,
      "pro": 2661,
      "Ġdescu": 2662,
      "Ġuso": 2663,
      "ĠrÃ¡pi": 2664,
      "Ġsostuvo": 2665,
      "ĠprÃ¡cti": 2666,
      "ĠMadrid": 2667,
      "Ġred": 2668,
      "arlo": 2669,
      "Ġestaban": 2670,
      "ĠallÃŃ": 2671,
      "Ġrespe": 2672,
      "Ġfalle": 2673,
      "Ġciento": 2674,
      "Ġmantener": 2675,
      "ĠcompaÃ±ÃŃa": 2676,
      "ĠÃ¡rea": 2677,
      "puestas": 2678,
      "Ġnuevas": 2679,
      "nas": 2680,
      "Ġnoti": 2681,
      "Ġcalle": 2682,
      "Ahora": 2683,
      "Ġayud": 2684,
      "ĠRos": 2685,
      "Ġinicia": 2686,
      "Ã©st": 2687,
      "Ġambi": 2688,
      "Ġdescon": 2689,
      "ĠatenciÃ³n": 2690,
      "ĠGran": 2691,
      "bio": 2692,
      "dado": 2693,
      "tencia": 2694,
      "cap": 2695,
      "seÃ±": 2696,
      "Ġherman": 2697,
      "ĠlogrÃ³": 2698,
      "Ġgri": 2699,
      "arÃ©": 2700,
      "ĠTra": 2701,
      "ĠSud": 2702,
      "Ġcambios": 2703,
      "blo": 2704,
      "Ġconjunto": 2705,
      "onas": 2706,
      "Ġol": 2707,
      "wit": 2708,
      "ĠrecibiÃ³": 2709,
      "ĠTor": 2710,
      "Ġtomar": 2711,
      "Ġlista": 2712,
      "Ġpreten": 2713,
      "Ġvari": 2714,
      "erar": 2715,
      "demos": 2716,
      "ĠpolÃŃticas": 2717,
      "Ġdado": 2718,
      "op": 2719,
      "Ġgoles": 2720,
      "Ġriesgo": 2721,
      "Ġvin": 2722,
      "ĠpidiÃ³": 2723,
      "Ġocho": 2724,
      "urante": 2725,
      "ork": 2726,
      "Ġfra": 2727,
      "Ġanunci": 2728,
      "ciaciÃ³n": 2729,
      "Ġcontinu": 2730,
      "Ġresponsa": 2731,
      "Ġnorte": 2732,
      "Ġpaso": 2733,
      "ĠparticipaciÃ³n": 2734,
      "ĠeconÃ³mica": 2735,
      "ĠexpresÃ³": 2736,
      "ĠgestiÃ³n": 2737,
      "Ġalto": 2738,
      "Ġlabor": 2739,
      "Ġdesemp": 2740,
      "Ġtur": 2741,
      "aja": 2742,
      "Ġvice": 2743,
      "erta": 2744,
      "tur": 2745,
      "Ġcla": 2746,
      "leo": 2747,
      "Ġcabeza": 2748,
      "tividad": 2749,
      "Ġmayores": 2750,
      "Ġblo": 2751,
      "ers": 2752,
      "entemente": 2753,
      "Ġmarco": 2754,
      "lez": 2755,
      "estr": 2756,
      "Ġizquier": 2757,
      "Ġsalir": 2758,
      "ĠIntendencia": 2759,
      "ĠInterior": 2760,
      "Ġfac": 2761,
      "Ġsuce": 2762,
      "ĠMÃ©xico": 2763,
      "ĠFernando": 2764,
      "Ġpueda": 2765,
      "idencia": 2766,
      "rup": 2767,
      "Ġpromo": 2768,
      "Ġ2013": 2769,
      "tis": 2770,
      "Ġhijos": 2771,
      "amp": 2772,
      "Ġcuanto": 2773,
      "Ġclasific": 2774,
      "Ġconver": 2775,
      "Ġvamos": 2776,
      "ell": 2777,
      "Ġfundam": 2778,
      "NA": 2779,
      "Ġpartici": 2780,
      "Ġrevel": 2781,
      "Ġcome": 2782,
      "Ġdispon": 2783,
      "Ġprote": 2784,
      "sia": 2785,
      "ĠAnd": 2786,
      "Ġguer": 2787,
      "Ġocup": 2788,
      "Ġestra": 2789,
      "ĠganÃ³": 2790,
      "Ġ--": 2791,
      "ond": 2792,
      "Ġadelante": 2793,
      "icamente": 2794,
      "Ġedad": 2795,
      "Ġalguna": 2796,
      "Ġvent": 2797,
      "ÃŃfic": 2798,
      "Ġenerg": 2799,
      "Ġ2014": 2800,
      "ĠSen": 2801,
      "Mu": 2802,
      "Ġaj": 2803,
      "Ġdic": 2804,
      "vez": 2805,
      "Ġ60": 2806,
      "ĠChina": 2807,
      "Ġsiti": 2808,
      "Ġabi": 2809,
      "Ġimpul": 2810,
      "ertos": 2811,
      "Ġmejores": 2812,
      "ĠAFP": 2813,
      "unicip": 2814,
      "Ġsenador": 2815,
      "Ġcuerpo": 2816,
      "Ġdue": 2817,
      "Ġprofun": 2818,
      "Ġabog": 2819,
      "gel": 2820,
      "ĠNic": 2821,
      "Ġtel": 2822,
      "Ġimpac": 2823,
      "bra": 2824,
      "Ġweb": 2825,
      "tica": 2826,
      "Ġenvi": 2827,
      "Eso": 2828,
      "orado": 2829,
      "Ġdefensa": 2830,
      "tador": 2831,
      "ĠPl": 2832,
      "Ġano": 2833,
      "Ġreclam": 2834,
      "ĠPara": 2835,
      "rÃŃan": 2836,
      "Ġargentina": 2837,
      "UU": 2838,
      "ampoco": 2839,
      "Ġdeben": 2840,
      "ĠinterÃ©s": 2841,
      "Ġtorneo": 2842,
      "Ġentrenador": 2843,
      "Ġsimi": 2844,
      "ts": 2845,
      "Ġconfirm": 2846,
      "Ġiba": 2847,
      "Ġampli": 2848,
      "ÃŃamos": 2849,
      "Ġamena": 2850,
      "ES": 2851,
      "ĠConse": 2852,
      "Ġjuez": 2853,
      "ĠcomentÃ³": 2854,
      "veni": 2855,
      "teriores": 2856,
      "Ġpadre": 2857,
      "Ġasist": 2858,
      "Ġhubi": 2859,
      "ĠbritÃ¡n": 2860,
      "ĠInstitu": 2861,
      "Ġguar": 2862,
      "Ġimportantes": 2863,
      "rael": 2864,
      "ĠObama": 2865,
      "ĠLos": 2866,
      "Ġopera": 2867,
      "Ġlibre": 2868,
      "Ġelector": 2869,
      "Ġdemanda": 2870,
      "Ġeran": 2871,
      "ĠaÃ±adiÃ³": 2872,
      "lin": 2873,
      "Ġdescar": 2874,
      "Ġmadre": 2875,
      "Ġofer": 2876,
      "tÃ³n": 2877,
      "Ġvictoria": 2878,
      "Ġren": 2879,
      "Ġpagar": 2880,
      "Ġrefer": 2881,
      "Ġadmi": 2882,
      "ĠÃ©xi": 2883,
      "AR": 2884,
      "Ġconsumo": 2885,
      "Ã©m": 2886,
      "ate": 2887,
      "ÃŃculos": 2888,
      "Ġhaciendo": 2889,
      "Ġtenido": 2890,
      "Ġreal": 2891,
      "ĠSec": 2892,
      "Ġpapel": 2893,
      "ĠColom": 2894,
      "witter": 2895,
      "ĠMon": 2896,
      "Ġnaci": 2897,
      "Ġhombres": 2898,
      "ĠAd": 2899,
      "Ġentrevista": 2900,
      "turas": 2901,
      "ĠComisiÃ³n": 2902,
      "Ġdemo": 2903,
      "cipi": 2904,
      "Ġlibertad": 2905,
      "guen": 2906,
      "Ġ26": 2907,
      "lvar": 2908,
      "Ġpasa": 2909,
      "Ġrefle": 2910,
      "Ġmateri": 2911,
      "aliza": 2912,
      "ĠpolÃŃticos": 2913,
      "ĠÃŃn": 2914,
      "Ġizquierda": 2915,
      "Ġcoloc": 2916,
      "Ġtengo": 2917,
      "ĠUniÃ³n": 2918,
      "Ġdejar": 2919,
      "Ġgu": 2920,
      "alle": 2921,
      "bilidades": 2922,
      "ck": 2923,
      "Ġimpues": 2924,
      "ensor": 2925,
      "Ġmarca": 2926,
      "gia": 2927,
      "Ġsum": 2928,
      "olo": 2929,
      "genes": 2930,
      "Ġsindica": 2931,
      "Ġhijo": 2932,
      "ducciÃ³n": 2933,
      "Ġfuerza": 2934,
      "Ġcay": 2935,
      "Ġestre": 2936,
      "taria": 2937,
      "Ġviolencia": 2938,
      "arra": 2939,
      "rim": 2940,
      "erca": 2941,
      "Ġmater": 2942,
      "Ġeval": 2943,
      "Ã©di": 2944,
      "ĠMerc": 2945,
      "ĠpÃ¡g": 2946,
      "ĠLiber": 2947,
      "ĠcontÃ³": 2948,
      "Ġcampo": 2949,
      "Ġdeba": 2950,
      "Ġhacen": 2951,
      "chi": 2952,
      "Uy": 2953,
      "ancias": 2954,
      "Ġrecibi": 2955,
      "Ã¡tica": 2956,
      "Ġexperiencia": 2957,
      "tual": 2958,
      "Ġcapacidad": 2959,
      "tarse": 2960,
      "logo": 2961,
      "Ġinici": 2962,
      "Ġesf": 2963,
      "Ġdiez": 2964,
      "Ġresol": 2965,
      "Ġcancha": 2966,
      "Ġcolec": 2967,
      "jar": 2968,
      "mpi": 2969,
      "ses": 2970,
      "tico": 2971,
      "Ġcausa": 2972,
      "Ġ28": 2973,
      "ĠposiciÃ³n": 2974,
      "Ġtercer": 2975,
      "FÃºtbol": 2976,
      "vech": 2977,
      "Ġpesos": 2978,
      "ĠSalud": 2979,
      "Ġdiferencia": 2980,
      "andro": 2981,
      "Ġbusc": 2982,
      "sic": 2983,
      "Ġninguna": 2984,
      "ĠinversiÃ³n": 2985,
      "ĠahÃŃ": 2986,
      "Ġvicepres": 2987,
      "Ġoportunidad": 2988,
      "Ġextran": 2989,
      "Ġeurope": 2990,
      "Ġrecursos": 2991,
      "ĠllevÃ³": 2992,
      "ĠcaÃŃda": 2993,
      "Ġrecha": 2994,
      "ĠSi": 2995,
      "Ġcontac": 2996,
      "Ġpermite": 2997,
      "dena": 2998,
      "ĠParlamento": 2999,
      "Ġeta": 3000,
      "Ġcate": 3001,
      "Ġsaber": 3002,
      "amble": 3003,
      "Hoy": 3004,
      "Ġacci": 3005,
      "mÃ¡n": 3006,
      "Ġprob": 3007,
      "adres": 3008,
      "len": 3009,
      "ĠYork": 3010,
      "Ġapoy": 3011,
      "Ġsectores": 3012,
      "FÃºtbolUy": 3013,
      "Ġlibro": 3014,
      "Ġreconoci": 3015,
      "ĠterminÃ³": 3016,
      "Ġquin": 3017,
      "ĠRom": 3018,
      "ĠEE": 3019,
      "ĠpelÃŃcula": 3020,
      "So": 3021,
      "Ġprecis": 3022,
      "ire": 3023,
      "mestre": 3024,
      "Ġ27": 3025,
      "Ġexten": 3026,
      "inci": 3027,
      "ĠParaguay": 3028,
      "Ġacciones": 3029,
      "sul": 3030,
      "ĠhistÃ³r": 3031,
      "ĠPre": 3032,
      "Ġmandatario": 3033,
      "200": 3034,
      "ĠAso": 3035,
      "Ġsede": 3036,
      "Ġexterior": 3037,
      "Ġgust": 3038,
      "Ġ198": 3039,
      "Ġdelan": 3040,
      "Ġcerc": 3041,
      "cito": 3042,
      "ĠorganizaciÃ³n": 3043,
      "ĠhabrÃ¡": 3044,
      "Ġhicieron": 3045,
      "obern": 3046,
      "Ġcuad": 3047,
      "Ġdedic": 3048,
      "ĠdecidiÃ³": 3049,
      "Ġmuestra": 3050,
      "ĠMarÃŃa": 3051,
      "Mientras": 3052,
      "Ġmucha": 3053,
      "reas": 3054,
      "Ġlleva": 3055,
      "ĠPunta": 3056,
      "ĠpresentÃ³": 3057,
      "Ġta": 3058,
      "Ġinterior": 3059,
      "ko": 3060,
      "ĠFeder": 3061,
      "ĠGarcÃŃa": 3062,
      "ĠFac": 3063,
      "ecen": 3064,
      "Ġcalific": 3065,
      "triz": 3066,
      "Ġlegisl": 3067,
      "Ġur": 3068,
      "ĠÃºltimas": 3069,
      "ĠkilÃ³metros": 3070,
      "esa": 3071,
      "Ġdesp": 3072,
      "Ġgrande": 3073,
      "Ġsalida": 3074,
      "vent": 3075,
      "Ġcur": 3076,
      "ĠSilva": 3077,
      "mÃ¡": 3078,
      "tadores": 3079,
      "Ġcandidato": 3080,
      "ĠConsejo": 3081,
      "taba": 3082,
      "ĠrecordÃ³": 3083,
      "Ġpareja": 3084,
      "Ġdemos": 3085,
      "Ġsecretario": 3086,
      "mismo": 3087,
      "Ġreti": 3088,
      "Ġmitad": 3089,
      "Ġcui": 3090,
      "Ġinforma": 3091,
      "pal": 3092,
      "ĠvolviÃ³": 3093,
      "Ġusuarios": 3094,
      "FA": 3095,
      "centes": 3096,
      "ĠSa": 3097,
      "Ġbusca": 3098,
      "ĠDaniel": 3099,
      "lÃŃ": 3100,
      "Ġelegi": 3101,
      "Ġconcluy": 3102,
      "tribu": 3103,
      "Ġgolpe": 3104,
      "tia": 3105,
      "gados": 3106,
      "Ġing": 3107,
      "ju": 3108,
      "Ġapun": 3109,
      "Ġmenores": 3110,
      "Ġ2015": 3111,
      "ĠTabarÃ©": 3112,
      "Ġllevar": 3113,
      "Ġsignifica": 3114,
      "Ġpelo": 3115,
      "Ġalta": 3116,
      "Ġconflicto": 3117,
      "Ġcompeti": 3118,
      "ĠRÃŃo": 3119,
      "ĠfÃŃs": 3120,
      "duardo": 3121,
      "ĠestarÃ¡": 3122,
      "rieron": 3123,
      "Ġmedia": 3124,
      "Ġradio": 3125,
      "ĠAt": 3126,
      "ĠeconÃ³mico": 3127,
      "Ġcuarto": 3128,
      "Ġobli": 3129,
      "ĠEconomÃŃa": 3130,
      "Ġcabo": 3131,
      "onel": 3132,
      "Ġcentral": 3133,
      "Ġdiputado": 3134,
      "mul": 3135,
      "SA": 3136,
      "Ġreac": 3137,
      "Ġconte": 3138,
      "uicio": 3139,
      "Ġtraslad": 3140,
      "Ġcierre": 3141,
      "Ġaspec": 3142,
      "ĠtÃŃtulo": 3143,
      "Ġidentific": 3144,
      "oro": 3145,
      "Ġenti": 3146,
      "Ġcosa": 3147,
      "ĠconstrucciÃ³n": 3148,
      "Ġcarac": 3149,
      "dicos": 3150,
      "Ġbuscar": 3151,
      "Â¡": 3152,
      "trÃ³": 3153,
      "zÃ³": 3154,
      "Ġacto": 3155,
      "Ġrespuesta": 3156,
      "Ġgobern": 3157,
      "eda": 3158,
      "Ġcara": 3159,
      "Ġimagen": 3160,
      "Ġalter": 3161,
      "Ġdeuda": 3162,
      "ĠBa": 3163,
      "MÃ¡s": 3164,
      "ke": 3165,
      "ĠFer": 3166,
      "Ġlograr": 3167,
      "Ġqueda": 3168,
      "ĠOli": 3169,
      "ĠÃģlvar": 3170,
      "Ġingreso": 3171,
      "Ġasoci": 3172,
      "lia": 3173,
      "Ġpuso": 3174,
      "eral": 3175,
      "asti": 3176,
      "Ġjerar": 3177,
      "tenidos": 3178,
      "Ġgrupos": 3179,
      "Ġparticipar": 3180,
      "pÃ³": 3181,
      "Ġvisita": 3182,
      "Ġayuda": 3183,
      "Ġmanos": 3184,
      "ĠInstituto": 3185,
      "Ġgaran": 3186,
      "Durante": 3187,
      "ĠmÃºsica": 3188,
      "dedor": 3189,
      "ĠCentro": 3190,
      "mina": 3191,
      "Ġcuesti": 3192,
      "ĠMarcel": 3193,
      "Ġvista": 3194,
      "ĠAsociaciÃ³n": 3195,
      "Ġmomentos": 3196,
      "Ġaband": 3197,
      "Ġescuch": 3198,
      "ĠPoder": 3199,
      "Ġlar": 3200,
      "cima": 3201,
      "omin": 3202,
      "reo": 3203,
      "Ġpenal": 3204,
      "Ġinternacionales": 3205,
      "lle": 3206,
      "Ġellas": 3207,
      "dero": 3208,
      "Ġpoli": 3209,
      "Ġparticular": 3210,
      "SE": 3211,
      "talia": 3212,
      "later": 3213,
      "ĠediciÃ³n": 3214,
      "Ġon": 3215,
      "izaciÃ³n": 3216,
      "Ġbrin": 3217,
      "Ġactividades": 3218,
      "ĠBer": 3219,
      "Ġcient": 3220,
      "inal": 3221,
      "ĠÃ©xito": 3222,
      "Ġjudi": 3223,
      "Ġhechos": 3224,
      "Ġmarc": 3225,
      "ĠseÃ±ala": 3226,
      "ĠtÃ©r": 3227,
      "Ã¡li": 3228,
      "pertura": 3229,
      "Ġinme": 3230,
      "Ġeuros": 3231,
      "Ġhaga": 3232,
      "Ġpueblo": 3233,
      "Le": 3234,
      "monio": 3235,
      "Ġestim": 3236,
      "lidad": 3237,
      "Ġmodelo": 3238,
      "tic": 3239,
      "Ġrefi": 3240,
      "endas": 3241,
      "Ġcono": 3242,
      "Qui": 3243,
      "Ġexiste": 3244,
      "Ġ%": 3245,
      "Ġcapi": 3246,
      "erv": 3247,
      "Ġvuelta": 3248,
      "Ġreferencia": 3249,
      "Ġabs": 3250,
      "Ġpudi": 3251,
      "ÃŃsi": 3252,
      "Ã¡mara": 3253,
      "Ġvist": 3254,
      "vamente": 3255,
      "Ġmateria": 3256,
      "Ġespacio": 3257,
      "ook": 3258,
      "Ġavanz": 3259,
      "Ġnecesidad": 3260,
      "Ã©f": 3261,
      "Ar": 3262,
      "Ġrecibir": 3263,
      "Ġpaci": 3264,
      "ash": 3265,
      "venciÃ³n": 3266,
      "Ġescenario": 3267,
      "Ġdem": 3268,
      "pul": 3269,
      "Ġmiembros": 3270,
      "Ġdepartamento": 3271,
      "Ġasumi": 3272,
      "Ġconvers": 3273,
      "rer": 3274,
      "sas": 3275,
      "giÃ³": 3276,
      "ĠPor": 3277,
      "ut": 3278,
      "ĠcomisiÃ³n": 3279,
      "Ã©tico": 3280,
      "Ġcub": 3281,
      "ĠColombia": 3282,
      "Ġvicepresidente": 3283,
      "Ġrecom": 3284,
      "ĠCos": 3285,
      "Ġesfuer": 3286,
      "Ġarri": 3287,
      "ĠclÃ¡s": 3288,
      "Ġregu": 3289,
      "ĠEste": 3290,
      "dice": 3291,
      "Ġpropia": 3292,
      "rios": 3293,
      "Ġobras": 3294,
      "ĠBi": 3295,
      "Ġincor": 3296,
      "ĠtrÃ¡": 3297,
      "Ġlevan": 3298,
      "ĠconfirmÃ³": 3299,
      "ĠmÃŃni": 3300,
      "Ġconcent": 3301,
      "Ġagra": 3302,
      "Ġproce": 3303,
      "cionar": 3304,
      "ĠNicol": 3305,
      "ĠCla": 3306,
      "Ġpresente": 3307,
      "Ġresponsable": 3308,
      "amblea": 3309,
      "firma": 3310,
      "Ġpresu": 3311,
      "Ġrival": 3312,
      "ĠEduardo": 3313,
      "ĠBor": 3314,
      "Qu": 3315,
      "Ġ2007": 3316,
      "ĠcomunicaciÃ³n": 3317,
      "ĠGen": 3318,
      "ĠsÃ©": 3319,
      "ĠmostrÃ³": 3320,
      "til": 3321,
      "Ġiniciativa": 3322,
      "Ġdesarroll": 3323,
      "Ġataque": 3324,
      "ĠCÃ¡mara": 3325,
      "Ġcreo": 3326,
      "Ġpocos": 3327,
      "ĠFl": 3328,
      "Ġcompra": 3329,
      "ĠDa": 3330,
      "ĠmanifestÃ³": 3331,
      "Ġextranj": 3332,
      "Ġpelig": 3333,
      "ÃŃstica": 3334,
      "entales": 3335,
      "Ġtriunfo": 3336,
      "Ġacceso": 3337,
      "ĠinstituciÃ³n": 3338,
      "15": 3339,
      "Ġnecesario": 3340,
      "ĠTi": 3341,
      "Ġglo": 3342,
      "ĠFa": 3343,
      "dios": 3344,
      "Ġheri": 3345,
      "Ã¡lez": 3346,
      "aridad": 3347,
      "Ġmejorar": 3348,
      "Ġfigura": 3349,
      "Ġestoy": 3350,
      "ĠTo": 3351,
      "Ġaprovech": 3352,
      "ĠfÃ¡": 3353,
      "Ġproducto": 3354,
      "Ġsabe": 3355,
      "Ġcompromi": 3356,
      "ase": 3357,
      "lament": 3358,
      "Ġamigos": 3359,
      "mado": 3360,
      "ĠLo": 3361,
      "DespuÃ©s": 3362,
      "Ġexplica": 3363,
      "Ġmilitares": 3364,
      "Ġ29": 3365,
      "Ġdicho": 3366,
      "Ġdijeron": 3367,
      "Ġrepar": 3368,
      "ÃŃsticas": 3369,
      "Ġitali": 3370,
      "Ġhemos": 3371,
      "ĠinflaciÃ³n": 3372,
      "Ġobst": 3373,
      "Observa": 3374,
      "id": 3375,
      "Ġmari": 3376,
      "ĠTa": 3377,
      "Ġvecinos": 3378,
      "cin": 3379,
      "adamente": 3380,
      "Ġcuales": 3381,
      "ĠtelÃ©f": 3382,
      "ficul": 3383,
      "Ġproyectos": 3384,
      "Ġreco": 3385,
      "Ġhumanos": 3386,
      "Ġinsi": 3387,
      "tieron": 3388,
      "how": 3389,
      "Ġconci": 3390,
      "dados": 3391,
      "ĠPi": 3392,
      "duca": 3393,
      "torias": 3394,
      "Ġvincul": 3395,
      "ER": 3396,
      "ĠJulio": 3397,
      "Ġplata": 3398,
      "Ġtitular": 3399,
      "Ch": 3400,
      "ĠLatina": 3401,
      "Ã³pez": 3402,
      "ĠreconociÃ³": 3403,
      "lÃ¡n": 3404,
      "Ġenferme": 3405,
      "ĠSeb": 3406,
      "ĠdÃ³lar": 3407,
      "ficios": 3408,
      "Ġgre": 3409,
      "Ġali": 3410,
      "Ġdirigentes": 3411,
      "Ġapenas": 3412,
      "ĠbÃ¡s": 3413,
      "Ġcine": 3414,
      "Ġajust": 3415,
      "ĠmÃ¡ximo": 3416,
      "Ġdirigente": 3417,
      "donado": 3418,
      "Ġ197": 3419,
      "Ġgracias": 3420,
      "ĠInternacional": 3421,
      "Ġprevisto": 3422,
      "Ġdificul": 3423,
      "Ġrevista": 3424,
      "ula": 3425,
      "ĠAst": 3426,
      "Ġdenuncia": 3427,
      "Ġadqui": 3428,
      "mÃ¡genes": 3429,
      "Uruguay": 3430,
      "Ġresponsabilidad": 3431,
      "Ġdepen": 3432,
      "Ġperi": 3433,
      "drÃ¡": 3434,
      "Ġcomplic": 3435,
      "gin": 3436,
      "Ġtampoco": 3437,
      "unal": 3438,
      "ington": 3439,
      "ĠFrancia": 3440,
      "Ġcolabor": 3441,
      "Ġmad": 3442,
      "ĠDes": 3443,
      "viles": 3444,
      "Ġpedido": 3445,
      "Ġfondo": 3446,
      "ĠLiga": 3447,
      "Ġmulti": 3448,
      "ĠSebasti": 3449,
      "Ġmercados": 3450,
      "ĠtecnologÃŃa": 3451,
      "cionales": 3452,
      "Ġagencia": 3453,
      "ebook": 3454,
      "ĠMich": 3455,
      "Ġcoinci": 3456,
      "Ġterri": 3457,
      "Ã©rez": 3458,
      "ĠRam": 3459,
      "Ġsitio": 3460,
      "guien": 3461,
      "Ġcategor": 3462,
      "ÃŃos": 3463,
      "Ġcumplir": 3464,
      "Ġdoble": 3465,
      "Ġdro": 3466,
      "Ġllamado": 3467,
      "Ġbanc": 3468,
      "tavo": 3469,
      "Ġelem": 3470,
      "Ġvotos": 3471,
      "bros": 3472,
      "llar": 3473,
      "ĠÃºnica": 3474,
      "ĠItalia": 3475,
      "Ã¡ndo": 3476,
      "ĠbrasileÃ±o": 3477,
      "ĠTwitter": 3478,
      "Uno": 3479,
      "ĠtÃ©rmin": 3480,
      "mania": 3481,
      "Ġfirma": 3482,
      "Ġadop": 3483,
      "Ġetapa": 3484,
      "Ġbarrio": 3485,
      "Ġtrabajando": 3486,
      "Ġsorp": 3487,
      "Sobre": 3488,
      "ĠimÃ¡genes": 3489,
      "QuÃ©": 3490,
      "Ġtesti": 3491,
      "Ġredes": 3492,
      "Ġhe": 3493,
      "ĠPere": 3494,
      "Ġmodi": 3495,
      "Ġcomercial": 3496,
      "Ġrei": 3497,
      "iendo": 3498,
      "gando": 3499,
      "Ġclientes": 3500,
      "tida": 3501,
      "ĠopiniÃ³n": 3502,
      "hu": 3503,
      "esiÃ³n": 3504,
      "ervi": 3505,
      "Ġtrib": 3506,
      "az": 3507,
      "ĠMat": 3508,
      "nes": 3509,
      "Ã¡vez": 3510,
      "Ġindustria": 3511,
      "Ãºsque": 3512,
      "tiago": 3513,
      "osur": 3514,
      "Ġpartes": 3515,
      "ĠCerro": 3516,
      "Ġpie": 3517,
      "Ġrenun": 3518,
      "ĠprÃ³ximos": 3519,
      "Ġ70": 3520,
      "ĠpÃ©r": 3521,
      "iro": 3522,
      "ĠGonzÃ¡lez": 3523,
      "Ġpadres": 3524,
      "Ġ31": 3525,
      "Ġjuicio": 3526,
      "Ġconsumi": 3527,
      "reno": 3528,
      "Ġbanco": 3529,
      "camente": 3530,
      "onos": 3531,
      "deraciÃ³n": 3532,
      "Ġconcur": 3533,
      "Ġbueno": 3534,
      "Ġbanda": 3535,
      "Ġfor": 3536,
      "Ġprotes": 3537,
      "Ġargentinos": 3538,
      "ĠGre": 3539,
      "ĠrÃ©": 3540,
      "Ġelimin": 3541,
      "ĠdiÃ¡": 3542,
      "Ya": 3543,
      "Ġnega": 3544,
      "rique": 3545,
      "Ġpese": 3546,
      "Ġ90": 3547,
      "ĠdeberÃŃa": 3548,
      "ĠCorte": 3549,
      "Ġzonas": 3550,
      "elli": 3551,
      "talla": 3552,
      "Ġespecialmente": 3553,
      "ĠpodrÃ¡": 3554,
      "Ġparo": 3555,
      "diendo": 3556,
      "ĠperdiÃ³": 3557,
      "Ġprincipio": 3558,
      "lado": 3559,
      "Ġmor": 3560,
      "Ġfines": 3561,
      "ĠprisiÃ³n": 3562,
      "ĠSur": 3563,
      "tamiento": 3564,
      "hn": 3565,
      "ĠMercosur": 3566,
      "Ġasegura": 3567,
      "pone": 3568,
      "Ã¡ndose": 3569,
      "11": 3570,
      "Ġargu": 3571,
      "ĠmÃ©dico": 3572,
      "jÃ³": 3573,
      "culos": 3574,
      "Ġselec": 3575,
      "Ġturi": 3576,
      "Ġdesi": 3577,
      "Ġrealizado": 3578,
      "Ġconvo": 3579,
      "celona": 3580,
      "zado": 3581,
      "Ġeduca": 3582,
      "Ġincorpor": 3583,
      "ense": 3584,
      "tades": 3585,
      "gencia": 3586,
      "Ġorganismo": 3587,
      "Ġ80": 3588,
      "Ġtasa": 3589,
      "mbre": 3590,
      "ĠLÃ³pez": 3591,
      "untos": 3592,
      "Ġrendi": 3593,
      "Ġotor": 3594,
      "Ġcirc": 3595,
      "ĠpodÃŃa": 3596,
      "Ġmarcha": 3597,
      "Ġperiodista": 3598,
      "Ġcanal": 3599,
      "ĠSport": 3600,
      "Ġpremi": 3601,
      "Ã¡ticos": 3602,
      "echo": 3603,
      "ĠcÃ¡r": 3604,
      "torno": 3605,
      "ki": 3606,
      "Ġingresos": 3607,
      "vic": 3608,
      "Ġadoles": 3609,
      "Ġsindic": 3610,
      "ĠmÃ³": 3611,
      "Ġalre": 3612,
      "alidades": 3613,
      "ĠpÃºblicos": 3614,
      "Ġoferta": 3615,
      "sion": 3616,
      "Aunque": 3617,
      "Ġconferencia": 3618,
      "ĠFi": 3619,
      "ĠvÃŃctimas": 3620,
      "ĠintenciÃ³n": 3621,
      "Ġlucha": 3622,
      "Ġmensaje": 3623,
      "Ġdiv": 3624,
      "Ġelectoral": 3625,
      "ĠcompaÃ±eros": 3626,
      "ĠacciÃ³n": 3627,
      "ĠSuÃ¡rez": 3628,
      "ĠSebastiÃ¡n": 3629,
      "Ġlugares": 3630,
      "Ġbloque": 3631,
      "bel": 3632,
      "Ġinstru": 3633,
      "Ġdelantero": 3634,
      "Ġrelaciones": 3635,
      "ĠON": 3636,
      "ezol": 3637,
      "Ġcontrato": 3638,
      "ĠcrÃ©di": 3639,
      "Ġencima": 3640,
      "Ġencontra": 3641,
      "TE": 3642,
      "ĠconsiderÃ³": 3643,
      "Ġvolun": 3644,
      "Ese": 3645,
      "Ġinterpre": 3646,
      "Ġdifun": 3647,
      "ota": 3648,
      "Ġtransmi": 3649,
      "eciÃ³": 3650,
      "quiera": 3651,
      "Ġcoordin": 3652,
      "Ġabandon": 3653,
      "Ġfron": 3654,
      "ional": 3655,
      "ĠPÃ©rez": 3656,
      "Ġbastante": 3657,
      "Ġvenezol": 3658,
      "Ã¼": 3659,
      "ensi": 3660,
      "Ġllega": 3661,
      "Ġhogar": 3662,
      "ĠBlan": 3663,
      "Mar": 3664,
      "frica": 3665,
      "ĠMaldonado": 3666,
      "ye": 3667,
      "alismo": 3668,
      "ĠenergÃŃa": 3669,
      "CA": 3670,
      "Ġpresidenta": 3671,
      "ĠespectÃ¡": 3672,
      "ĠThe": 3673,
      "Ġimpuls": 3674,
      "Ġguerra": 3675,
      "ĠhabrÃŃa": 3676,
      "Ġinicio": 3677,
      "ĠprÃ³xima": 3678,
      "tidos": 3679,
      "Ġhacerlo": 3680,
      "ondres": 3681,
      "ĠMartÃŃnez": 3682,
      "Re": 3683,
      "Ġperten": 3684,
      "ĠPedro": 3685,
      "ĠPresidencia": 3686,
      "Ġalguien": 3687,
      "Ãºsqueda": 3688,
      "RA": 3689,
      "Ġpis": 3690,
      "ĠHol": 3691,
      "ĠsaliÃ³": 3692,
      "ĠFacebook": 3693,
      "Ġestadio": 3694,
      "Ġvoy": 3695,
      "Ġconstr": 3696,
      "Ġsepar": 3697,
      "ĠSantiago": 3698,
      "Ġresta": 3699,
      "Ġmiles": 3700,
      "ĠMarcelo": 3701,
      "cÃ©s": 3702,
      "Ġventas": 3703,
      "Ġviaje": 3704,
      "Ġarro": 3705,
      "ĠcampeÃ³n": 3706,
      "Ġpuedan": 3707,
      "ĠdeberÃ¡": 3708,
      "Ã¡lisis": 3709,
      "rÃ©s": 3710,
      "Ġnueve": 3711,
      "Hasta": 3712,
      "Ġcarne": 3713,
      "aco": 3714,
      "Ġperder": 3715,
      "vidu": 3716,
      "Ġtiempos": 3717,
      "Ġpeor": 3718,
      "ans": 3719,
      "osos": 3720,
      "Ġaudi": 3721,
      "anda": 3722,
      "Ġpolic": 3723,
      "Ġtab": 3724,
      "stina": 3725,
      "gua": 3726,
      "Ġdelin": 3727,
      "Ġcambiar": 3728,
      "Ġplanta": 3729,
      "Ġorig": 3730,
      "Ġmantiene": 3731,
      "Ġmodo": 3732,
      "Ġvisto": 3733,
      "Ġinfra": 3734,
      "oni": 3735,
      "ĠCl": 3736,
      "Ġconfianza": 3737,
      "del": 3738,
      "Ġdistintos": 3739,
      "Ãºl": 3740,
      "adic": 3741,
      "Ġactor": 3742,
      "Ġgrave": 3743,
      "Ġbom": 3744,
      "gimen": 3745,
      "Ġmodific": 3746,
      "Ġger": 3747,
      "Ġencontrar": 3748,
      "Ġverdad": 3749,
      "Ġdefin": 3750,
      "Ġporcent": 3751,
      "Ġdivers": 3752,
      "Ġdenunci": 3753,
      "ĠPas": 3754,
      "Ġtratar": 3755,
      "ĠLondres": 3756,
      "Ġcosto": 3757,
      "Ġejecu": 3758,
      "Ġnatural": 3759,
      "ĠCu": 3760,
      "americana": 3761,
      "Ġenc": 3762,
      "Ġcolor": 3763,
      "ĠFor": 3764,
      "ashington": 3765,
      "ky": 3766,
      "ĠmÃ©dicos": 3767,
      "alizado": 3768,
      "Ġrev": 3769,
      "Ġoblig": 3770,
      "Ġsean": 3771,
      "pol": 3772,
      "uba": 3773,
      "americano": 3774,
      "Ġsust": 3775,
      "Ġcanci": 3776,
      "Ġtrad": 3777,
      "Ġconductor": 3778,
      "ĠSocial": 3779,
      "Ġza": 3780,
      "Ġelabor": 3781,
      "ĠadvirtiÃ³": 3782,
      "ĠJe": 3783,
      "Ġestrate": 3784,
      "ĠHo": 3785,
      "Ġsep": 3786,
      "ĠGer": 3787,
      "idad": 3788,
      "Ġenorm": 3789,
      "ĠrÃ©gimen": 3790,
      "Ġdelito": 3791,
      "500": 3792,
      "ciendo": 3793,
      "Ġindividu": 3794,
      "ella": 3795,
      "Ġtuvieron": 3796,
      "masi": 3797,
      "ĠpÃ¡gina": 3798,
      "alizÃ³": 3799,
      "Ġdesc": 3800,
      "PP": 3801,
      "Par": 3802,
      "ĠRic": 3803,
      "ĠAlberto": 3804,
      "Ġmencion": 3805,
      "ches": 3806,
      "Ġ2006": 3807,
      "Ġlimi": 3808,
      "vado": 3809,
      "stituciÃ³n": 3810,
      "Ġvalores": 3811,
      "Ġmunicip": 3812,
      "ular": 3813,
      "Ġpeso": 3814,
      "TA": 3815,
      "Ġejer": 3816,
      "Ġacerca": 3817,
      "Ġvel": 3818,
      "ĠcomÃºn": 3819,
      "Ġmovimiento": 3820,
      "Ġrele": 3821,
      "Ġgole": 3822,
      "Ġniveles": 3823,
      "Ġnegocio": 3824,
      "Ġmag": 3825,
      "trimonio": 3826,
      "Ġpago": 3827,
      "ance": 3828,
      "Ġarmas": 3829,
      "Ġcomercio": 3830,
      "Ġrelacion": 3831,
      "Asi": 3832,
      "Ġpodemos": 3833,
      "Ġevento": 3834,
      "Ġfotos": 3835,
      "ĠEurope": 3836,
      "ĠVer": 3837,
      "Ġmediante": 3838,
      "ler": 3839,
      "ris": 3840,
      "Ġvue": 3841,
      "plic": 3842,
      "tÃ©": 3843,
      "gaciÃ³n": 3844,
      "Ã©tica": 3845,
      "Ġproductores": 3846,
      "grafÃŃa": 3847,
      "Ġportavo": 3848,
      "plom": 3849,
      "ĠChÃ¡vez": 3850,
      "onato": 3851,
      "ĠfÃ¡cil": 3852,
      "ÃŃfico": 3853,
      "Ġpolicial": 3854,
      "enci": 3855,
      "Ġsuel": 3856,
      "Ġtranqui": 3857,
      "Ġconform": 3858,
      "Ġtercera": 3859,
      "ĠBen": 3860,
      "Que": 3861,
      "OS": 3862,
      "ĠpolÃ©m": 3863,
      "Ġhospital": 3864,
      "Ġincon": 3865,
      "Ġimportancia": 3866,
      "Ġterror": 3867,
      "dal": 3868,
      "Ġpublici": 3869,
      "Ġnegocios": 3870,
      "Ġpalabras": 3871,
      "Ġimpacto": 3872,
      "Ġamor": 3873,
      "Ġescal": 3874,
      "ĠNicolÃ¡s": 3875,
      "ĠGeneral": 3876,
      "ultura": 3877,
      "Ġautom": 3878,
      "ĠSar": 3879,
      "Ġdesapar": 3880,
      "scar": 3881,
      "Ġoc": 3882,
      "Ġcierto": 3883,
      "Ġllegada": 3884,
      "Ġvio": 3885,
      "xic": 3886,
      "Ġ(...": 3887,
      "Ġreca": 3888,
      "Ġpele": 3889,
      "Ġcic": 3890,
      "Ġactualmente": 3891,
      "gles": 3892,
      "ĠFA": 3893,
      "Ġinstituciones": 3894,
      "Ġmol": 3895,
      "Ġemo": 3896,
      "Estamos": 3897,
      "cente": 3898,
      "zÃ³n": 3899,
      "Ġextre": 3900,
      "ĠadministraciÃ³n": 3901,
      "Ġpoten": 3902,
      "Ġcentros": 3903,
      "ĠdiÃ¡logo": 3904,
      "Ġcontar": 3905,
      "Ġembaj": 3906,
      "Ġdesaf": 3907,
      "Ġtransform": 3908,
      "bus": 3909,
      "Ġunidades": 3910,
      "Ġestadounidenses": 3911,
      "Di": 3912,
      "Ġresca": 3913,
      "ĠAstori": 3914,
      "Ġcadena": 3915,
      "Son": 3916,
      "Ġdetalles": 3917,
      "12": 3918,
      "ria": 3919,
      "ĠWashington": 3920,
      "Ġsindicato": 3921,
      "Ġfamilias": 3922,
      "pendiente": 3923,
      "Ġprovo": 3924,
      "ĠdÃ©cada": 3925,
      "Ġdecre": 3926,
      "Ġcifra": 3927,
      "Ġmoder": 3928,
      "Ġoficiales": 3929,
      "ĠÃ©po": 3930,
      "ĠversiÃ³n": 3931,
      "Ġrepresentantes": 3932,
      "Ġconvi": 3933,
      "Ġoperaciones": 3934,
      "erdos": 3935,
      "Ġdelincu": 3936,
      "Ġacerc": 3937,
      "ĠDÃŃa": 3938,
      "ly": 3939,
      "onda": 3940,
      "inado": 3941,
      "ĠquiÃ©n": 3942,
      "Ġluz": 3943,
      "Ġcaracter": 3944,
      "Ġdiscurso": 3945,
      "ĠpÃºblicas": 3946,
      "damente": 3947,
      "Ġcob": 3948,
      "Ġdemasi": 3949,
      "ĠcayÃ³": 3950,
      "Ġhabili": 3951,
      "Ġincluye": 3952,
      "alia": 3953,
      "Ġinternet": 3954,
      "ĠaclarÃ³": 3955,
      "ĠcÃ¡rcel": 3956,
      "deres": 3957,
      "Ġrespal": 3958,
      "Ġapor": 3959,
      "Ġgenerar": 3960,
      "unidades": 3961,
      "est": 3962,
      "ĠoperaciÃ³n": 3963,
      "irse": 3964,
      "Ġsemi": 3965,
      "ĠWil": 3966,
      "ĠocurriÃ³": 3967,
      "ĠAlej": 3968,
      "Ġemerg": 3969,
      "ĠhablÃ³": 3970,
      "Ġplantel": 3971,
      "ecta": 3972,
      "vaciÃ³n": 3973,
      "ĠLas": 3974,
      "ĠNa": 3975,
      "Ġestru": 3976,
      "Ġbor": 3977,
      "laz": 3978,
      "Ġclave": 3979,
      "Ġelectr": 3980,
      "ĠMac": 3981,
      "dul": 3982,
      "Ġeconom": 3983,
      "Ġaquellos": 3984,
      "ĠdirecciÃ³n": 3985,
      "ĠcreaciÃ³n": 3986,
      "Ġpensar": 3987,
      "ĠtomÃ³": 3988,
      "Ġfuente": 3989,
      "cina": 3990,
      "ĠCal": 3991,
      "Ġpopular": 3992,
      "fac": 3993,
      "ĠrazÃ³n": 3994,
      "ĠBarcelona": 3995,
      "Ġafirma": 3996,
      "Ġtr": 3997,
      "fil": 3998,
      "Ġsimilar": 3999,
      "Ġ2005": 4000,
      "Ġportavoz": 4001,
      "Ġdisco": 4002,
      "anzas": 4003,
      "Ġsubray": 4004,
      "Ġrema": 4005,
      "Ġfamiliares": 4006,
      "Ġprobable": 4007,
      "cambi": 4008,
      "Ġocu": 4009,
      "Ġinterna": 4010,
      "Ġcomba": 4011,
      "ombi": 4012,
      "Ġvie": 4013,
      "Ġcostos": 4014,
      "Ġavan": 4015,
      "Ġleg": 4016,
      "Ġhubiera": 4017,
      "graciÃ³n": 4018,
      "ĠAlemania": 4019,
      "amÃ©rica": 4020,
      "ĠPI": 4021,
      "Ġpelota": 4022,
      "Ġsuerte": 4023,
      "ĠEducaciÃ³n": 4024,
      "ÃŃficos": 4025,
      "tarios": 4026,
      "Ġencuentran": 4027,
      "Ġempresario": 4028,
      "Ġos": 4029,
      "CI": 4030,
      "Ġsufici": 4031,
      "Ġsiguiente": 4032,
      "ĠjugÃ³": 4033,
      "lÃ©s": 4034,
      "Ġmismos": 4035,
      "ĠvehÃŃculos": 4036,
      "Ġdebate": 4037,
      "Ġcuyo": 4038,
      "Ġindica": 4039,
      "Ġchil": 4040,
      "titud": 4041,
      "Ġintegrantes": 4042,
      "Ġarre": 4043,
      "ĠPerÃº": 4044,
      "Ġgobiern": 4045,
      "Ġfru": 4046,
      "derÃŃa": 4047,
      "ĠpodrÃŃan": 4048,
      "ĠDavi": 4049,
      "Ġfuerzas": 4050,
      "Ġcompetencia": 4051,
      "Ġconstitu": 4052,
      "Ġesposa": 4053,
      "Ġcomprome": 4054,
      "Ġ35": 4055,
      "su": 4056,
      "end": 4057,
      "Ġalrededor": 4058,
      "ft": 4059,
      "Ġcantante": 4060,
      "Ġdisponi": 4061,
      "acalle": 4062,
      "Ġcompromiso": 4063,
      "omi": 4064,
      "Ġciudadanos": 4065,
      "Esa": 4066,
      "Ġmotivo": 4067,
      "Todo": 4068,
      "radas": 4069,
      "ĠDepartam": 4070,
      "ĠDirecciÃ³n": 4071,
      "-,": 4072,
      "cipios": 4073,
      "her": 4074,
      "lista": 4075,
      "cepciÃ³n": 4076,
      "Ġasisti": 4077,
      "Ġ2016": 4078,
      "Ġprev": 4079,
      "ĠLor": 4080,
      "didas": 4081,
      "Ġobserv": 4082,
      "Ġcifras": 4083,
      "Ġpremio": 4084,
      "Ġanal": 4085,
      "ĠHa": 4086,
      "Ġvive": 4087,
      "Ġlice": 4088,
      "Ġcomerci": 4089,
      "Ġpase": 4090,
      "ĠCru": 4091,
      "Ġbancos": 4092,
      "ĠpolicÃŃas": 4093,
      "Ġtro": 4094,
      "Ġhija": 4095,
      "ĠartÃŃculo": 4096,
      "ĠInternet": 4097,
      "Ġvendi": 4098,
      "ĠacÃ¡": 4099,
      "Ġinvolu": 4100,
      "Ġaccidente": 4101,
      "Ġdivi": 4102,
      "Ġpin": 4103,
      "rÃ¡nsito": 4104,
      "ĠAp": 4105,
      "AFP": 4106,
      "Ã¡r": 4107,
      "Ġsir": 4108,
      "rasco": 4109,
      "tarÃŃa": 4110,
      "Ġempresarios": 4111,
      "Ġseptiembre": 4112,
      "Ġcrear": 4113,
      "mada": 4114,
      "Ġllegaron": 4115,
      "recu": 4116,
      "Ġgui": 4117,
      "Ġimpres": 4118,
      "Ġestudios": 4119,
      "abri": 4120,
      "stavo": 4121,
      "eco": 4122,
      "ĠArti": 4123,
      "Ġestudiantes": 4124,
      "Ġdocumento": 4125,
      "ag": 4126,
      "ismos": 4127,
      "Ġperiodistas": 4128,
      "tirÃ¡": 4129,
      "Ġcanciller": 4130,
      "Ġcorri": 4131,
      "Ġprivado": 4132,
      "ĠsoluciÃ³n": 4133,
      "ĠinglÃ©s": 4134,
      "Ġenter": 4135,
      "ĠAb": 4136,
      "ĠAnton": 4137,
      "ĠconcluyÃ³": 4138,
      "han": 4139,
      "Ġabogado": 4140,
      "ĠCongreso": 4141,
      "Ġfamos": 4142,
      "ĠpodrÃ¡n": 4143,
      "Ġpuerta": 4144,
      "Ġtransporte": 4145,
      "tti": 4146,
      "Ġtre": 4147,
      "ĠCasa": 4148,
      "Ġconseguir": 4149,
      "Ġimposi": 4150,
      "Ã©rcito": 4151,
      "ĠestÃ©": 4152,
      "chner": 4153,
      "ĠnegociaciÃ³n": 4154,
      "Ġincremento": 4155,
      "Ġquieren": 4156,
      "Ġalterna": 4157,
      "Ġtierra": 4158,
      "Ġaltura": 4159,
      "arla": 4160,
      "ĠSanta": 4161,
      "Ġprimeras": 4162,
      "Ġprueba": 4163,
      "ĠMas": 4164,
      "ĠpresentaciÃ³n": 4165,
      "ĠÃ³r": 4166,
      "Ã¡l": 4167,
      "augu": 4168,
      "Ġdemostr": 4169,
      "Ġdestino": 4170,
      "Ġsetiembre": 4171,
      "Ġafirm": 4172,
      "Ġinversiones": 4173,
      "Ġfinalmente": 4174,
      "avier": 4175,
      "ĠÃŃndice": 4176,
      "cracia": 4177,
      "Ġtexto": 4178,
      "Ġdistintas": 4179,
      "are": 4180,
      "Ġaus": 4181,
      "ĠBon": 4182,
      "Ġmec": 4183,
      "ĠPlata": 4184,
      "ale": 4185,
      "Ġblanco": 4186,
      "Ġevalu": 4187,
      "ĠPlan": 4188,
      "Ġtenga": 4189,
      "Ġdieron": 4190,
      "Ġobstante": 4191,
      "Ġsiglo": 4192,
      "All": 4193,
      "ĠresoluciÃ³n": 4194,
      "ĠanÃ¡lisis": 4195,
      "ĠCab": 4196,
      "Ġrepresentante": 4197,
      "lÃ³": 4198,
      "Asimismo": 4199,
      "Ġalum": 4200,
      "eropu": 4201,
      "Ġsuma": 4202,
      "Ġefectos": 4203,
      "Ġclic": 4204,
      "crÃ¡": 4205,
      "Ġ500": 4206,
      "rales": 4207,
      "ĠfrancÃ©s": 4208,
      "Ġdesarrollar": 4209,
      "erda": 4210,
      "Ġrepresenta": 4211,
      "deg": 4212,
      "cidos": 4213,
      "Ġpruebas": 4214,
      "Ġbre": 4215,
      "Ġefecto": 4216,
      "ĠSegu": 4217,
      "Ġorigen": 4218,
      "tienen": 4219,
      "Ġfuego": 4220,
      "edo": 4221,
      "Ġactriz": 4222,
      "Ġintelig": 4223,
      "ĠCastro": 4224,
      "Ġentrada": 4225,
      "Ġmonto": 4226,
      "Ġtrabaja": 4227,
      "Ġepi": 4228,
      "Ġsolamente": 4229,
      "ka": 4230,
      "ĠniÃ±o": 4231,
      "Ġhotel": 4232,
      "ramente": 4233,
      "Ġreser": 4234,
      "Ġgusta": 4235,
      "ĠpreocupaciÃ³n": 4236,
      "Ġinaugu": 4237,
      "Ġlec": 4238,
      "Ġescuela": 4239,
      "ĠParque": 4240,
      "ĠGui": 4241,
      "Ġsacar": 4242,
      "tÃŃa": 4243,
      "tora": 4244,
      "Ġjerarca": 4245,
      "Ġabsolu": 4246,
      "sec": 4247,
      "cisco": 4248,
      "uegos": 4249,
      "Ġtantos": 4250,
      "didos": 4251,
      "Ti": 4252,
      "cida": 4253,
      "ĠtenÃŃan": 4254,
      "Ġnorma": 4255,
      "',": 4256,
      "Ġllu": 4257,
      "cuador": 4258,
      "Ġanimales": 4259,
      "ker": 4260,
      "Ġ(...)": 4261,
      "ĠrecuperaciÃ³n": 4262,
      "Ġdescub": 4263,
      "Ġsosp": 4264,
      "ood": 4265,
      "Ġjusticia": 4266,
      "olÃ³gico": 4267,
      "tiendo": 4268,
      "Ġcolombi": 4269,
      "Ġcuya": 4270,
      "Ġnecesita": 4271,
      "itÃ©": 4272,
      "ĠFon": 4273,
      "Ġsimple": 4274,
      "Ġfaci": 4275,
      "Ġdan": 4276,
      "Ġduda": 4277,
      "Ġdeleg": 4278,
      "Algun": 4279,
      "ĠfunciÃ³n": 4280,
      "ĠAN": 4281,
      "Ġsiguen": 4282,
      "Ġseguro": 4283,
      "Ġexpecta": 4284,
      "Ġfondos": 4285,
      "Ġnegociaciones": 4286,
      "enal": 4287,
      "ley": 4288,
      "Ġfutbolista": 4289,
      "ender": 4290,
      "Ġcuestion": 4291,
      "Ġespaci": 4292,
      "Ġformas": 4293,
      "Ġesperar": 4294,
      "render": 4295,
      "uctura": 4296,
      "ong": 4297,
      "Ġprofesion": 4298,
      "Ġsoy": 4299,
      "Ġventaja": 4300,
      "Ju": 4301,
      "ĠaviÃ³n": 4302,
      "Ġjudicial": 4303,
      "Ġmanten": 4304,
      "entado": 4305,
      "Ġtrimestre": 4306,
      "Ġmoneda": 4307,
      "entan": 4308,
      "Ġdespe": 4309,
      "ĠSol": 4310,
      "ĠelecciÃ³n": 4311,
      "enza": 4312,
      "forma": 4313,
      "estructura": 4314,
      "Ġdese": 4315,
      "ĠÃ¡r": 4316,
      "Ġnar": 4317,
      "Ġdetec": 4318,
      "ĠTrib": 4319,
      "oma": 4320,
      "pub": 4321,
      "Ġvivir": 4322,
      "ĠCuba": 4323,
      "table": 4324,
      "ĠaplicaciÃ³n": 4325,
      "Ġlejos": 4326,
      "Ġpaz": 4327,
      "ogle": 4328,
      "Ġprofesional": 4329,
      "Ġirre": 4330,
      "Ġprogramas": 4331,
      "Ġvoto": 4332,
      "irchner": 4333,
      "Ġsuspen": 4334,
      "pes": 4335,
      "Ġnoticia": 4336,
      "ĠFin": 4337,
      "Ġfab": 4338,
      "ĠpresiÃ³n": 4339,
      "Ġpedir": 4340,
      "Ex": 4341,
      "ĠGa": 4342,
      "ĠAlejandro": 4343,
      "iva": 4344,
      "rupo": 4345,
      "umen": 4346,
      "berg": 4347,
      "Ġrit": 4348,
      "Ġsec": 4349,
      "Ġanual": 4350,
      "Ġafi": 4351,
      "Ġposibilidades": 4352,
      "Ġ45": 4353,
      "Ġdicen": 4354,
      "Ġcree": 4355,
      "ÃŃstico": 4356,
      "ĠDefensa": 4357,
      "Ġderecha": 4358,
      "Ġcontrario": 4359,
      "Ġdelitos": 4360,
      "ĠdemÃ¡s": 4361,
      "arial": 4362,
      "Ġacord": 4363,
      "Ġministros": 4364,
      "Ġpropuestas": 4365,
      "Ġhinchas": 4366,
      "uera": 4367,
      "ĠAncap": 4368,
      "Ġconsigui": 4369,
      "jado": 4370,
      "ĠMer": 4371,
      "ĠCristina": 4372,
      "mula": 4373,
      "Ġempleados": 4374,
      "Ġglobal": 4375,
      "Ġcomprar": 4376,
      "uno": 4377,
      "apÃ³n": 4378,
      "Ġprohi": 4379,
      "elones": 4380,
      "yÃ³": 4381,
      "Ġgobiernos": 4382,
      "ĠSenado": 4383,
      "amb": 4384,
      "olivia": 4385,
      "tui": 4386,
      "MI": 4387,
      "Ġaire": 4388,
      "rami": 4389,
      "gente": 4390,
      "Ġdistri": 4391,
      "rupciÃ³n": 4392,
      "Ġrequi": 4393,
      "Ġcalles": 4394,
      "ĠNew": 4395,
      "pera": 4396,
      "Ġganado": 4397,
      "ays": 4398,
      "Ġmexic": 4399,
      "Ġfinales": 4400,
      "Ġdiplom": 4401,
      "ĠPan": 4402,
      "ĠAli": 4403,
      "Ã¡c": 4404,
      "Ġfrecu": 4405,
      "CU": 4406,
      "ĠsufriÃ³": 4407,
      "ĠJohn": 4408,
      "Ġdigi": 4409,
      "Ġpresentar": 4410,
      "bito": 4411,
      "Ġreforma": 4412,
      "Ġagres": 4413,
      "Ġrue": 4414,
      "ĠCarrasco": 4415,
      "ergio": 4416,
      "ĠÃ©poca": 4417,
      "zi": 4418,
      "Ġprovin": 4419,
      "Otro": 4420,
      "ĠdeclaraciÃ³n": 4421,
      "para": 4422,
      "Ġdudas": 4423,
      "Ġruta": 4424,
      "cionado": 4425,
      "Ġtarje": 4426,
      "ĠformaciÃ³n": 4427,
      "Ġmuertos": 4428,
      "ĠPereira": 4429,
      "Ġdiferencias": 4430,
      "Ġrealizaron": 4431,
      "Ã©cord": 4432,
      "ecÃŃa": 4433,
      "Ġnum": 4434,
      "ĠOrgan": 4435,
      "ĠPrim": 4436,
      "amo": 4437,
      "Ġaspectos": 4438,
      "Ġinm": 4439,
      "60": 4440,
      "ĠGustavo": 4441,
      "Ġinmedia": 4442,
      "ĠcategorÃŃa": 4443,
      "Ġvesti": 4444,
      "ĠMari": 4445,
      "Ġdecisiones": 4446,
      "Ġclick": 4447,
      "Ġgana": 4448,
      "ĠIsrael": 4449,
      "ĠSantos": 4450,
      "CÃ³mo": 4451,
      "ĠRiver": 4452,
      "Ġconcep": 4453,
      "Ġentender": 4454,
      "ĠLey": 4455,
      "ĠvÃŃa": 4456,
      "ĠColonia": 4457,
      "Ġexpertos": 4458,
      "ios": 4459,
      "ĠRusia": 4460,
      "Ġimplic": 4461,
      "Ġsituaciones": 4462,
      "Ġdictad": 4463,
      "Ġfa": 4464,
      "Ġconocido": 4465,
      "Ġfen": 4466,
      "Todos": 4467,
      "Ġran": 4468,
      "Ġclase": 4469,
      "Ġtonel": 4470,
      "deos": 4471,
      "Pro": 4472,
      "ĠReal": 4473,
      "Ġbienes": 4474,
      "ĠclÃ¡sico": 4475,
      "puestos": 4476,
      "Ġtarea": 4477,
      "Ġsens": 4478,
      "ĠcrÃŃticas": 4479,
      "AllÃŃ": 4480,
      "ĠsubrayÃ³": 4481,
      "Ġbuenos": 4482,
      "tric": 4483,
      "Ġentrar": 4484,
      "fas": 4485,
      "onso": 4486,
      "Ãī": 4487,
      "ĠreciÃ©n": 4488,
      "Ġcont": 4489,
      "Car": 4490,
      "anÃŃa": 4491,
      "Ġherrami": 4492,
      "Ġarran": 4493,
      "ĠdÃ©fici": 4494,
      "Ġarriba": 4495,
      "Hace": 4496,
      "Ġprodujo": 4497,
      "ĠPÃºblica": 4498,
      "Ġtradi": 4499,
      "ĠLacalle": 4500,
      "ĠRicardo": 4501,
      "ÃŃz": 4502,
      "rus": 4503,
      "ĠrespondiÃ³": 4504,
      "Ġenfermedad": 4505,
      "ĠharÃ¡": 4506,
      "Ġcarta": 4507,
      "Ġanteriores": 4508,
      "ĠFrancisco": 4509,
      "Ġaspi": 4510,
      "Ġdismin": 4511,
      "teros": 4512,
      "estro": 4513,
      "jor": 4514,
      "Ġedificio": 4515,
      "Nos": 4516,
      "pool": 4517,
      "public": 4518,
      "Ġ32": 4519,
      "Ġpobre": 4520,
      "geni": 4521,
      "Ġcontribu": 4522,
      "ĠGonzalo": 4523,
      "aro": 4524,
      "Ġverano": 4525,
      "ĠÃģlvaro": 4526,
      "Ġdificultades": 4527,
      "Pre": 4528,
      "Ġcomienzo": 4529,
      "Ġsindical": 4530,
      "udades": 4531,
      "Ġresponsables": 4532,
      "ĠTrabajo": 4533,
      "Ġimpuestos": 4534,
      "Ġasunto": 4535,
      "zada": 4536,
      "bis": 4537,
      "'s": 4538,
      "Ġpuestos": 4539,
      "gio": 4540,
      "Ġinvers": 4541,
      "ligi": 4542,
      "Ġsecu": 4543,
      "Ġlaboral": 4544,
      "Ġinformaron": 4545,
      "ĠBol": 4546,
      "Ġquiero": 4547,
      "Ġcontacto": 4548,
      "entar": 4549,
      "ĠcrÃ©dito": 4550,
      "Ġprincipios": 4551,
      "ĠEfe": 4552,
      "verpool": 4553,
      "Creo": 4554,
      "Vi": 4555,
      "Ġsorpres": 4556,
      "Ġreno": 4557,
      "ĠSte": 4558,
      "estas": 4559,
      "ĠDo": 4560,
      "stico": 4561,
      "ĠbÃºsqueda": 4562,
      "Ġ300": 4563,
      "Ġintercambi": 4564,
      "Ġsocios": 4565,
      "usiÃ³n": 4566,
      "bil": 4567,
      "Ġfuertes": 4568,
      "Ġrealiza": 4569,
      "str": 4570,
      "Ġfan": 4571,
      "ĠocasiÃ³n": 4572,
      "pp": 4573,
      "Ġhomici": 4574,
      "ĠrÃ©cord": 4575,
      "Ġrob": 4576,
      "ĠVic": 4577,
      "ĠHos": 4578,
      "Ġdisposi": 4579,
      "Hab": 4580,
      "Ġexisten": 4581,
      "ĠDefensor": 4582,
      "Ġsuperior": 4583,
      "Ġgasto": 4584,
      "Ġimple": 4585,
      "ĠespaÃ±ola": 4586,
      "ricol": 4587,
      "Ġdemasiado": 4588,
      "Ġfuncionario": 4589,
      "ney": 4590,
      "ĠtrÃ¡nsito": 4591,
      "ĠdiscusiÃ³n": 4592,
      "ĠAtl": 4593,
      "Ġpretende": 4594,
      "Ġtribu": 4595,
      "Ġconden": 4596,
      "Ã³nico": 4597,
      "ĠDer": 4598,
      "Ġsome": 4599,
      "Ġadecu": 4600,
      "edores": 4601,
      "ĠInde": 4602,
      "Ġinstancia": 4603,
      "ĠCanelones": 4604,
      "clusiÃ³n": 4605,
      "cedentes": 4606,
      "Ġdise": 4607,
      "Ġnacionales": 4608,
      "Ġjuz": 4609,
      "coh": 4610,
      "Ġfutbolistas": 4611,
      "lÃŃmp": 4612,
      "Ġtendencia": 4613,
      "Ġobtener": 4614,
      "Ġsomos": 4615,
      "ĠFI": 4616,
      "Ġcargos": 4617,
      "Ġacuerdos": 4618,
      "Ġpasaj": 4619,
      "Ġmantuvo": 4620,
      "ormente": 4621,
      "Ã±aga": 4622,
      "Ġdesempe": 4623,
      "ĠtelÃ©fono": 4624,
      "jan": 4625,
      "Ġce": 4626,
      "Ġfase": 4627,
      "Ġresolver": 4628,
      "maras": 4629,
      "arraÃ±aga": 4630,
      "Ġayudar": 4631,
      "Ġcomunidad": 4632,
      "ĠAlf": 4633,
      "Ġhon": 4634,
      "ĠTele": 4635,
      "ĠEle": 4636,
      "Ġritmo": 4637,
      "Ġperfec": 4638,
      "13": 4639,
      "ĠAgu": 4640,
      "uelas": 4641,
      "Ġreun": 4642,
      "ĠLibertadores": 4643,
      "14": 4644,
      "Ġlin": 4645,
      "ĠLorenzo": 4646,
      "Ġcuentas": 4647,
      "ĠONU": 4648,
      "Ġdiferente": 4649,
      "Ġexportaciones": 4650,
      "ĠEuropea": 4651,
      "ĠempezÃ³": 4652,
      "Ġoportunidades": 4653,
      "Ġinflu": 4654,
      "Ã³nde": 4655,
      "Ġciudades": 4656,
      "Ġprivados": 4657,
      "ham": 4658,
      "ander": 4659,
      "Ġvoc": 4660,
      "Ġverda": 4661,
      "ĠclasificaciÃ³n": 4662,
      "ĠdÃ©ficit": 4663,
      "ĠfenÃ³m": 4664,
      "ĠespectÃ¡culo": 4665,
      "liano": 4666,
      "anu": 4667,
      "Ġagrega": 4668,
      "osotros": 4669,
      "Ġhabla": 4670,
      "Ġenorme": 4671,
      "dencias": 4672,
      "ty": 4673,
      "Ġfabric": 4674,
      "Po": 4675,
      "ĠEcuador": 4676,
      "Ġrespeto": 4677,
      "oper": 4678,
      "Ġprofundi": 4679,
      "Ġvender": 4680,
      "ĠCampe": 4681,
      "ĠvehÃŃculo": 4682,
      "Ġelementos": 4683,
      "ĠtÃ©rminos": 4684,
      "Ġfinanciera": 4685,
      "Ġcho": 4686,
      "quÃ©": 4687,
      "Ġfiesta": 4688,
      "echos": 4689,
      "tenciÃ³n": 4690,
      "Ġconsecuencia": 4691,
      "ĠGi": 4692,
      "ĠdetrÃ¡s": 4693,
      "Ġoposi": 4694,
      "Ġreducir": 4695,
      "Ġacab": 4696,
      "alizada": 4697,
      "ĠManuel": 4698,
      "ĠÃ¡m": 4699,
      "ĠOlÃŃmp": 4700,
      "The": 4701,
      "Ġparlament": 4702,
      "ĠactuaciÃ³n": 4703,
      "arrollo": 4704,
      "ĠhacÃŃa": 4705,
      "busti": 4706,
      "Ġdictadura": 4707,
      "Ġinclui": 4708,
      "ĠpequeÃ±o": 4709,
      "ĠCosta": 4710,
      "Ġderi": 4711,
      "eld": 4712,
      "Ġtelef": 4713,
      "enes": 4714,
      "Ġartista": 4715,
      "ks": 4716,
      "Ġestrategia": 4717,
      "Ġestilo": 4718,
      "ĠpublicÃ³": 4719,
      "AN": 4720,
      "Ġaquel": 4721,
      "ĠBolivia": 4722,
      "ĠNorte": 4723,
      "ĠquerÃŃa": 4724,
      "Ġafuera": 4725,
      "ĠcÃ¡n": 4726,
      "ĠrealizarÃ¡": 4727,
      "Ġminuto": 4728,
      "Ġinvoluc": 4729,
      "ĠprevÃ©": 4730,
      "fin": 4731,
      "ĠAntonio": 4732,
      "AS": 4733,
      "adÃ¡": 4734,
      "rump": 4735,
      "Ġrealizada": 4736,
      "ĠconvirtiÃ³": 4737,
      "Ġaz": 4738,
      "90": 4739,
      "Ġcultura": 4740,
      "quina": 4741,
      "como": 4742,
      "eropuerto": 4743,
      "ĠcuestiÃ³n": 4744,
      "ĠopinÃ³": 4745,
      "Ġtricol": 4746,
      "Ġinsisti": 4747,
      "Ġinspec": 4748,
      "ĠSergio": 4749,
      "ĠSporting": 4750,
      "Consul": 4751,
      "Com": 4752,
      "Ġambas": 4753,
      "gna": 4754,
      "ĠPluna": 4755,
      "Ġfortal": 4756,
      "Ġrepe": 4757,
      "guel": 4758,
      "yer": 4759,
      "Ġejerci": 4760,
      "ĠGra": 4761,
      "Ġrelev": 4762,
      "18": 4763,
      "ĠdebiÃ³": 4764,
      "Ġexperim": 4765,
      "Ġconsta": 4766,
      "Ġ33": 4767,
      "Ġrecibido": 4768,
      "ĠvÃŃctima": 4769,
      "ĠMario": 4770,
      "trÃ³leo": 4771,
      "Ġapre": 4772,
      "Ġactitud": 4773,
      "Ġvir": 4774,
      "uy": 4775,
      "Ġpros": 4776,
      "Ġerror": 4777,
      "ĠNi": 4778,
      "undaria": 4779,
      "ĠSeguridad": 4780,
      "ĠFederaciÃ³n": 4781,
      "Ġgal": 4782,
      "ĠJapÃ³n": 4783,
      "Ġplaza": 4784,
      "Ġtempera": 4785,
      "Ġalimentos": 4786,
      "ĠAust": 4787,
      "Ġalcoh": 4788,
      "ĠencontrÃ³": 4789,
      "Ġambiente": 4790,
      "gencias": 4791,
      "udo": 4792,
      "Ġfeste": 4793,
      "Ġimplement": 4794,
      "usos": 4795,
      "ĠDavid": 4796,
      "ĠYo": 4797,
      "Ã©ctr": 4798,
      "Ġgenera": 4799,
      "Ġofrece": 4800,
      "Ġoperativo": 4801,
      "40": 4802,
      "ĠHugo": 4803,
      "quÃŃa": 4804,
      "ĠAdminist": 4805,
      "ĠIng": 4806,
      "Ġreciente": 4807,
      "ĠAg": 4808,
      "ĠapuntÃ³": 4809,
      "Ġdivul": 4810,
      "ĠUruguaya": 4811,
      "Antes": 4812,
      "Ġtratamiento": 4813,
      "judic": 4814,
      "Ġgerente": 4815,
      "Nosotros": 4816,
      "Ġimplica": 4817,
      "mor": 4818,
      "tamos": 4819,
      "ĠFu": 4820,
      "gano": 4821,
      "adoras": 4822,
      "ĠgenerÃ³": 4823,
      "ĠGoogle": 4824,
      "Ġfr": 4825,
      "ĠtÃ©cnicos": 4826,
      "ĠbritÃ¡nico": 4827,
      "ĠIndustri": 4828,
      "venida": 4829,
      "Ġocasiones": 4830,
      "ĠAndrÃ©s": 4831,
      "Ġveloci": 4832,
      "Ġtuvi": 4833,
      "Ġestatal": 4834,
      "ĠArtigas": 4835,
      "berry": 4836,
      "Ġentradas": 4837,
      "Ġahor": 4838,
      "Ġcandidatos": 4839,
      "Ġrazones": 4840,
      "ĠMc": 4841,
      "cuar": 4842,
      "ĠescribiÃ³": 4843,
      "Ġolvi": 4844,
      "acia": 4845,
      "PS": 4846,
      "esto": 4847,
      "ĠlÃŃderes": 4848,
      "ĠCentenario": 4849,
      "Ġ2004": 4850,
      "Ġgrab": 4851,
      "Ġlegisladores": 4852,
      "rans": 4853,
      "ĠenseÃ±": 4854,
      "Ġempleo": 4855,
      "cidad": 4856,
      "Ġalcanzar": 4857,
      "menes": 4858,
      "RO": 4859,
      "Ġterritorio": 4860,
      "ĠCiudad": 4861,
      "Ġcomb": 4862,
      "Ġencab": 4863,
      "Ġfundamental": 4864,
      "EN": 4865,
      "45": 4866,
      "Ġdebajo": 4867,
      "25": 4868,
      "Ġentrega": 4869,
      "Tenemos": 4870,
      "chez": 4871,
      "ĠHer": 4872,
      "Ġdirectamente": 4873,
      "ĠRaÃºl": 4874,
      "Ġdev": 4875,
      "Ġprovoc": 4876,
      "Ġterminar": 4877,
      "ciente": 4878,
      "Ġadver": 4879,
      "ega": 4880,
      "ĠOlivera": 4881,
      "ĠFuer": 4882,
      "Ġpuedo": 4883,
      "ĠDesarrollo": 4884,
      "ĠdÃ©cadas": 4885,
      "lib": 4886,
      "ĠsesiÃ³n": 4887,
      "timi": 4888,
      "Ġpresidencial": 4889,
      "Ġconvoc": 4890,
      "Ġmul": 4891,
      "ctura": 4892,
      "ĠForlÃ¡n": 4893,
      "ĠcÃ¡maras": 4894,
      "ĠClub": 4895,
      "Ġtareas": 4896,
      "Ġesfuerzo": 4897,
      "trol": 4898,
      "Ġconvertir": 4899,
      "ji": 4900,
      "Ġronda": 4901,
      "Ġintereses": 4902,
      "Ġconocimiento": 4903,
      "Pe": 4904,
      "Ġprofesionales": 4905,
      "Ġvoz": 4906,
      "bras": 4907,
      "Ġalumnos": 4908,
      "umor": 4909,
      "diente": 4910,
      "Ġdeja": 4911,
      "ĠColorado": 4912,
      "Ã¡frica": 4913,
      "king": 4914,
      "ĠopciÃ³n": 4915,
      "Ġpresupuesto": 4916,
      "Ġcomenzaron": 4917,
      "Ġclubes": 4918,
      "Ġtorno": 4919,
      "oner": 4920,
      "Ġdetenido": 4921,
      "istem": 4922,
      "ĠÃ¡reas": 4923,
      "mac": 4924,
      "Ġtiro": 4925,
      "--Â¿": 4926,
      "Ġempa": 4927,
      "Ġbeneficios": 4928,
      "Ġvivienda": 4929,
      "usura": 4930,
      "torios": 4931,
      "andÃº": 4932,
      "ĠÃģn": 4933,
      "Ġdirectora": 4934,
      "ĠMes": 4935,
      "Ġreiter": 4936,
      "ulo": 4937,
      "Ġjueza": 4938,
      "Ġanalizar": 4939,
      "Ġllama": 4940,
      "Ġdra": 4941,
      "Ġescas": 4942,
      "Ġinno": 4943,
      "ĠTh": 4944,
      "Ġlic": 4945,
      "16": 4946,
      "Ġhabitantes": 4947,
      "Ġtoma": 4948,
      "ben": 4949,
      "teriormente": 4950,
      "paz": 4951,
      "BC": 4952,
      "ĠRafa": 4953,
      "Ġdocument": 4954,
      "ĠaÃ©": 4955,
      "Ġministra": 4956,
      "ĠComer": 4957,
      "ĠGe": 4958,
      "Ġtrabajos": 4959,
      "Ġintendente": 4960,
      "Ġpresentado": 4961,
      "Ġcomerciales": 4962,
      "Ġrepro": 4963,
      "Ġlatino": 4964,
      "Ġimpor": 4965,
      "Ġmadru": 4966,
      "Ġgremi": 4967,
      "Ġresist": 4968,
      "ĠllamÃ³": 4969,
      "Ġamigo": 4970,
      "quero": 4971,
      "Ġafr": 4972,
      "ĠEEUU": 4973,
      "Ġentrevi": 4974,
      "zaciÃ³n": 4975,
      "Ġcompu": 4976,
      "ĠParÃŃs": 4977,
      "Ġinvestigadores": 4978,
      "ĠgeneraciÃ³n": 4979,
      "Ġaproxi": 4980,
      "ĠprecisÃ³": 4981,
      "ĠHospital": 4982,
      "ĠvisiÃ³n": 4983,
      "Ã¡nchez": 4984,
      "Ġaumentar": 4985,
      "ezas": 4986,
      "ĠAsamblea": 4987,
      "Ġquedaron": 4988,
      "inar": 4989,
      "Ġdarle": 4990,
      "ĠintervenciÃ³n": 4991,
      "teras": 4992,
      "mir": 4993,
      "cado": 4994,
      "icional": 4995,
      "Ġrefu": 4996,
      "Ġofrecer": 4997,
      "ĠDel": 4998,
      "ĠcaracterÃŃsticas": 4999,
      "Ġestablece": 5000,
      "sieron": 5001,
      "Ġagrade": 5002,
      "mara": 5003,
      "land": 5004,
      "Ġrecaud": 5005,
      "Ġregres": 5006,
      "Ġdemocracia": 5007,
      "rarÃ¡": 5008,
      "Ã¡ticas": 5009,
      "Ġnuevamente": 5010,
      "Ġconside": 5011,
      "Ġlocalidad": 5012,
      "Ã±ez": 5013,
      "ĠCanal": 5014,
      "Ġcombusti": 5015,
      "Ġingresar": 5016,
      "Ġaparece": 5017,
      "Ġmecan": 5018,
      "rarse": 5019,
      "roso": 5020,
      "ph": 5021,
      "Ġmer": 5022,
      "Ġderrota": 5023,
      "retario": 5024,
      "ĠDE": 5025,
      "Ġll": 5026,
      "Ġcora": 5027,
      "elle": 5028,
      "dap": 5029,
      "ĠpermitiÃ³": 5030,
      "Ġescol": 5031,
      "Ġprivada": 5032,
      "echas": 5033,
      "ĠpetrÃ³leo": 5034,
      "rigo": 5035,
      "Ġpresenta": 5036,
      "Ġrendimiento": 5037,
      "Ġcasas": 5038,
      "Ġepiso": 5039,
      "Ġlech": 5040,
      "ĠEd": 5041,
      "Ġpregunta": 5042,
      "ĠmÃŃnimo": 5043,
      "ĠGas": 5044,
      "Ġmala": 5045,
      "Ġadul": 5046,
      "Ġhici": 5047,
      "Ġaport": 5048,
      "Ġrapi": 5049,
      "Ã©ndose": 5050,
      "iciales": 5051,
      "Entonces": 5052,
      "ĠTV": 5053,
      "Ġdescenso": 5054,
      "Ġbe": 5055,
      "Ġreligi": 5056,
      "etti": 5057,
      "Ġvotar": 5058,
      "ivo": 5059,
      "Ante": 5060,
      "Ġpena": 5061,
      "ĠcontinÃºa": 5062,
      "Ġnecesit": 5063,
      "EstÃ¡": 5064,
      "Ġpacientes": 5065,
      "Ġfuncionamiento": 5066,
      "Ġconoce": 5067,
      "Ġdrogas": 5068,
      "Ġsalarios": 5069,
      "Ġrealmente": 5070,
      "Ġpuertas": 5071,
      "ide": 5072,
      "lante": 5073,
      "acer": 5074,
      "ĠpÃ©rdida": 5075,
      "Ġideas": 5076,
      "ĠVar": 5077,
      "Ġdocentes": 5078,
      "orida": 5079,
      "ĠEnrique": 5080,
      "menta": 5081,
      "Ġsala": 5082,
      "Ġpropiet": 5083,
      "Ġjusti": 5084,
      "Ġpilo": 5085,
      "ĠtendrÃ¡n": 5086,
      "ĠBri": 5087,
      "inta": 5088,
      "Ġmusic": 5089,
      "Ġdefender": 5090,
      "ĠpolÃ©mica": 5091,
      "Ġmesa": 5092,
      "ĠSudÃ¡frica": 5093,
      "ĠÃģngel": 5094,
      "Ġamist": 5095,
      "fra": 5096,
      "Ġempate": 5097,
      "Ġmadrugada": 5098,
      "llermo": 5099,
      "17": 5100,
      "Ġqueremos": 5101,
      "Ġpose": 5102,
      "OR": 5103,
      "terÃŃa": 5104,
      "Ġconstruir": 5105,
      "Ġradic": 5106,
      "ĠWal": 5107,
      "Ġtengan": 5108,
      "Ġtotalmente": 5109,
      "Ġadministra": 5110,
      "ĠmarcÃ³": 5111,
      "Ġ36": 5112,
      "Ġshow": 5113,
      "ÃŃsimo": 5114,
      "uito": 5115,
      "ariciÃ³n": 5116,
      "ĠGabri": 5117,
      "Ġaliment": 5118,
      "teor": 5119,
      "Ġincendi": 5120,
      "Ġtradicional": 5121,
      "Ġexpl": 5122,
      "Ġpublicado": 5123,
      "Ġmaterial": 5124,
      "ĠTribunal": 5125,
      "cialmente": 5126,
      "ĠJuegos": 5127,
      "dada": 5128,
      "ĠRoberto": 5129,
      "ĠSalto": 5130,
      "Ġpalabra": 5131,
      "Ġens": 5132,
      "ĠSin": 5133,
      "gni": 5134,
      "laterra": 5135,
      "ĠcÃ¡ncer": 5136,
      "ĠprÃ¡ctica": 5137,
      "Ġencuesta": 5138,
      "Ġpreci": 5139,
      "Ġadap": 5140,
      "Ġpresidencia": 5141,
      "Ãģ": 5142,
      "Ġquedar": 5143,
      "stian": 5144,
      "80": 5145,
      "ĠBre": 5146,
      "ciar": 5147,
      "rende": 5148,
      "Res": 5149,
      "Ġnoticias": 5150,
      "inte": 5151,
      "madamente": 5152,
      "Ġportal": 5153,
      "americanos": 5154,
      "Ġsorprendi": 5155,
      "Ġdefendi": 5156,
      "Ġorganizaciones": 5157,
      "grÃ¡": 5158,
      "Estos": 5159,
      "emen": 5160,
      "Ġposibles": 5161,
      "ĠConstituciÃ³n": 5162,
      "Ġnove": 5163,
      "olÃŃn": 5164,
      "Ġsatis": 5165,
      "Ġenf": 5166,
      "ĠBat": 5167,
      "Ġcerrar": 5168,
      "Ġfisc": 5169,
      "todo": 5170,
      "Ġbro": 5171,
      "bierto": 5172,
      "Ġactores": 5173,
      "anubio": 5174,
      "Ġarte": 5175,
      "nibus": 5176,
      "Ġcontexto": 5177,
      "Ġfacili": 5178,
      "vÃ³": 5179,
      "ĠGal": 5180,
      "Ġnumeros": 5181,
      "ĠLarraÃ±aga": 5182,
      "Ġpropor": 5183,
      "Ġmoviliz": 5184,
      "ĠtÃŃtulos": 5185,
      "ĠEsp": 5186,
      "Ġdenomin": 5187,
      "ung": 5188,
      "Ġdefinir": 5189,
      ");": 5190,
      "daberry": 5191,
      "Ġpoliciales": 5192,
      "Ġunidad": 5193,
      "Ġvelocidad": 5194,
      "ĠCruz": 5195,
      "miliano": 5196,
      "Agre": 5197,
      "Ġtasas": 5198,
      "ÃŃdo": 5199,
      "Ġpronun": 5200,
      "yos": 5201,
      "tudes": 5202,
      "Ġpriori": 5203,
      "ĠdeberÃ¡n": 5204,
      "metro": 5205,
      "Ġtoneladas": 5206,
      "Ġbra": 5207,
      "Ġfrances": 5208,
      "ĠMiguel": 5209,
      "Ġvali": 5210,
      "ĠUnido": 5211,
      "ĠGrupo": 5212,
      "Ġcerem": 5213,
      "ĠalcanzÃ³": 5214,
      "ĠdisposiciÃ³n": 5215,
      "ĠAra": 5216,
      "mia": 5217,
      "Ġcontinuar": 5218,
      "ĠSÃ¡nchez": 5219,
      "----": 5220,
      "Ġciclo": 5221,
      "Ġdescan": 5222,
      "Ġexpan": 5223,
      "Ġ196": 5224,
      "ĠSupre": 5225,
      "ĠServi": 5226,
      "ĠIM": 5227,
      "huana": 5228,
      "Ġsistem": 5229,
      "olÃ³gica": 5230,
      "ato": 5231,
      "Cada": 5232,
      "SP": 5233,
      "char": 5234,
      "Ġterreno": 5235,
      "Ġprocedi": 5236,
      "ĠdiseÃ±": 5237,
      "Ġlidera": 5238,
      "Ġencontraba": 5239,
      "Ġpunta": 5240,
      "ĠmisiÃ³n": 5241,
      "Ġnacionalista": 5242,
      "Ġdistribu": 5243,
      "hay": 5244,
      "ines": 5245,
      "ĠBus": 5246,
      "eler": 5247,
      "mÃ¡tico": 5248,
      "Ġteniendo": 5249,
      "ĠSoci": 5250,
      "Porque": 5251,
      "ĠevoluciÃ³n": 5252,
      "ĠApple": 5253,
      "Ġhumor": 5254,
      "turales": 5255,
      "Ġcumple": 5256,
      "Ġile": 5257,
      "ĠLatino": 5258,
      "Ġlarga": 5259,
      "Ġerr": 5260,
      "Ġfui": 5261,
      "ĠrÃ¡pido": 5262,
      "Ġobjetivos": 5263,
      "ucle": 5264,
      "Ã³mnibus": 5265,
      "Ġpantalla": 5266,
      "Ġprotagoniz": 5267,
      "tion": 5268,
      "Ġdolor": 5269,
      "ĠpelÃŃculas": 5270,
      "Ġdenuncias": 5271,
      "ĠComun": 5272,
      "Ġclima": 5273,
      "BI": 5274,
      "Ġvino": 5275,
      "edades": 5276,
      "Ġevent": 5277,
      "Ġitaliano": 5278,
      "Ġpasajeros": 5279,
      "ĠelÃ©ctr": 5280,
      "ĠSch": 5281,
      "Ġanuncio": 5282,
      "Ġconduc": 5283,
      "ĠsueÃ±o": 5284,
      "ĠMil": 5285,
      "Ġporcentaje": 5286,
      "ĠÃ³mnibus": 5287,
      "Ġcump": 5288,
      "Ġcorrec": 5289,
      "rano": 5290,
      "ĠLiverpool": 5291,
      "Ġaviones": 5292,
      "ĠPlaza": 5293,
      "ĠHern": 5294,
      "ĠcerrÃ³": 5295,
      "ĠnÃºmeros": 5296,
      "Ġpuerto": 5297,
      "enden": 5298,
      "aysandÃº": 5299,
      "Ġcircun": 5300,
      "ĠcÃ³": 5301,
      "ÃŃfica": 5302,
      "gh": 5303,
      "Ġtrabajan": 5304,
      "xiÃ³n": 5305,
      "Ġbajar": 5306,
      "TI": 5307,
      "osas": 5308,
      "ĠJavier": 5309,
      "ĠprÃ©st": 5310,
      "ĠEm": 5311,
      "erno": 5312,
      "Ro": 5313,
      "ĠdÃ³nde": 5314,
      "Ġtransi": 5315,
      "ramos": 5316,
      "gadas": 5317,
      "ĠAtlÃ©tico": 5318,
      "Ġviven": 5319,
      "ĠcientÃŃficos": 5320,
      "glesia": 5321,
      "Ġgira": 5322,
      "Ġarm": 5323,
      "mentÃ³": 5324,
      "ĠAu": 5325,
      "Ġvoluntad": 5326,
      "Ġconfes": 5327,
      "usse": 5328,
      "Ġregional": 5329,
      "Ġabrir": 5330,
      "ĠBr": 5331,
      "ĠcorazÃ³n": 5332,
      "ĠOri": 5333,
      "ĠEstadio": 5334,
      "Ġpropios": 5335,
      "Ġarma": 5336,
      "Ġrecuerda": 5337,
      "Ġmarihuana": 5338,
      "gir": 5339,
      "vesti": 5340,
      "Ġdetenidos": 5341,
      "ĠtÃ©cnica": 5342,
      "ĠTe": 5343,
      "Ġequival": 5344,
      "Ġculmin": 5345,
      "Ġbuenas": 5346,
      "ĠcondiciÃ³n": 5347,
      "ĠreducciÃ³n": 5348,
      "Ġllamada": 5349,
      "Ġpeligro": 5350,
      "Ġentorno": 5351,
      "Ġprefi": 5352,
      "ĠNaciones": 5353,
      "ĠTur": 5354,
      "ĠTim": 5355,
      "ĠBro": 5356,
      "Ġcomenzar": 5357,
      "Ġaltos": 5358,
      "Ġcrea": 5359,
      "vio": 5360,
      "ayo": 5361,
      "ĠGuar": 5362,
      "Ac": 5363,
      "ĠcompaÃ±ero": 5364,
      "Ġclases": 5365,
      "ĠMatÃŃas": 5366,
      "ĠFIFA": 5367,
      "ĠmuriÃ³": 5368,
      "seo": 5369,
      "Ġnuestras": 5370,
      "Ġlibros": 5371,
      "ĠPlate": 5372,
      "Ġhermano": 5373,
      "Ġexplo": 5374,
      "Ġefectivos": 5375,
      "Ġempi": 5376,
      "Ġrobo": 5377,
      "cesiÃ³n": 5378,
      "Ayer": 5379,
      "ĠEjÃ©rcito": 5380,
      "ĠpequeÃ±a": 5381,
      "ĠhistÃ³rico": 5382,
      "Ġmanteni": 5383,
      "Ġobtuvo": 5384,
      "Ġmeta": 5385,
      "ĠHi": 5386,
      "bieron": 5387,
      "Ġdur": 5388,
      "Ġasesina": 5389,
      "ĠadmitiÃ³": 5390,
      "mbo": 5391,
      "bida": 5392,
      "muy": 5393,
      "venil": 5394,
      "Ġsupuesto": 5395,
      "ĠjurÃŃ": 5396,
      "Ġagentes": 5397,
      "tista": 5398,
      "ĠKirchner": 5399,
      "Ġhistori": 5400,
      "Rec": 5401,
      "ĠrefiriÃ³": 5402,
      "gamos": 5403,
      "ĠbrasileÃ±a": 5404,
      "Ġpocas": 5405,
      "ĠiniciÃ³": 5406,
      "ĠabriÃ³": 5407,
      "Ġconserv": 5408,
      "ted": 5409,
      "Ġpresentes": 5410,
      "Ġisla": 5411,
      "Ġsegundos": 5412,
      "Ġocurrido": 5413,
      "Ġsuspendi": 5414,
      "eiro": 5415,
      "Ġconce": 5416,
      "Ġ34": 5417,
      "Ġ400": 5418,
      "Ġceleste": 5419,
      "Ġexpul": 5420,
      "Ġvenezolano": 5421,
      "ĠtrÃ¡mi": 5422,
      "Ġnormal": 5423,
      "stru": 5424,
      "Estoy": 5425,
      "Ġcriti": 5426,
      "ade": 5427,
      "raelÃŃ": 5428,
      "ĠTrans": 5429,
      "lico": 5430,
      "Ġcampeonato": 5431,
      "ĠdemocrÃ¡": 5432,
      "Ġnub": 5433,
      "ĠrÃŃo": 5434,
      "Ġdecreto": 5435,
      "acho": 5436,
      "beros": 5437,
      "Ġdoctor": 5438,
      "Ġpone": 5439,
      "Ġasesor": 5440,
      "Ġalcohol": 5441,
      "ĠApertura": 5442,
      "Ġjuntos": 5443,
      "gros": 5444,
      "bert": 5445,
      "Ġ2002": 5446,
      "Ġcompras": 5447,
      "gica": 5448,
      "Ġenfrentar": 5449,
      "Ġpatr": 5450,
      "Ġenv": 5451,
      "ĠDÃŃaz": 5452,
      "Ġrueda": 5453,
      "Ġportu": 5454,
      "ĠcÃ¡mara": 5455,
      "ĠJan": 5456,
      "Ġ&": 5457,
      "Ġretir": 5458,
      "Ġpremios": 5459,
      "Ġexplosi": 5460,
      "Ġcamise": 5461,
      "ĠBal": 5462,
      "ĠiP": 5463,
      "Ġanaliz": 5464,
      "ĠHuman": 5465,
      "cimientos": 5466,
      "ĠFÃºtbol": 5467,
      "Ġnombres": 5468,
      "Ġobliga": 5469,
      "ÃŃri": 5470,
      "'.": 5471,
      "ĠFlorida": 5472,
      "uestra": 5473,
      "Ġ48": 5474,
      "Consultado": 5475,
      "ĠReino": 5476,
      "US": 5477,
      "Ã³rmula": 5478,
      "Ġpropiedad": 5479,
      "ĠRes": 5480,
      "Ġacumul": 5481,
      "rine": 5482,
      "Ġpul": 5483,
      "Ġdando": 5484,
      "dÃŃ": 5485,
      "Ġrecientemente": 5486,
      "ĠHe": 5487,
      "Ġapertura": 5488,
      "ĠvÃŃn": 5489,
      "ĠPaysandÃº": 5490,
      "Ġcontenido": 5491,
      "ĠfenÃ³meno": 5492,
      "tarÃ¡n": 5493,
      "Ġfavori": 5494,
      "Ġdura": 5495,
      "Ġdesign": 5496,
      "Ġcanciones": 5497,
      "ĠbajÃ³": 5498,
      "Ġcomplejo": 5499,
      "Ġhomen": 5500,
      "Ġkilos": 5501,
      "Ġadolescentes": 5502,
      "Ġinfraestructura": 5503,
      "Ġdestin": 5504,
      "ĠGuillermo": 5505,
      "Ġofensi": 5506,
      "ĠVilla": 5507,
      "Ġheridos": 5508,
      "ĠUr": 5509,
      "ĠTer": 5510,
      "Ġidentidad": 5511,
      "ĠÃ©ste": 5512,
      "Algunos": 5513,
      "Ġsiquiera": 5514,
      "Ġsuperar": 5515,
      "Ġimpu": 5516,
      "ww": 5517,
      "ĠpublicaciÃ³n": 5518,
      "Ġconsecuencias": 5519,
      "Ġemergencia": 5520,
      "ariamente": 5521,
      "Ġemprendi": 5522,
      "Ġquiz": 5523,
      "ors": 5524,
      "mici": 5525,
      "Ġllegado": 5526,
      "Ġdelincuentes": 5527,
      "Ġ/": 5528,
      "Ġparaguay": 5529,
      "ĠBel": 5530,
      "ĠregistrÃ³": 5531,
      "ĠDepartamento": 5532,
      "Ġfiguras": 5533,
      "eles": 5534,
      "Ġani": 5535,
      "Ġirregu": 5536,
      "ON": 5537,
      "ĠBonomi": 5538,
      "Ġaurine": 5539,
      "ĠisraelÃŃ": 5540,
      "ĠInglaterra": 5541,
      "Ġpersonaje": 5542,
      "Ġataques": 5543,
      "Ġpronto": 5544,
      "ĠperiÃ³": 5545,
      "Ġcorte": 5546,
      "Ġhumano": 5547,
      "Ġutilizar": 5548,
      "ĠPaz": 5549,
      "ĠPuer": 5550,
      "ĠHar": 5551,
      "Ġmensajes": 5552,
      "Ġinversores": 5553,
      "ael": 5554,
      "Ġdeporte": 5555,
      "Ġfallo": 5556,
      "ĠRey": 5557,
      "ĠComitÃ©": 5558,
      "ĠprÃ³ximas": 5559,
      "Li": 5560,
      "adu": 5561,
      "ÃŃm": 5562,
      "Ġextranjeros": 5563,
      "Ġcorto": 5564,
      "lie": 5565,
      "DE": 5566,
      "ĠRocha": 5567,
      "Ġlab": 5568,
      "Ġintento": 5569,
      "Ġceremonia": 5570,
      "Ġembara": 5571,
      "Ġlanzamiento": 5572,
      "aca": 5573,
      "visi": 5574,
      "Ġpsic": 5575,
      "inaciÃ³n": 5576,
      "Ġescuelas": 5577,
      "ĠsubiÃ³": 5578,
      "estiv": 5579,
      "Dos": 5580,
      "Ġdocumentos": 5581,
      "Ġrepublic": 5582,
      "Ġsostiene": 5583,
      "Ġalcal": 5584,
      "ĠAS": 5585,
      "Ġabor": 5586,
      "Ġ37": 5587,
      "cionados": 5588,
      "Ã³logo": 5589,
      "Ġconcurso": 5590,
      "Ġencuentros": 5591,
      "Ġcontrolar": 5592,
      "cam": 5593,
      "Ġpra": 5594,
      "Ġ150": 5595,
      "ĠcorrupciÃ³n": 5596,
      "Ġcarga": 5597,
      "acin": 5598,
      "Ġcereb": 5599,
      "Ġexhi": 5600,
      "Ġpuntu": 5601,
      "Fin": 5602,
      "Ġentiende": 5603,
      "Ġcivil": 5604,
      "Ġdesempleo": 5605,
      "Ġnucle": 5606,
      "Ġfinanciero": 5607,
      "Ġvienen": 5608,
      "Ġlogrado": 5609,
      "Ġsignific": 5610,
      "ĠalemÃ¡n": 5611,
      "ĠEr": 5612,
      "Pese": 5613,
      "ket": 5614,
      "Ġconten": 5615,
      "Ġhuel": 5616,
      "Ġcomentarios": 5617,
      "Ġagenda": 5618,
      "Ġintensi": 5619,
      "24": 5620,
      "daciÃ³n": 5621,
      "tizar": 5622,
      "ĠSh": 5623,
      "Ġpasando": 5624,
      "ĠmÃ¡xima": 5625,
      "Ġcaer": 5626,
      "Ġdeterminar": 5627,
      "remos": 5628,
      "Ġprovincia": 5629,
      "Ġdistancia": 5630,
      "ĠlesiÃ³n": 5631,
      "ĠBlanca": 5632,
      "Ġpac": 5633,
      "ÃŃr": 5634,
      "undo": 5635,
      "Ġpresos": 5636,
      "Ġestablecer": 5637,
      "ĠniÃ±a": 5638,
      "Ġfracas": 5639,
      "Ġquiso": 5640,
      "Ġtorm": 5641,
      "Ġaeropuerto": 5642,
      "ĠcarÃ¡c": 5643,
      "ĠcarÃ¡cter": 5644,
      "Ġpermitir": 5645,
      "Ġperspec": 5646,
      "sted": 5647,
      "Ġagro": 5648,
      "lari": 5649,
      "ĠAri": 5650,
      "Ġsalario": 5651,
      "Ġand": 5652,
      "Ġhacerse": 5653,
      "ĠprÃ¡cticamente": 5654,
      "Ġganador": 5655,
      "ld": 5656,
      "Ġdomici": 5657,
      "Ġdespi": 5658,
      "Ġdigital": 5659,
      "ĠRafael": 5660,
      "ril": 5661,
      "Ġparticipantes": 5662,
      "ĠaprobaciÃ³n": 5663,
      "Ġseguramente": 5664,
      "Ġdestaca": 5665,
      "Ġubicado": 5666,
      "ĠcuÃ¡n": 5667,
      "ĠClausura": 5668,
      "Ġperdido": 5669,
      "Ġpositivo": 5670,
      "quen": 5671,
      "Ġasistencia": 5672,
      "ĠGuer": 5673,
      "ĠAlex": 5674,
      "Ġencabez": 5675,
      "guirre": 5676,
      "gnacio": 5677,
      "Ġcuartos": 5678,
      "eres": 5679,
      "ĠparticipÃ³": 5680,
      "Ġestuvieron": 5681,
      "Ġfrenteamp": 5682,
      "Ġturistas": 5683,
      "cau": 5684,
      "Ġcomienza": 5685,
      "esper": 5686,
      "Ġgastos": 5687,
      "ĠMalv": 5688,
      "ĠSecundaria": 5689,
      "Ġmiedo": 5690,
      "Ġministerio": 5691,
      "ĠrÃ¡pidamente": 5692,
      "ĠpequeÃ±os": 5693,
      "itario": 5694,
      "Ġreconoc": 5695,
      "tt": 5696,
      "ps": 5697,
      "ĠadelantÃ³": 5698,
      "Ġsola": 5699,
      "Ġefectu": 5700,
      "ĠcÃ©": 5701,
      "Ġcircunst": 5702,
      "ĠrevelÃ³": 5703,
      "Ġestima": 5704,
      "mÃ©st": 5705,
      "Ġmotivos": 5706,
      "ĠÃ¡mbito": 5707,
      "Ġjuega": 5708,
      "ĠUnidas": 5709,
      "Ġrespectivamente": 5710,
      "ĠMessi": 5711,
      "Ġpiso": 5712,
      "Ġhogares": 5713,
      "ĠPit": 5714,
      "Ġrestos": 5715,
      "ĠdesafÃŃo": 5716,
      "Ġdesper": 5717,
      "Ġadi": 5718,
      "ĠArm": 5719,
      "Ġlegal": 5720,
      "Ġseguido": 5721,
      "Ġsuficiente": 5722,
      "ĠAna": 5723,
      "Ġintro": 5724,
      "ĠlÃŃneas": 5725,
      "Ġaut": 5726,
      "Ġprincipalmente": 5727,
      "Ġremar": 5728,
      "Ġmismas": 5729,
      "Ġartistas": 5730,
      "ĠOrganizaciÃ³n": 5731,
      "Ġalza": 5732,
      "Ġjuvenil": 5733,
      "ĠBordaberry": 5734,
      "Ġcontemp": 5735,
      "Ġojos": 5736,
      "ĠDanilo": 5737,
      "ĠautomÃ³": 5738,
      "dy": 5739,
      "culaciÃ³n": 5740,
      "Ġdecenas": 5741,
      "Ġperfil": 5742,
      "Ġcomport": 5743,
      "Ġhal": 5744,
      "Ġestad": 5745,
      "Can": 5746,
      "Ġmotiv": 5747,
      "embÃ³": 5748,
      "ĠRivera": 5749,
      "ĠcomenzarÃ¡": 5750,
      "Ġhec": 5751,
      "Ġvivo": 5752,
      "Ġmatrimonio": 5753,
      "%)": 5754,
      "Ġviviendas": 5755,
      "Ġdiver": 5756,
      "cuarembÃ³": 5757,
      "Ġamenaza": 5758,
      "Ġconec": 5759,
      "Ġparticiparon": 5760,
      "Ġsenti": 5761,
      "Ġpublicidad": 5762,
      "ai": 5763,
      "gido": 5764,
      "Ġropa": 5765,
      "SÃŃ": 5766,
      "22": 5767,
      "Ġ38": 5768,
      "UF": 5769,
      "ĠconsiguiÃ³": 5770,
      "Ġsexual": 5771,
      "Ġvigi": 5772,
      "Ġprofesor": 5773,
      "field": 5774,
      "ĠCel": 5775,
      "ajas": 5776,
      "Ġllegan": 5777,
      "Ġlegislador": 5778,
      "Ġment": 5779,
      "ĠPalacio": 5780,
      "Ġnovel": 5781,
      "Ġusar": 5782,
      "Ġ2003": 5783,
      "adal": 5784,
      "eria": 5785,
      "ĠraÃŃz": 5786,
      "ralia": 5787,
      "Ġexcel": 5788,
      "ĠTabÃ¡rez": 5789,
      "Ġcort": 5790,
      "Ġregreso": 5791,
      "Ġnegro": 5792,
      "Ġimposible": 5793,
      "Ġplaneta": 5794,
      "Ġgesti": 5795,
      "Ġoro": 5796,
      "Ġvolumen": 5797,
      "bita": 5798,
      "ĠMur": 5799,
      "ony": 5800,
      "ĠpreguntÃ³": 5801,
      "ĠAlonso": 5802,
      "Ġvuelo": 5803,
      "bes": 5804,
      "ang": 5805,
      "Ġ75": 5806,
      "Ġlimpi": 5807,
      "Ġerrores": 5808,
      "Ġfamiliar": 5809,
      "Ġfirm": 5810,
      "Ġexistencia": 5811,
      "Ġasal": 5812,
      "Ġbenefici": 5813,
      "riendo": 5814,
      "ĠFederico": 5815,
      "int": 5816,
      "usseff": 5817,
      "rÃ³n": 5818,
      "ĠDar": 5819,
      "Ġactualidad": 5820,
      "Ġespacios": 5821,
      "ĠEli": 5822,
      "cluso": 5823,
      "tamen": 5824,
      "Ġthe": 5825,
      "etas": 5826,
      "magro": 5827,
      "ctores": 5828,
      "Ġmejora": 5829,
      "Ġquedan": 5830,
      "ĠprotecciÃ³n": 5831,
      "Ġdepartamentos": 5832,
      "Ġdeportivo": 5833,
      "sitos": 5834,
      "Ġconcepto": 5835,
      "erolÃŃn": 5836,
      "Ġgrado": 5837,
      "Ġilu": 5838,
      "Ġsupo": 5839,
      "Ġimagin": 5840,
      "Ġdiversos": 5841,
      "Ġrenuncia": 5842,
      "Ġingeni": 5843,
      "Siempre": 5844,
      "Ġsospech": 5845,
      "II": 5846,
      "Ġnave": 5847,
      "Ġpobreza": 5848,
      "Ġorganismos": 5849,
      "cultad": 5850,
      "AgregÃ³": 5851,
      "Ġmem": 5852,
      "Ġuniversi": 5853,
      "operaciÃ³n": 5854,
      "ĠMaduro": 5855,
      "Ġmostrar": 5856,
      "Ġcurso": 5857,
      "Ġhomenaje": 5858,
      "Ġfras": 5859,
      "Ġsuba": 5860,
      "encial": 5861,
      "Ġclara": 5862,
      "Ġsangre": 5863,
      "ĠFondo": 5864,
      "gip": 5865,
      "Ġempezar": 5866,
      "ĠcanciÃ³n": 5867,
      "ĠdiseÃ±o": 5868,
      "ĠRodrigo": 5869,
      "teles": 5870,
      "ello": 5871,
      "ĠdueÃ±o": 5872,
      "ĠhectÃ¡": 5873,
      "Ġcapaz": 5874,
      "Ġejecutivo": 5875,
      "DA": 5876,
      "Amb": 5877,
      "Ġfunciones": 5878,
      "Ġbai": 5879,
      "ĠMorales": 5880,
      "ĠPu": 5881,
      "Ġexpectativas": 5882,
      "rÃ©": 5883,
      "ĠJuni": 5884,
      "Ġvas": 5885,
      "Ġreuniones": 5886,
      "ĠcompaÃ±ÃŃas": 5887,
      "Ġintegrante": 5888,
      "Ġsocio": 5889,
      "Ġejercicio": 5890,
      "Ġesca": 5891,
      "Ġcau": 5892,
      "Ġfeliz": 5893,
      "IN": 5894,
      "ticos": 5895,
      "Ġreform": 5896,
      "Ġcompa": 5897,
      "Ġocurre": 5898,
      "Ġprotagonista": 5899,
      "?\",": 5900,
      "Ġpales": 5901,
      "Ġturno": 5902,
      "tuvieron": 5903,
      "ĠAdministraciÃ³n": 5904,
      "ĠASSE": 5905,
      "ĠSam": 5906,
      "Ġinterro": 5907,
      "ĠUE": 5908,
      "torial": 5909,
      "ĠJunta": 5910,
      "ĠBe": 5911,
      "Ġnarco": 5912,
      "Ġautoriz": 5913,
      "Ġmediados": 5914,
      "ĠmillÃ³n": 5915,
      "Ġperci": 5916,
      "Ġriesgos": 5917,
      "Ġsensi": 5918,
      "Ġespecie": 5919,
      "70": 5920,
      "ĠnaciÃ³": 5921,
      "Ġacce": 5922,
      "Argentina": 5923,
      "ĠPin": 5924,
      "Ġlogra": 5925,
      "gios": 5926,
      "Ġmargen": 5927,
      "Ã³ni": 5928,
      "Ġbur": 5929,
      "vias": 5930,
      "ĠestarÃ¡n": 5931,
      "Ġestrella": 5932,
      "ĠBos": 5933,
      "Ġlograron": 5934,
      "urismo": 5935,
      "Ġatrac": 5936,
      "gÃ¼": 5937,
      "Ġduro": 5938,
      "ĠintegraciÃ³n": 5939,
      "dol": 5940,
      "Ġllevaron": 5941,
      "olucion": 5942,
      "bitro": 5943,
      "ĠdelegaciÃ³n": 5944,
      "Ġros": 5945,
      "Ġcomienz": 5946,
      "ĠdecÃŃa": 5947,
      "Ġmiembro": 5948,
      "Ġacos": 5949,
      "ĠÃģlvarez": 5950,
      "ĠvotaciÃ³n": 5951,
      "poner": 5952,
      "ĠRich": 5953,
      "Ãºan": 5954,
      "ĠUruguayo": 5955,
      "Ġsober": 5956,
      "Ġlen": 5957,
      "VA": 5958,
      "Ġrenta": 5959,
      "Ġimpuesto": 5960,
      "rue": 5961,
      "Ġconvoca": 5962,
      "21": 5963,
      "ĠImp": 5964,
      "Ġarreg": 5965,
      "ĠBarack": 5966,
      "putados": 5967,
      "naval": 5968,
      "Ġescena": 5969,
      "Ġjuegos": 5970,
      "Ġalqui": 5971,
      "Ġras": 5972,
      "Ġaleman": 5973,
      "ĠcapitÃ¡n": 5974,
      "vales": 5975,
      "Ġcausas": 5976,
      "ĠexposiciÃ³n": 5977,
      "Ġeva": 5978,
      "cic": 5979,
      "Ġvecino": 5980,
      "ĠestÃ©n": 5981,
      "ix": 5982,
      "tumb": 5983,
      "ĠgÃ©n": 5984,
      "Ġ(@": 5985,
      "Ġabierto": 5986,
      "Ġintentar": 5987,
      "LA": 5988,
      "Ġarchi": 5989,
      "pero": 5990,
      "Ġestructura": 5991,
      "amÃ¡": 5992,
      "ĠeconÃ³micos": 5993,
      "ĠChar": 5994,
      "ĠFre": 5995,
      "ĠnegÃ³": 5996,
      "Ġproduce": 5997,
      "ĠdefiniciÃ³n": 5998,
      "Ġcosta": 5999,
      "ebra": 6000,
      "Ġaspecto": 6001,
      "Ġpudieron": 6002,
      "Ġhel": 6003,
      "ĠClar": 6004,
      "amÃ¡s": 6005,
      "Ġbeb": 6006,
      "Ġexter": 6007,
      "Ġmic": 6008,
      "tismo": 6009,
      "Ġsilen": 6010,
      "Ġplataforma": 6011,
      "Ġrepi": 6012,
      "Ġpasos": 6013,
      "Era": 6014,
      "Ġapunta": 6015,
      "Ġpermanente": 6016,
      "ĠIgnacio": 6017,
      "inete": 6018,
      "Ġinterven": 6019,
      "ĠlanzÃ³": 6020,
      "ples": 6021,
      "ĠDanubio": 6022,
      "Ġprefer": 6023,
      "pendencia": 6024,
      "aliciÃ³n": 6025,
      "blemente": 6026,
      "dis": 6027,
      "Ġradi": 6028,
      "Ġvolante": 6029,
      "Ġantecedentes": 6030,
      "ĠescÃ¡n": 6031,
      "Ġresuel": 6032,
      "listas": 6033,
      "Ġtrayec": 6034,
      "ĠObserva": 6035,
      "Ġrecuperar": 6036,
      "ĠSendic": 6037,
      "Ġsorpresa": 6038,
      "Ġdelante": 6039,
      "Ġexpe": 6040,
      "Ġnormas": 6041,
      "Ġcontes": 6042,
      "Ġsolid": 6043,
      "ĠMovi": 6044,
      "Ġreconocimiento": 6045,
      "Ġfactores": 6046,
      "Ġaprendi": 6047,
      "ablemente": 6048,
      "ĠGol": 6049,
      "Ġtabla": 6050,
      "Ġsabemos": 6051,
      "ĠdebÃŃa": 6052,
      "ĠOscar": 6053,
      "tara": 6054,
      "ĠFederal": 6055,
      "Ġesfuerzos": 6056,
      "Otra": 6057,
      "ticias": 6058,
      "Ġsubsi": 6059,
      "Ġbuscando": 6060,
      "Ġaudiencia": 6061,
      "unciÃ³n": 6062,
      "Ġgratui": 6063,
      "Ġocupar": 6064,
      "ĠSub": 6065,
      "ĠINA": 6066,
      "Ġchar": 6067,
      "Ġjugando": 6068,
      "dientes": 6069,
      "Ġcrimen": 6070,
      "rito": 6071,
      "trib": 6072,
      "Ġpreocu": 6073,
      "omas": 6074,
      "Ġviajar": 6075,
      "Ġjustific": 6076,
      "Ġinvestigaciones": 6077,
      "ÃŃtica": 6078,
      "ĠChri": 6079,
      "Ġcorrer": 6080,
      "ĠcambiÃ³": 6081,
      "ĠComercio": 6082,
      "Ġalcan": 6083,
      "gran": 6084,
      "Ġactos": 6085,
      "ames": 6086,
      "rador": 6087,
      "Ġlider": 6088,
      "Ma": 6089,
      "Ġinmediato": 6090,
      "ĠMauri": 6091,
      "ricultura": 6092,
      "pecu": 6093,
      "Ġreper": 6094,
      "ariales": 6095,
      "Ġmez": 6096,
      "Ġentregar": 6097,
      "Ġjurado": 6098,
      "Ġtercero": 6099,
      "Ġcrecer": 6100,
      "Ġatender": 6101,
      "Ġajuste": 6102,
      "ĠCorea": 6103,
      "ĠdenunciÃ³": 6104,
      "san": 6105,
      "Ã©ctor": 6106,
      "UR": 6107,
      "Ġliceo": 6108,
      "Ã³li": 6109,
      "ĠinsistiÃ³": 6110,
      "Ġopciones": 6111,
      "Ġcotiz": 6112,
      "elaciones": 6113,
      "Ġpublica": 6114,
      "ĠcuÃ¡l": 6115,
      "pia": 6116,
      "enco": 6117,
      "Ġcompleto": 6118,
      "Ġcari": 6119,
      "Ġhayan": 6120,
      "ĠMedio": 6121,
      "undaciÃ³n": 6122,
      "Ġantigu": 6123,
      "Ġencargado": 6124,
      "estival": 6125,
      "ĠmÃ³vil": 6126,
      "ĠcalificÃ³": 6127,
      "IA": 6128,
      "liam": 6129,
      "ĠbalÃ³n": 6130,
      "vada": 6131,
      "Ġsemestre": 6132,
      "Ġapos": 6133,
      "ernam": 6134,
      "versario": 6135,
      "Ġcartera": 6136,
      "Ġvuelve": 6137,
      "Ġrumbo": 6138,
      "ĠDios": 6139,
      "Ġsumar": 6140,
      "Ġpersonajes": 6141,
      "ĠjugarÃ¡": 6142,
      "ĠAdri": 6143,
      "for": 6144,
      "tente": 6145,
      "ĠFlores": 6146,
      "ĠAustralia": 6147,
      "ĠGabriel": 6148,
      "Ġasegurar": 6149,
      "Ġtama": 6150,
      "Ġpiensa": 6151,
      "Ġactivos": 6152,
      "ĠMunicip": 6153,
      "deras": 6154,
      "Ġcorresponde": 6155,
      "tillo": 6156,
      "ĠTres": 6157,
      "Ġpartid": 6158,
      "Ġpersonales": 6159,
      "Ġorgu": 6160,
      "ĠRed": 6161,
      "ĠDiputados": 6162,
      "Ġoficina": 6163,
      "illar": 6164,
      "ĠSecre": 6165,
      "ĠLuc": 6166,
      "Ġuruguayas": 6167,
      "Ġkm": 6168,
      "Ġelegir": 6169,
      "ĠapareciÃ³": 6170,
      "Ġpreguntas": 6171,
      "wn": 6172,
      "acas": 6173,
      "Ġremate": 6174,
      "EP": 6175,
      "ĠMichael": 6176,
      "Ġoriginal": 6177,
      "Ġcontroles": 6178,
      "ĠSuprema": 6179,
      "Ser": 6180,
      "Ġmoto": 6181,
      "Ġinterno": 6182,
      "Ġteatro": 6183,
      "ĠaumentÃ³": 6184,
      "Ġdor": 6185,
      "Ġposiciones": 6186,
      "olina": 6187,
      "digo": 6188,
      "Ġactuar": 6189,
      "Ġembar": 6190,
      "Ġmagist": 6191,
      "ĠQu": 6192,
      "Ġautos": 6193,
      "Ġaguas": 6194,
      "ĠenseÃ±anza": 6195,
      "ĠseguirÃ¡": 6196,
      "Ġavance": 6197,
      "Ġcuarta": 6198,
      "Ġescuchar": 6199,
      "ĠbritÃ¡nica": 6200,
      "up": 6201,
      "lon": 6202,
      "Ġfren": 6203,
      "Ġsimilares": 6204,
      "amas": 6205,
      "ĠTurismo": 6206,
      "ĠXX": 6207,
      "Ġ42": 6208,
      "Ġarco": 6209,
      "Ġimpe": 6210,
      "ĠMaxi": 6211,
      "Ġresiden": 6212,
      "Mujica": 6213,
      "Ġrescate": 6214,
      "Ġseguidores": 6215,
      "Ġcliente": 6216,
      "Ġcultural": 6217,
      "Ġ,": 6218,
      "Ġcumbre": 6219,
      "Ġdiversas": 6220,
      "ĠdaÃ±os": 6221,
      "ĠentrÃ³": 6222,
      "Ġincrement": 6223,
      "ĠEspaÃ±ol": 6224,
      "Ġbreve": 6225,
      "yen": 6226,
      "ude": 6227,
      "Ġatac": 6228,
      "Ġorigin": 6229,
      "Ġconsumidores": 6230,
      "Ġconsoli": 6231,
      "Ġcolorado": 6232,
      "ĠExteriores": 6233,
      "ÃŃrez": 6234,
      "Ġgraves": 6235,
      "ologÃŃas": 6236,
      "ĠRousseff": 6237,
      "Ġsistemas": 6238,
      "Del": 6239,
      "tugal": 6240,
      "Ġdejaron": 6241,
      "Ġcientos": 6242,
      "ĠVie": 6243,
      "Ġmarcas": 6244,
      "Ġexitos": 6245,
      "Ġabierta": 6246,
      "ĠPaulo": 6247,
      "Ġalar": 6248,
      "ĠJack": 6249,
      "sar": 6250,
      "ĠdistribuciÃ³n": 6251,
      "oto": 6252,
      "ĠUTE": 6253,
      "Ġinspi": 6254,
      "Ġdebut": 6255,
      "Ġfemen": 6256,
      "Ġrol": 6257,
      "Ġesperan": 6258,
      "Ġanalistas": 6259,
      "ĠconversaciÃ³n": 6260,
      "gico": 6261,
      "Ġcompon": 6262,
      "Ġsubir": 6263,
      "ĠTrump": 6264,
      "Ġjusto": 6265,
      "Ġprecipi": 6266,
      "mÃ¡tica": 6267,
      "ĠÃļ": 6268,
      "Ã³mez": 6269,
      "Cas": 6270,
      "ters": 6271,
      "Ġeuropeos": 6272,
      "ĠSer": 6273,
      "Ġpublicada": 6274,
      "Ġgoleador": 6275,
      "Ġarquero": 6276,
      "eto": 6277,
      "egas": 6278,
      "Ġsupone": 6279,
      "stit": 6280,
      "Ġhermanos": 6281,
      "Ġrespaldo": 6282,
      "Ġlluvias": 6283,
      "Ġrefor": 6284,
      "lÃŃn": 6285,
      "Tiene": 6286,
      "acing": 6287,
      "Ġinicial": 6288,
      "Ġdirecto": 6289,
      "Ġcomida": 6290,
      "Ġasamblea": 6291,
      "Ġmanej": 6292,
      "Ġ65": 6293,
      "ĠClaudi": 6294,
      "Ġdesac": 6295,
      "ĠMauricio": 6296,
      "use": 6297,
      "mobili": 6298,
      "Ġinferi": 6299,
      "taban": 6300,
      "Ġausencia": 6301,
      "Ġconqui": 6302,
      "Ġsuperfici": 6303,
      "ĠpermitirÃ¡": 6304,
      "Ġcolombiano": 6305,
      "Ġdispuesto": 6306,
      "Ġmandato": 6307,
      "Ġrecibe": 6308,
      "dador": 6309,
      "mÃ³cra": 6310,
      "ĠintentÃ³": 6311,
      "Ġromp": 6312,
      "Finalmente": 6313,
      "rica": 6314,
      "ĠBom": 6315,
      "Ġ2000": 6316,
      "Incluso": 6317,
      "vador": 6318,
      "Ġequilib": 6319,
      "ĠartÃŃculos": 6320,
      "zan": 6321,
      "ĠreuniÃ³": 6322,
      "ĠCÃ©s": 6323,
      "Ġ2001": 6324,
      "Ġplaya": 6325,
      "ĠTacuarembÃ³": 6326,
      "vencia": 6327,
      "Ġocul": 6328,
      "ĠcoaliciÃ³n": 6329,
      "Ġcelular": 6330,
      "illo": 6331,
      "Ġllevan": 6332,
      "dra": 6333,
      "ventud": 6334,
      "Ġresponder": 6335,
      "ĠmediodÃŃa": 6336,
      "CO": 6337,
      "ĠAguirre": 6338,
      "laron": 6339,
      "Ġescritor": 6340,
      "amar": 6341,
      "Ġsiente": 6342,
      "ĠanotÃ³": 6343,
      "Ġconvenio": 6344,
      "Ġsenci": 6345,
      "Ġnecesidades": 6346,
      "Ġanimal": 6347,
      "ĠLatinoamÃ©rica": 6348,
      "laridad": 6349,
      "jes": 6350,
      "abinete": 6351,
      "Ġreservas": 6352,
      "Ġfrontera": 6353,
      "Ġsentencia": 6354,
      "quitec": 6355,
      "Ġpostura": 6356,
      "lip": 6357,
      "ĠIra": 6358,
      "Ġexplicar": 6359,
      "Ġprevio": 6360,
      "ualmente": 6361,
      "bur": 6362,
      "Ġencan": 6363,
      "ĠcomparaciÃ³n": 6364,
      "Ġdiputados": 6365,
      "ĠsumÃ³": 6366,
      "Ġexpresidente": 6367,
      "Ġrecordar": 6368,
      "Ġtermina": 6369,
      "Ġhorario": 6370,
      "23": 6371,
      "Ġ(\"": 6372,
      "%),": 6373,
      "Ġefici": 6374,
      "Ġfunciona": 6375,
      "ĠLeon": 6376,
      "Vamos": 6377,
      "edor": 6378,
      "Ġcuadro": 6379,
      "ÃŃmp": 6380,
      "Ġiban": 6381,
      "gaba": 6382,
      "dentro": 6383,
      "antil": 6384,
      "Ġadvi": 6385,
      "Ġ39": 6386,
      "ĠDepor": 6387,
      "pic": 6388,
      "deros": 6389,
      "Ġrealizan": 6390,
      "Ġactuales": 6391,
      "Ġfle": 6392,
      "dras": 6393,
      "ueve": 6394,
      "istÃ¡n": 6395,
      "ĠLargo": 6396,
      "ĠAlmagro": 6397,
      "guar": 6398,
      "Ġfechas": 6399,
      "Ġprove": 6400,
      "grafÃŃas": 6401,
      "ĠfÃŃsico": 6402,
      "Ġpier": 6403,
      "ĠdomÃ©st": 6404,
      "Ġhall": 6405,
      "acidad": 6406,
      "Ġretro": 6407,
      "enti": 6408,
      "Ġbandera": 6409,
      "ĠresolviÃ³": 6410,
      "Ġvacaciones": 6411,
      "Ġeducativo": 6412,
      "Ġhabitual": 6413,
      "Ha": 6414,
      "cula": 6415,
      "estros": 6416,
      "ity": 6417,
      "ĠBatlle": 6418,
      "sh": 6419,
      "Ġmur": 6420,
      "Ġproducir": 6421,
      "Ġcamiseta": 6422,
      "ĠbrasileÃ±os": 6423,
      "Ġtari": 6424,
      "Ġmonet": 6425,
      "guero": 6426,
      "ĠprovocÃ³": 6427,
      "Ġrem": 6428,
      "ĠfalleciÃ³": 6429,
      ">>": 6430,
      "ey": 6431,
      "ĠfÃŃsica": 6432,
      "ware": 6433,
      "Ġreales": 6434,
      "Ġdesap": 6435,
      "Ġmanejo": 6436,
      "stos": 6437,
      "erre": 6438,
      "ĠaerolÃŃn": 6439,
      "Ġblancos": 6440,
      "ĠeconÃ³micas": 6441,
      "itaria": 6442,
      "Ġsoluciones": 6443,
      "Tra": 6444,
      "Ġresulta": 6445,
      "sin": 6446,
      "Ġleyes": 6447,
      "Ġembajador": 6448,
      "ivos": 6449,
      "Ġpic": 6450,
      "ĠCav": 6451,
      "ĠÃĵ": 6452,
      "ĠHÃ©ctor": 6453,
      "Ġregistrado": 6454,
      "Ġintercambio": 6455,
      "chester": 6456,
      "Ġsentir": 6457,
      "Ġlici": 6458,
      "Estas": 6459,
      "ĠtrÃ¡fico": 6460,
      "Ġgremio": 6461,
      "ws": 6462,
      "Ġllevado": 6463,
      "Ġamari": 6464,
      "Ġconstante": 6465,
      "Ġescala": 6466,
      "\"Â¿": 6467,
      "Ġalo": 6468,
      "Ġdebu": 6469,
      "Ġaplicar": 6470,
      "Ġalerta": 6471,
      "EA": 6472,
      "onÃ³m": 6473,
      "Ġtribunal": 6474,
      "Ġafecta": 6475,
      "Ġrode": 6476,
      "Ġprevia": 6477,
      "Ġentrenamiento": 6478,
      "Ġ55": 6479,
      "Ġincidente": 6480,
      "Ġais": 6481,
      "ĠdivisiÃ³n": 6482,
      "Ġ44": 6483,
      "ĠPIB": 6484,
      "Ġrequ": 6485,
      "Ġrock": 6486,
      "<<": 6487,
      "Ġrevis": 6488,
      "Ġchileno": 6489,
      "AP": 6490,
      "Ġestuvi": 6491,
      "Ġfiscales": 6492,
      "Ġganas": 6493,
      "Ġconocida": 6494,
      "Ġcuidado": 6495,
      "ĠBern": 6496,
      "Ġafron": 6497,
      "Ġaproximadamente": 6498,
      "Ġmemoria": 6499,
      "grama": 6500,
      "Ġpracti": 6501,
      "Ġcierta": 6502,
      "ĠestarÃŃa": 6503,
      "Ġsindicatos": 6504,
      "ĠtamaÃ±o": 6505,
      "MT": 6506,
      "Ġpartida": 6507,
      "ĠIndustria": 6508,
      "Ġazul": 6509,
      "Ġrebo": 6510,
      "75": 6511,
      "ĠreacciÃ³n": 6512,
      "Ġdirecta": 6513,
      "ĠTierra": 6514,
      "Ġlater": 6515,
      "gÃŃa": 6516,
      "tiles": 6517,
      "ĠMus": 6518,
      "Ġduelo": 6519,
      "Ġabajo": 6520,
      "Ġbarrios": 6521,
      "Ġcita": 6522,
      "merc": 6523,
      "ĠFis": 6524,
      "aces": 6525,
      "Ġast": 6526,
      "pur": 6527,
      "Ġresal": 6528,
      "Ġconsiderado": 6529,
      "Ġavanzar": 6530,
      "estes": 6531,
      "cÃ©": 6532,
      "Ġcone": 6533,
      "ĠAUF": 6534,
      "Ġ43": 6535,
      "Ãīl": 6536,
      "Ġmodelos": 6537,
      "ĠparecÃŃa": 6538,
      "Ġcarb": 6539,
      "Ġsale": 6540,
      "Ġreconoce": 6541,
      "ĠÃ¡n": 6542,
      "Ġbailar": 6543,
      "Ġheridas": 6544,
      "bidas": 6545,
      "Ġnegativa": 6546,
      "ume": 6547,
      "opol": 6548,
      "Ġmuestran": 6549,
      "Ġtriunf": 6550,
      "pti": 6551,
      "ĠMos": 6552,
      "ore": 6553,
      "Ġescrito": 6554,
      "tesis": 6555,
      "Ġaleg": 6556,
      "cionÃ³": 6557,
      "ĠsiguiÃ³": 6558,
      "Ġdejado": 6559,
      "ges": 6560,
      "ĠÂ¡": 6561,
      "Ġentrevist": 6562,
      "Ġconvertido": 6563,
      "Ġdesen": 6564,
      "Ġincluyendo": 6565,
      "Ġremo": 6566,
      "Ġmurieron": 6567,
      "ĠpÃ©rdidas": 6568,
      "Nacional": 6569,
      "Ġestudiar": 6570,
      "Ġcompartir": 6571,
      "maciÃ³n": 6572,
      "Ġrevi": 6573,
      "ĠresultÃ³": 6574,
      "Ġafectados": 6575,
      "fatura": 6576,
      "Per": 6577,
      "Ġdefinitiva": 6578,
      "ĠRamÃŃrez": 6579,
      "NT": 6580,
      "cÃ¡n": 6581,
      "Ġpista": 6582,
      "Otros": 6583,
      "ĠGlo": 6584,
      "Ġhonor": 6585,
      "Ġmuerto": 6586,
      "Ġaquella": 6587,
      "ertas": 6588,
      "Ã¡les": 6589,
      "Ġliqui": 6590,
      "ĠGÃ³mez": 6591,
      "Ġpersi": 6592,
      "terio": 6593,
      "Ġcomuna": 6594,
      "ĠDivisiÃ³n": 6595,
      "alizados": 6596,
      "ĠRelaciones": 6597,
      "Ġhablando": 6598,
      "Ġtarjeta": 6599,
      "Ġsaben": 6600,
      "Ġesperanza": 6601,
      "Ġreclamo": 6602,
      "ĠIMM": 6603,
      "Ni": 6604,
      "ĠInvesti": 6605,
      "Ġsobrevi": 6606,
      "Ġasuntos": 6607,
      "Ġpade": 6608,
      "Ġpide": 6609,
      "Brasil": 6610,
      "leta": 6611,
      "lancia": 6612,
      "Montevideo": 6613,
      "ĠMundo": 6614,
      "Ġflo": 6615,
      "199": 6616,
      "cciones": 6617,
      "Ġespi": 6618,
      "tistas": 6619,
      "lantes": 6620,
      "anderers": 6621,
      "ĠPaul": 6622,
      "ĠTan": 6623,
      "ĠWi": 6624,
      "ulas": 6625,
      "ĠUnidad": 6626,
      "Ġdirigido": 6627,
      "Ġido": 6628,
      "unas": 6629,
      "Ġsubsec": 6630,
      "onÃŃa": 6631,
      "rida": 6632,
      "Ġpanor": 6633,
      "Ġfelici": 6634,
      "ĠlÃ³g": 6635,
      "Ġprotesta": 6636,
      "ĠsabÃŃa": 6637,
      "Ã¡bamos": 6638,
      "ĠRol": 6639,
      "ĠGrecia": 6640,
      "Ġcertamen": 6641,
      "Ġrivales": 6642,
      "ĠLula": 6643,
      "ĠCali": 6644,
      "Ġapla": 6645,
      "Ġconsideran": 6646,
      "Ġinmi": 6647,
      "Ġcielo": 6648,
      "ĠplanteÃ³": 6649,
      "ĠTin": 6650,
      "Ġquinto": 6651,
      "onald": 6652,
      "Ġgrados": 6653,
      "Ġcomportamiento": 6654,
      "EC": 6655,
      "Ġgi": 6656,
      "Ġet": 6657,
      "Ġflu": 6658,
      "Ġratific": 6659,
      "Ġninguno": 6660,
      "ĠremarcÃ³": 6661,
      "Ġregistro": 6662,
      "Ġpronunci": 6663,
      "Ġpropone": 6664,
      "Ġexac": 6665,
      "Ġleche": 6666,
      "Ġpromover": 6667,
      "Ġdisponible": 6668,
      "Nunca": 6669,
      "Ġsimp": 6670,
      "ĠinstalaciÃ³n": 6671,
      "pular": 6672,
      "Ġentra": 6673,
      "Ġindicaron": 6674,
      "Ġleer": 6675,
      "Ġsucede": 6676,
      "San": 6677,
      "Ġvaya": 6678,
      "Ġplantas": 6679,
      "Ġinmedi": 6680,
      "Ġdesfi": 6681,
      "ĠTea": 6682,
      "Ġpuesta": 6683,
      "ĠmÃ©dica": 6684,
      "opera": 6685,
      "ĠJuniors": 6686,
      "Ġcero": 6687,
      "ĠRub": 6688,
      "ĠIrÃ¡n": 6689,
      "Ġhospi": 6690,
      "ĠIglesia": 6691,
      "ĠTransporte": 6692,
      "zca": 6693,
      "Ġchi": 6694,
      "Ġelegido": 6695,
      "ĠdeberÃŃan": 6696,
      "ificaciÃ³n": 6697,
      "ĠtelÃ©fonos": 6698,
      "Ġdelic": 6699,
      "wood": 6700,
      "Ġsalarial": 6701,
      "ĠtendrÃŃa": 6702,
      "IS": 6703,
      "Ġparecer": 6704,
      "cena": 6705,
      "ĠMen": 6706,
      "Ġbeneficio": 6707,
      "Ġdato": 6708,
      "ĠestratÃ©": 6709,
      "Lle": 6710,
      "unos": 6711,
      "Ġhomicidio": 6712,
      "Ġprima": 6713,
      "ÃŃna": 6714,
      "Ġpresidentes": 6715,
      "Ġpenales": 6716,
      "ĠexportaciÃ³n": 6717,
      "ĠsuspensiÃ³n": 6718,
      "Ġexperto": 6719,
      "finales": 6720,
      "Ġrubro": 6721,
      "Ġconsiderar": 6722,
      "Ġruso": 6723,
      "Ġutili": 6724,
      "Ġvuelos": 6725,
      "ĠenviÃ³": 6726,
      "Ġinqui": 6727,
      "ĠRadio": 6728,
      "ĠIndependiente": 6729,
      "elas": 6730,
      "biendo": 6731,
      "Ġpresentaron": 6732,
      "Ġcontinente": 6733,
      "Ã©ndo": 6734,
      "igante": 6735,
      "Ġmarido": 6736,
      "migo": 6737,
      "Ġsoja": 6738,
      "ĠNegro": 6739,
      "Ġmusical": 6740,
      "ĠPou": 6741,
      "gentes": 6742,
      "ĠTorres": 6743,
      "ĠPremio": 6744,
      "Ġproteger": 6745,
      "tidas": 6746,
      "Ġmateriales": 6747,
      "):": 6748,
      "Actu": 6749,
      "Ġasumir": 6750,
      "redo": 6751,
      "segui": 6752,
      "Ġespeciales": 6753,
      "tres": 6754,
      "ĠPenal": 6755,
      "Ġpotencial": 6756,
      "mano": 6757,
      "Ġmodos": 6758,
      "ĠAlianza": 6759,
      "35": 6760,
      "Ġfirmas": 6761,
      "Ġaco": 6762,
      "Ġpasaron": 6763,
      "Ġadultos": 6764,
      "Ġturismo": 6765,
      "Ġprotestas": 6766,
      "cedes": 6767,
      "Ġinformes": 6768,
      "zno": 6769,
      "Ġsuele": 6770,
      "ĠconcentraciÃ³n": 6771,
      "Ġexcep": 6772,
      "ĠBur": 6773,
      "abe": 6774,
      "uidad": 6775,
      "ĠfÃ³rmula": 6776,
      "Ġmanifestantes": 6777,
      "Ġpasan": 6778,
      "Ġrealizadas": 6779,
      "ĠSociedad": 6780,
      "Ġcontenidos": 6781,
      "Ġepisodio": 6782,
      "Ã³stico": 6783,
      "Ġprobablemente": 6784,
      "Ġvul": 6785,
      "ĠSiria": 6786,
      "ĠDirector": 6787,
      "Ġmunicipales": 6788,
      "Ġchicos": 6789,
      "Ġmexicano": 6790,
      "ĠBru": 6791,
      "ting": 6792,
      "orÃŃa": 6793,
      "ĠPÃºb": 6794,
      "Ġprivadas": 6795,
      "Ġvisitante": 6796,
      "ĠFacultad": 6797,
      "Ġcuesta": 6798,
      "ĠexpresiÃ³n": 6799,
      "Ġdepende": 6800,
      ".,": 6801,
      "ĠHor": 6802,
      "ubernam": 6803,
      "Ġviajes": 6804,
      "Ġchoc": 6805,
      "Ġubicada": 6806,
      "Ġjueces": 6807,
      "Ġ.": 6808,
      "Ġpendi": 6809,
      "Ġpermanecer": 6810,
      "Ġfich": 6811,
      "Ġimporta": 6812,
      "Fuentes": 6813,
      "lipe": 6814,
      "Ġretom": 6815,
      "gantes": 6816,
      "ĠacompaÃ±ado": 6817,
      "Ġsimplemente": 6818,
      "quete": 6819,
      "ĠPri": 6820,
      "Ġprogres": 6821,
      "ĠPresidente": 6822,
      "Ġhuelga": 6823,
      "ĠsensaciÃ³n": 6824,
      "drÃ¡n": 6825,
      "Ġavances": 6826,
      "Ġportugu": 6827,
      "Ġobjeto": 6828,
      "tizÃ³": 6829,
      "erna": 6830,
      "Ġacusado": 6831,
      "Ġencontraron": 6832,
      "tz": 6833,
      "Ġcontam": 6834,
      "ĠCultura": 6835,
      "ĠDomin": 6836,
      "ĠemitiÃ³": 6837,
      "ster": 6838,
      "ĠCer": 6839,
      "Ġsatisfac": 6840,
      "Ġprocesos": 6841,
      "ĠZa": 6842,
      "uelo": 6843,
      "aste": 6844,
      "ĠFundaciÃ³n": 6845,
      "Ġmatu": 6846,
      "ĠMic": 6847,
      "PM": 6848,
      "sen": 6849,
      "Ġsemifinales": 6850,
      "Ġranking": 6851,
      "ĠfrÃŃo": 6852,
      "ĠseÃ±alaron": 6853,
      "Ġacre": 6854,
      "Ġasesinato": 6855,
      "Ġdicha": 6856,
      "Ġpobres": 6857,
      "Ġcasti": 6858,
      "Ġlegisla": 6859,
      "Ġautores": 6860,
      "Ġherramienta": 6861,
      "Ġsud": 6862,
      "ĠNoticias": 6863,
      "drÃŃa": 6864,
      "lada": 6865,
      "ĠingresÃ³": 6866,
      "cla": 6867,
      "Ġche": 6868,
      "Ġvende": 6869,
      "Ġpetrol": 6870,
      "Ġsecreto": 6871,
      "Ġabogados": 6872,
      "Ġeconomista": 6873,
      "Ġecu": 6874,
      "Ġpiloto": 6875,
      "Ġaval": 6876,
      "Ġdije": 6877,
      "eso": 6878,
      "Ġnegociar": 6879,
      "Ġaceptar": 6880,
      "BA": 6881,
      "ĠTro": 6882,
      "posi": 6883,
      "ĠhÃ¡": 6884,
      "ĠPortugal": 6885,
      "ĠDerechos": 6886,
      "Ġjudiciales": 6887,
      "ĠvenÃŃa": 6888,
      "Ġtot": 6889,
      "Ġdesapareci": 6890,
      "Ġsuces": 6891,
      "Ġpodido": 6892,
      "entados": 6893,
      "culares": 6894,
      "habili": 6895,
      "ciles": 6896,
      "Ġvigente": 6897,
      "Ġreflexi": 6898,
      "ons": 6899,
      "omos": 6900,
      "Ġprocesamiento": 6901,
      "ĠgÃ©nero": 6902,
      "ĠBolsa": 6903,
      "Ġdisminu": 6904,
      "ĠhectÃ¡reas": 6905,
      "bamos": 6906,
      "Ġapel": 6907,
      "otas": 6908,
      "Ġtransac": 6909,
      "Ġmantienen": 6910,
      "Ġevacu": 6911,
      "Ġinmobili": 6912,
      "PeÃ±arol": 6913,
      "ĠMartin": 6914,
      "Ġfeder": 6915,
      "ĠmÃ³viles": 6916,
      "Ġseri": 6917,
      "Ġinteligencia": 6918,
      "Ġimpuso": 6919,
      "Ġmanio": 6920,
      "ĠGerardo": 6921,
      "bano": 6922,
      "Ġgenerales": 6923,
      "Ġpleno": 6924,
      "ĠDu": 6925,
      "Ġtemperatura": 6926,
      "Ġrepor": 6927,
      "Ġdisfrutar": 6928,
      "urazno": 6929,
      "Ġ46": 6930,
      "Ġbuscan": 6931,
      "Ġoficialismo": 6932,
      "Ġelenco": 6933,
      "Ġnomb": 6934,
      "ÃŃctor": 6935,
      "Ġgubernam": 6936,
      "Ġdistrib": 6937,
      "llerÃŃa": 6938,
      "cura": 6939,
      "Ġpuente": 6940,
      "Ġsexo": 6941,
      "Ġapuesta": 6942,
      "izo": 6943,
      "Ġanticip": 6944,
      "Ġcolectivo": 6945,
      "udas": 6946,
      "ĠsacÃ³": 6947,
      "Ġbalance": 6948,
      "Gra": 6949,
      "Ġcuentan": 6950,
      "Ġregistraron": 6951,
      "crimin": 6952,
      "Ġverde": 6953,
      "Ci": 6954,
      "Ġinda": 6955,
      "ĠvenciÃ³": 6956,
      "ĠpÃ¡ginas": 6957,
      "ampi": 6958,
      "ĠTre": 6959,
      "Ġestrellas": 6960,
      "ticiÃ³n": 6961,
      "ĠdesempeÃ±o": 6962,
      "ĠRoma": 6963,
      "ĠRichard": 6964,
      "Col": 6965,
      "Ġfirme": 6966,
      "ĠaprobÃ³": 6967,
      "Ġatentado": 6968,
      "ecido": 6969,
      "Ġsuminist": 6970,
      "Ġperu": 6971,
      "ĠPuerto": 6972,
      "line": 6973,
      "Ġesperaba": 6974,
      "ĠOlÃŃmpicos": 6975,
      "tto": 6976,
      "ornia": 6977,
      "ĠvariaciÃ³n": 6978,
      "mer": 6979,
      "ural": 6980,
      "Ġefectivo": 6981,
      "emente": 6982,
      "ĠOs": 6983,
      "Ġalcance": 6984,
      "Ġtren": 6985,
      "ĠBush": 6986,
      "Ġrefiere": 6987,
      "ĠPach": 6988,
      "Ġinstalaciones": 6989,
      "diales": 6990,
      "ĠZel": 6991,
      "Ġdiciendo": 6992,
      "vados": 6993,
      "Ġ195": 6994,
      "Ġdemor": 6995,
      "reras": 6996,
      "Ambos": 6997,
      "ĠCO": 6998,
      "Ġbru": 6999,
      "Ġpaciente": 7000,
      "Co": 7001,
      "teo": 7002,
      "teca": 7003,
      "licas": 7004,
      "Ġtranspar": 7005,
      "ĠrepresentaciÃ³n": 7006,
      "Ġdroga": 7007,
      "ĠHumanos": 7008,
      "Ġinsul": 7009,
      "Ġintrodu": 7010,
      "Ġrebel": 7011,
      "Ġalguno": 7012,
      "ÃŃritu": 7013,
      "cidas": 7014,
      "ĠdarÃ¡": 7015,
      "%).": 7016,
      "Ġfallecido": 7017,
      "Ġpanorama": 7018,
      "Ġadentro": 7019,
      "Ġciviles": 7020,
      "Ġsoldados": 7021,
      "Ġorganizado": 7022,
      "ĠperiÃ³dico": 7023,
      "Ġconsultado": 7024,
      "Ġcolum": 7025,
      "26": 7026,
      "Ġdocente": 7027,
      "Ġrecibieron": 7028,
      "cendiÃ³": 7029,
      "Ġses": 7030,
      "ĠSuper": 7031,
      "!!": 7032,
      "Ġsuelo": 7033,
      "Ġrequiere": 7034,
      "ĠMPP": 7035,
      "Ġllamar": 7036,
      "ĠcriticÃ³": 7037,
      "Ġaun": 7038,
      "ĠsolicitÃ³": 7039,
      "Ġcandidatura": 7040,
      "ĠBoca": 7041,
      "Ġincidentes": 7042,
      "Ġextranjero": 7043,
      "ĠLucÃŃa": 7044,
      "Ġentidad": 7045,
      "amento": 7046,
      "Ġarras": 7047,
      "ĠcreciÃ³": 7048,
      "pping": 7049,
      "ĠMiami": 7050,
      "CE": 7051,
      "ĠEconÃ³m": 7052,
      "tÃŃas": 7053,
      "Ġcombustible": 7054,
      "Ca": 7055,
      "ÃŃble": 7056,
      "ficaciÃ³n": 7057,
      "Ġ120": 7058,
      "Ġdesconoci": 7059,
      "breu": 7060,
      "Ġreclamos": 7061,
      "Ġmatutino": 7062,
      "tidu": 7063,
      "Ġperj": 7064,
      "Ġacon": 7065,
      "Ġsiguientes": 7066,
      "Ġgigante": 7067,
      "Pa": 7068,
      "Ġlad": 7069,
      "Ġcomis": 7070,
      "Ġreconocer": 7071,
      "Ġalternativa": 7072,
      "ĠIndia": 7073,
      "Ġregal": 7074,
      "Ġmovimientos": 7075,
      "Ġformar": 7076,
      "Ġdiscutir": 7077,
      "Ġconvertirse": 7078,
      "ĠDT": 7079,
      "Ġvisitantes": 7080,
      "ĠCity": 7081,
      "Ġindustrial": 7082,
      "ĠTorneo": 7083,
      "Ġestructu": 7084,
      "jero": 7085,
      "Ġdigo": 7086,
      "Ġamplia": 7087,
      "ĠbÃ¡sicos": 7088,
      "biciÃ³n": 7089,
      "sias": 7090,
      "Ġki": 7091,
      "ĠPatri": 7092,
      "ĠcrÃŃtica": 7093,
      "ĠTeatro": 7094,
      "29": 7095,
      "Ġviento": 7096,
      "Ġencontrado": 7097,
      "Ġusted": 7098,
      "Ġadolescente": 7099,
      "ĠasociaciÃ³n": 7100,
      "ĠÃĵscar": 7101,
      "nt": 7102,
      "ĠVan": 7103,
      "Ġavent": 7104,
      "ĠasumiÃ³": 7105,
      "ok": 7106,
      "Ġvenir": 7107,
      "ĠCanadÃ¡": 7108,
      "dela": 7109,
      "Ġciru": 7110,
      "Ġtradicionales": 7111,
      "jada": 7112,
      "viamente": 7113,
      "....": 7114,
      "fÃ©": 7115,
      "estÃ¡": 7116,
      "onar": 7117,
      "Ġsuperficie": 7118,
      "Ġmira": 7119,
      "itÃŃ": 7120,
      "Ġsilencio": 7121,
      "tÃ³lica": 7122,
      "Ġenviar": 7123,
      "Ġnecesitan": 7124,
      "grantes": 7125,
      "Ġpensando": 7126,
      "Ġasc": 7127,
      "Ġeventos": 7128,
      "Ġconvocatoria": 7129,
      "guin": 7130,
      "Ġcompatri": 7131,
      "core": 7132,
      "ĠtÃ©rmino": 7133,
      "ĠAir": 7134,
      "Ġtratado": 7135,
      "ĠcapÃŃtu": 7136,
      "enar": 7137,
      "ĠJaneiro": 7138,
      "Ġatribu": 7139,
      "Ġdiscre": 7140,
      "Ġcircunstancias": 7141,
      "Ġvideos": 7142,
      "ĠpresentarÃ¡": 7143,
      "Ġ250": 7144,
      "Ġbalne": 7145,
      "Ġfl": 7146,
      "ĠelectrÃ³nico": 7147,
      "Ġocta": 7148,
      "28": 7149,
      "Prim": 7150,
      "Ġanunciado": 7151,
      "mpia": 7152,
      "Ġesquina": 7153,
      "Ġespal": 7154,
      "eira": 7155,
      "Ġmoda": 7156,
      "Ġmate": 7157,
      "Ġquedarse": 7158,
      "Ã§": 7159,
      "Ġpagos": 7160,
      "fornia": 7161,
      "UE": 7162,
      "ĠreÃºn": 7163,
      "Ġautoridad": 7164,
      "ĠLar": 7165,
      "ĠWalter": 7166,
      "Ġrebaj": 7167,
      "Ġcreciente": 7168,
      "Ġnu": 7169,
      "Ġresidencia": 7170,
      "Ġnacion": 7171,
      "ÃŃmetros": 7172,
      "Ġoficinas": 7173,
      "gual": 7174,
      "Ġabord": 7175,
      "Ġreglas": 7176,
      "ĠVa": 7177,
      "Ġfirmado": 7178,
      "Ġinsegu": 7179,
      "Ã©si": 7180,
      "Ġbasura": 7181,
      "ĠPos": 7182,
      "Ġsiento": 7183,
      "Ġserio": 7184,
      "Ġcercano": 7185,
      "Ġrepercu": 7186,
      "Ġpiel": 7187,
      "Ġsanciones": 7188,
      "olÃ³gicos": 7189,
      "ĠAz": 7190,
      "ĠBas": 7191,
      "Ġ2017": 7192,
      "ĠsurgiÃ³": 7193,
      "ĠIrak": 7194,
      "Ġdecidieron": 7195,
      "Ġapoyar": 7196,
      "Ġhol": 7197,
      "Ġves": 7198,
      "ĠFo": 7199,
      "Ġentu": 7200,
      "Ġarquitec": 7201,
      "oneta": 7202,
      "taÃ±a": 7203,
      "ĠEstudi": 7204,
      "ĠsÃŃn": 7205,
      "Ġpatri": 7206,
      "dalo": 7207,
      "ÃŃp": 7208,
      "ĠofreciÃ³": 7209,
      "Ġtricolor": 7210,
      "Actualmente": 7211,
      "fu": 7212,
      "ĠOro": 7213,
      "Ġdirectores": 7214,
      "ĠfirmÃ³": 7215,
      "Ġsorte": 7216,
      "Ġcomplicado": 7217,
      "ĠcolaboraciÃ³n": 7218,
      "Ġdeseo": 7219,
      "ĠCavani": 7220,
      "ridos": 7221,
      "Ġarres": 7222,
      "cÃ³n": 7223,
      "Ġtranscur": 7224,
      "ĠconfesÃ³": 7225,
      "bos": 7226,
      "ĠDis": 7227,
      "Ġdirectorio": 7228,
      "Pue": 7229,
      "Quer": 7230,
      "Ġacostumb": 7231,
      "Ġelecto": 7232,
      "Ġnovela": 7233,
      "yendo": 7234,
      "ĠJames": 7235,
      "Ġdescanso": 7236,
      "27": 7237,
      "Pas": 7238,
      "Ã©stor": 7239,
      "Ġdiarios": 7240,
      "hone": 7241,
      "Ġenfermedades": 7242,
      "bum": 7243,
      "ĠcooperaciÃ³n": 7244,
      "itor": 7245,
      "Ġcreer": 7246,
      "Ġdeclarar": 7247,
      "ĠFuerzas": 7248,
      "-Â¿": 7249,
      "Bar": 7250,
      "Ġveter": 7251,
      "Ġ600": 7252,
      "Ġproto": 7253,
      "Ġversiones": 7254,
      "Ġfri": 7255,
      "Ġrea": 7256,
      "Ġparcial": 7257,
      "Ġalmac": 7258,
      "Ġplena": 7259,
      "ĠPrimera": 7260,
      "Ġesco": 7261,
      "Ġnaturaleza": 7262,
      "Ġcuyos": 7263,
      "Ġul": 7264,
      "Ġrespuestas": 7265,
      "Ġpositiva": 7266,
      "dolfo": 7267,
      "Ġlesion": 7268,
      "Ale": 7269,
      "tral": 7270,
      "ĠBra": 7271,
      "Ġaplicaciones": 7272,
      "Ġdeterior": 7273,
      "AL": 7274,
      "hopping": 7275,
      "Ġdebemos": 7276,
      "Ġresi": 7277,
      "zy": 7278,
      "Ġrealizando": 7279,
      "Ġtrabajador": 7280,
      "ĠpromociÃ³n": 7281,
      "ĠLibertad": 7282,
      "ĠWilliam": 7283,
      "ĠDurazno": 7284,
      "sal": 7285,
      "certidu": 7286,
      "ĠLeonardo": 7287,
      "uiz": 7288,
      "usa": 7289,
      "ĠFlor": 7290,
      "Ġprocesado": 7291,
      "Ġbonos": 7292,
      "ego": 7293,
      "ĠmÃºsico": 7294,
      "ĠGeorge": 7295,
      "Ġalcalde": 7296,
      "Ġrestric": 7297,
      "linton": 7298,
      "Ġende": 7299,
      "Ġasign": 7300,
      "ĠespaÃ±oles": 7301,
      "Ġcompetitividad": 7302,
      "lados": 7303,
      "ĠSue": 7304,
      "dÃ³n": 7305,
      "Ġmirar": 7306,
      "sea": 7307,
      "Ġpaga": 7308,
      "Ġcontratos": 7309,
      "Ġbancada": 7310,
      "Ġlesiones": 7311,
      "Ġboca": 7312,
      "Ġconsegui": 7313,
      "Ġviejo": 7314,
      "Ġsugi": 7315,
      "sado": 7316,
      "Ġacces": 7317,
      "Ġrechazo": 7318,
      "ĠJefatura": 7319,
      "dimos": 7320,
      "Ġ49": 7321,
      "ĠLima": 7322,
      "zaron": 7323,
      "ĠlÃŃmite": 7324,
      "Ãºr": 7325,
      "Ġsup": 7326,
      "Ġdomicilio": 7327,
      "ĠPie": 7328,
      "Ġdescri": 7329,
      "tadora": 7330,
      "Ġlaborales": 7331,
      "inÃ³": 7332,
      "cionalidad": 7333,
      "Tanto": 7334,
      "Ġamp": 7335,
      "Ġsuici": 7336,
      "Ġbajas": 7337,
      "Ġtrayectoria": 7338,
      "ĠtrÃ¡mite": 7339,
      "dÃŃan": 7340,
      "ĠInte": 7341,
      "utas": 7342,
      "tn": 7343,
      "Ġincu": 7344,
      "ĠCuentas": 7345,
      "ĠCabrera": 7346,
      "Ġreda": 7347,
      "Ġhabitu": 7348,
      "formaciÃ³n": 7349,
      "ĠsucediÃ³": 7350,
      "Ġeuropeo": 7351,
      "Ġcertific": 7352,
      "ĠdefiniÃ³": 7353,
      "Ġsupl": 7354,
      "olver": 7355,
      "Ġbilater": 7356,
      "ane": 7357,
      "Ġcrimin": 7358,
      "Ġescon": 7359,
      "ĠNaciÃ³n": 7360,
      "ĠLegis": 7361,
      "Ġfrancesa": 7362,
      "tari": 7363,
      "duras": 7364,
      "ĠIN": 7365,
      "Ġnervi": 7366,
      "Ġconversaciones": 7367,
      "Ġrespi": 7368,
      "Ġmantenimiento": 7369,
      "ĠsanciÃ³n": 7370,
      "Ġfactor": 7371,
      "tilla": 7372,
      "ecieron": 7373,
      "onales": 7374,
      "Ġabandonar": 7375,
      "tte": 7376,
      "Ġrecomend": 7377,
      "TU": 7378,
      "Ġtipos": 7379,
      "oratorio": 7380,
      "ĠllevarÃ¡": 7381,
      "Ġherramientas": 7382,
      "VI": 7383,
      "ĠtratÃ³": 7384,
      "ĠVÃŃctor": 7385,
      "Ġpelea": 7386,
      "Ġcualquiera": 7387,
      "ny": 7388,
      "ĠGuerra": 7389,
      "Ġ41": 7390,
      "Cre": 7391,
      "Ġcompleta": 7392,
      "Ġfic": 7393,
      "ĠRacing": 7394,
      "ĠElimina": 7395,
      "ĠINAU": 7396,
      "ĠviviÃ³": 7397,
      "by": 7398,
      "Ġacor": 7399,
      "Ġprofesores": 7400,
      "ĠespÃŃritu": 7401,
      "Ġguardia": 7402,
      "Ġonce": 7403,
      "Ġmarcador": 7404,
      "Ġtestigos": 7405,
      "ĠSistema": 7406,
      "coni": 7407,
      "tinos": 7408,
      "ĠolÃŃmp": 7409,
      "Ġdisputa": 7410,
      "ĠHernÃ¡ndez": 7411,
      "Ġrecorrido": 7412,
      "Ġpasaje": 7413,
      "Ġcancel": 7414,
      "Ġcompetir": 7415,
      "egio": 7416,
      "ĠAD": 7417,
      "Tengo": 7418,
      "ĠFabi": 7419,
      "ĠdemÃ³cra": 7420,
      "Ġestren": 7421,
      "Ġretras": 7422,
      "ĠevaluaciÃ³n": 7423,
      "wa": 7424,
      "ĠtrabajÃ³": 7425,
      "Ġbatalla": 7426,
      "ftware": 7427,
      "ĠdepÃ³": 7428,
      "Ġcreciendo": 7429,
      "Ġvieron": 7430,
      "Ġsupermerc": 7431,
      "uicios": 7432,
      "Ġ47": 7433,
      "Ġcabal": 7434,
      "Ġprocedimiento": 7435,
      "Ġmediano": 7436,
      "ĠCap": 7437,
      "Ġdoce": 7438,
      "Ġindependiente": 7439,
      "ĠalegrÃŃa": 7440,
      "ĠdaÃ±o": 7441,
      "ign": 7442,
      "Ġfirmar": 7443,
      "33": 7444,
      "Ġtex": 7445,
      "Ġreivin": 7446,
      "ulares": 7447,
      "ome": 7448,
      "Ġboli": 7449,
      "Ġcreen": 7450,
      "Tal": 7451,
      "Ġtono": 7452,
      "Ġterminal": 7453,
      "Ġaniversario": 7454,
      "ducto": 7455,
      "ualidad": 7456,
      "uidos": 7457,
      "tenas": 7458,
      "Ġcelebra": 7459,
      "ĠBl": 7460,
      "demia": 7461,
      "ĠRamÃ³n": 7462,
      "ito": 7463,
      "ock": 7464,
      "ĠGMT": 7465,
      "PF": 7466,
      "Ã³nicos": 7467,
      "ĠdetenciÃ³n": 7468,
      "ame": 7469,
      "Ġsuperi": 7470,
      "ĠFelipe": 7471,
      "ĠGana": 7472,
      "Ġlateral": 7473,
      "ĠHon": 7474,
      "udicial": 7475,
      "Hemos": 7476,
      "IP": 7477,
      "Ã©nez": 7478,
      "we": 7479,
      "Ġtomado": 7480,
      "TV": 7481,
      "Ġalcanza": 7482,
      "Ġpermiten": 7483,
      "ĠCari": 7484,
      "85": 7485,
      "ĠMonte": 7486,
      "ĠquÃŃm": 7487,
      "Ġjugada": 7488,
      "Ġinteresante": 7489,
      "Ġchoque": 7490,
      "Ġinterac": 7491,
      "Ġexam": 7492,
      "imÃ©nez": 7493,
      "Ġpresupues": 7494,
      "ĠAc": 7495,
      "ĠvÃŃnculo": 7496,
      "Ġescribir": 7497,
      "Ġpropuso": 7498,
      "Ġincertidu": 7499,
      "ĠSara": 7500,
      "Ġcreado": 7501,
      "Ġluch": 7502,
      "ĠDr": 7503,
      "ĠII": 7504,
      "Ġcerrado": 7505,
      "rÃŃcol": 7506,
      "Ġabra": 7507,
      "Ġdecidido": 7508,
      "Ġdecidir": 7509,
      "Ġprevista": 7510,
      "uevas": 7511,
      "piÃ©": 7512,
      "ĠmÃºlti": 7513,
      "ĠseÃ±ales": 7514,
      "Ġdispositivos": 7515,
      "Ġaporte": 7516,
      "Ã±oz": 7517,
      "Ġmaneja": 7518,
      "ĠJes": 7519,
      "ĠsuperÃ³": 7520,
      "Ġesperando": 7521,
      "Ġiniciar": 7522,
      "Ġmecanismo": 7523,
      "ĠcreÃ³": 7524,
      "Ġchica": 7525,
      "Ġdemostrar": 7526,
      "Te": 7527,
      "rimiento": 7528,
      "ĠaerolÃŃnea": 7529,
      "pora": 7530,
      "ford": 7531,
      "ĠrelatÃ³": 7532,
      "ĠhistÃ³rica": 7533,
      "Ġcomand": 7534,
      "Ġparque": 7535,
      "ecciÃ³n": 7536,
      "mato": 7537,
      "Ġclaramente": 7538,
      "Toda": 7539,
      "ĠGastÃ³n": 7540,
      "Ġperiodo": 7541,
      "ĠPresu": 7542,
      "ĠSco": 7543,
      "bios": 7544,
      "Foto": 7545,
      "Ġdesplaz": 7546,
      "ĠTen": 7547,
      "Ġhue": 7548,
      "gol": 7549,
      "tarle": 7550,
      "ĠPopular": 7551,
      "Solo": 7552,
      "Ġaconte": 7553,
      "ĠEspec": 7554,
      "ĠcumpliÃ³": 7555,
      "than": 7556,
      "Ġllevaba": 7557,
      "Ġpropias": 7558,
      "ĠPapa": 7559,
      "ĠFinanzas": 7560,
      "Ġfres": 7561,
      "Ġsecuestr": 7562,
      "ĠManchester": 7563,
      "Ġguerri": 7564,
      "Ġincendio": 7565,
      "Ġrecurso": 7566,
      "100": 7567,
      "lando": 7568,
      "Ġago": 7569,
      "Ġtarjetas": 7570,
      "Ġbajos": 7571,
      "Ġaparecen": 7572,
      "ĠpequeÃ±as": 7573,
      "mores": 7574,
      "ĠescÃ¡ndalo": 7575,
      "Ġestados": 7576,
      "Ġpredio": 7577,
      "olÃ³gicas": 7578,
      "Ġmunicipal": 7579,
      "Ġinternas": 7580,
      "Ġencuestas": 7581,
      "ĠFerre": 7582,
      "ĠvolverÃ¡": 7583,
      "Jue": 7584,
      "ĠSudamericana": 7585,
      "Ġhistorias": 7586,
      "fÃŃa": 7587,
      "Ġsuje": 7588,
      "medi": 7589,
      "Ġtall": 7590,
      "Ġpapa": 7591,
      "Ġase": 7592,
      "enten": 7593,
      "riles": 7594,
      "Ġconsulta": 7595,
      "Dijo": 7596,
      "ĠexpansiÃ³n": 7597,
      "Ġprolon": 7598,
      "Ġfinancieros": 7599,
      "venientes": 7600,
      "yas": 7601,
      "Ġciudadano": 7602,
      "Ġexplor": 7603,
      "atamente": 7604,
      "ĠFal": 7605,
      "ĠCÃ©sar": 7606,
      "Def": 7607,
      "ĠCastillo": 7608,
      "Ġdiscip": 7609,
      "ĠclÃŃn": 7610,
      "Ġconciencia": 7611,
      "ficar": 7612,
      "Ġset": 7613,
      "Sal": 7614,
      "Ġtocar": 7615,
      "ĠrecesiÃ³n": 7616,
      "midad": 7617,
      "Ġchino": 7618,
      "ĠRio": 7619,
      "Ġmarcar": 7620,
      "ĠFerr": 7621,
      "ĠYou": 7622,
      "Ġempu": 7623,
      "Ġcalor": 7624,
      "ĠMercedes": 7625,
      "ĠVarela": 7626,
      "ĠPS": 7627,
      "ĠdefendiÃ³": 7628,
      "ĠexcepciÃ³n": 7629,
      "Ġextender": 7630,
      "Ġocupa": 7631,
      "garÃ¡": 7632,
      "ĠCÃ¡": 7633,
      "ĠNÃ©stor": 7634,
      "ĠÃ¡rbol": 7635,
      "Ġelim": 7636,
      "ÃŃsticos": 7637,
      "Ġabar": 7638,
      "Ġquedado": 7639,
      "ĠfotografÃŃas": 7640,
      "din": 7641,
      "ĠrealizaciÃ³n": 7642,
      "Ġextraordin": 7643,
      "Ġelimina": 7644,
      "Ap": 7645,
      "eat": 7646,
      "Ġprioridad": 7647,
      "Ġjuzgado": 7648,
      "Ġadjudic": 7649,
      "Ġhumana": 7650,
      "Ġdisparos": 7651,
      "Ġvinculados": 7652,
      "Ġfrase": 7653,
      "Ġmac": 7654,
      "Hubo": 7655,
      "rec": 7656,
      "46": 7657,
      "unda": 7658,
      "ĠjamÃ¡s": 7659,
      "Ġhermana": 7660,
      "ĠHaitÃŃ": 7661,
      "Ġreformas": 7662,
      "Ġmedal": 7663,
      "Ġestabilidad": 7664,
      "Ġaler": 7665,
      "Ġobjetos": 7666,
      "aducidad": 7667,
      "Ġconcl": 7668,
      "Ġcontactos": 7669,
      "Ġges": 7670,
      "Ġtranquilidad": 7671,
      "ĠWin": 7672,
      "Ġvencer": 7673,
      "Ġtelevisi": 7674,
      "ĠestaciÃ³n": 7675,
      "ĠMedi": 7676,
      "ĠRec": 7677,
      "Ġvale": 7678,
      "Ġcubrir": 7679,
      "Ġov": 7680,
      "Ġsubsecretario": 7681,
      "ĠAsia": 7682,
      "ĠAbreu": 7683,
      "cioso": 7684,
      "Ġevaluar": 7685,
      "rosoft": 7686,
      "Ġnuclear": 7687,
      "ĠAmeric": 7688,
      "Ġplantea": 7689,
      "Ġcamiones": 7690,
      "Fern": 7691,
      "Ġcanales": 7692,
      "Ġcuestiones": 7693,
      "Ġretorno": 7694,
      "ĠTom": 7695,
      "ĠJer": 7696,
      "Ġlament": 7697,
      "Ġaprobado": 7698,
      "Ġbrindar": 7699,
      "ĠArmadas": 7700,
      "Ġrecol": 7701,
      "Ġpeligros": 7702,
      "Ġcerebro": 7703,
      "Ġvocero": 7704,
      "Ã©nix": 7705,
      "Ġperjudic": 7706,
      "ĠgarantÃŃas": 7707,
      "Ġpresti": 7708,
      "ferencias": 7709,
      "ĠviolaciÃ³n": 7710,
      "Ġenfrenta": 7711,
      "ĠVir": 7712,
      "GI": 7713,
      "ĠAgencia": 7714,
      "Ġaccidentes": 7715,
      "Tu": 7716,
      "Ġsirve": 7717,
      "ĠfÃ¡b": 7718,
      "mil": 7719,
      "Ġrompi": 7720,
      "ĠÃģngeles": 7721,
      "ĠIr": 7722,
      "Ġofensiva": 7723,
      "36": 7724,
      "ĠÃ¡rbitro": 7725,
      "Ġperros": 7726,
      "ciona": 7727,
      "Ġliceos": 7728,
      "ĠacusÃ³": 7729,
      "Ġexig": 7730,
      "Ġine": 7731,
      "Ġtomando": 7732,
      "ĠLeÃ³n": 7733,
      "Ġcombatir": 7734,
      "Ġvos": 7735,
      "ĠrecaudaciÃ³n": 7736,
      "Ġdejando": 7737,
      "ĠEsc": 7738,
      "ĠÃ©sta": 7739,
      "Ġreglament": 7740,
      "Ġente": 7741,
      "Ġpresentada": 7742,
      "Ġamenazas": 7743,
      "Ġpoca": 7744,
      "ĠWanderers": 7745,
      "Fran": 7746,
      "ĠLea": 7747,
      "ĠKe": 7748,
      "Ġprotagonistas": 7749,
      "Ġcontinuidad": 7750,
      "iza": 7751,
      "Ġedificios": 7752,
      "ĠNA": 7753,
      "Ġparecen": 7754,
      "Ġentusias": 7755,
      "ĠOfici": 7756,
      "imp": 7757,
      "Ġcolores": 7758,
      "Ġmostraron": 7759,
      "Ġnormativa": 7760,
      "trÃ¡": 7761,
      "Ġgremial": 7762,
      "lectu": 7763,
      "Ġagente": 7764,
      "Cnt": 7765,
      "Ġreemp": 7766,
      "bitos": 7767,
      "Ġdestru": 7768,
      "lbum": 7769,
      "Ã±al": 7770,
      "my": 7771,
      "Ġsitios": 7772,
      "Ġabsolutamente": 7773,
      "Ġestacion": 7774,
      "ĠsÃ©pti": 7775,
      "yra": 7776,
      "Ãĵ": 7777,
      "Ã©ndez": 7778,
      "Ġbala": 7779,
      "Ã¡mica": 7780,
      "Ġespecialistas": 7781,
      "ĠPresupuesto": 7782,
      "ĠPac": 7783,
      "ĠestimÃ³": 7784,
      "ĠClinton": 7785,
      "Ġprepara": 7786,
      "Ġcoti": 7787,
      "Ġcobrar": 7788,
      "icaciÃ³n": 7789,
      "cran": 7790,
      "Ġ85": 7791,
      "Ġtraslado": 7792,
      "Ġregular": 7793,
      "Ġlluvia": 7794,
      "!+": 7795,
      "Ġbille": 7796,
      "Ġresponde": 7797,
      "Tampoco": 7798,
      "Ġhaberse": 7799,
      "Ġsalvo": 7800,
      "Ġelo": 7801,
      "gieron": 7802,
      "todos": 7803,
      "ĠAÃ©": 7804,
      "Ġllegue": 7805,
      "Ġnecesaria": 7806,
      "Ġpreocupa": 7807,
      "osidad": 7808,
      "quin": 7809,
      "Ġnie": 7810,
      "Ġbases": 7811,
      "Ġtitulares": 7812,
      "anc": 7813,
      "ĠSosa": 7814,
      "ĠNÃº": 7815,
      "Ġsocialista": 7816,
      "Ġequivalente": 7817,
      "atos": 7818,
      "Ġmeter": 7819,
      "Ġoeste": 7820,
      "ĠMay": 7821,
      "ltimas": 7822,
      "lywood": 7823,
      "ĠTimes": 7824,
      "ĠNadal": 7825,
      "ĠUn": 7826,
      "ĠsÃ³li": 7827,
      "Ġcompi": 7828,
      "Ġacaba": 7829,
      "Ġinsu": 7830,
      "Ġeuropea": 7831,
      "Ġtable": 7832,
      "Ġmod": 7833,
      "rones": 7834,
      "remo": 7835,
      "ĠBPS": 7836,
      "Ġcircuito": 7837,
      "Ġpromes": 7838,
      "grafo": 7839,
      "ida": 7840,
      "Ġmetro": 7841,
      "nesto": 7842,
      "ĠAf": 7843,
      "ĠLegisla": 7844,
      "Ġverse": 7845,
      "ĠviajÃ³": 7846,
      "Ġpermita": 7847,
      "ĠChi": 7848,
      "Ġtricolores": 7849,
      "Ġinseguridad": 7850,
      "dirÃ¡": 7851,
      "ĠciudadanÃŃa": 7852,
      "Ġitaliana": 7853,
      "Ġculpa": 7854,
      "Ġcatal": 7855,
      "Ġcorriente": 7856,
      "ĠServicios": 7857,
      "Ġadvierte": 7858,
      "uida": 7859,
      "ĠpÃºblicamente": 7860,
      "Ġapartam": 7861,
      "Ġpiezas": 7862,
      "Pi": 7863,
      "Ġingles": 7864,
      "Ġconducta": 7865,
      "Ġdichos": 7866,
      "Ġcorrespondiente": 7867,
      "Ġfamoso": 7868,
      "zgo": 7869,
      "Ã³logos": 7870,
      "Ġaustr": 7871,
      "Ġfar": 7872,
      "Ġciencia": 7873,
      "Ġdiscul": 7874,
      "ĠAlfredo": 7875,
      "Muchos": 7876,
      "ĠVivi": 7877,
      "IM": 7878,
      "Ġretor": 7879,
      "Ġaustrali": 7880,
      "Do": 7881,
      "uma": 7882,
      "ĠAmbi": 7883,
      "ĠMejor": 7884,
      "Ġutiliza": 7885,
      "Ġrefugi": 7886,
      "Ġtrataba": 7887,
      "ĠconducciÃ³n": 7888,
      "Ġdirige": 7889,
      "tuario": 7890,
      "ĠSao": 7891,
      "Ġpopulares": 7892,
      "Ġmillon": 7893,
      "Ġbolsa": 7894,
      "ĠEmi": 7895,
      "Ġhacemos": 7896,
      "ĠMuÃ±oz": 7897,
      "Ġtes": 7898,
      "valle": 7899,
      "Ġ@": 7900,
      "Ġacusaciones": 7901,
      "Ġfundament": 7902,
      "Ġlibres": 7903,
      "ĠRomero": 7904,
      "Ġreele": 7905,
      "ĠrÃ¡pida": 7906,
      "Ġprecipitaciones": 7907,
      "tÃºa": 7908,
      "Ġcondena": 7909,
      "vile": 7910,
      "Ġsoftware": 7911,
      "Ġrutas": 7912,
      "ĠplÃ¡": 7913,
      "Ġprofundidad": 7914,
      "oler": 7915,
      "Ġinvierno": 7916,
      "adona": 7917,
      "adÃ©m": 7918,
      "Ġnovia": 7919,
      "ĠCaribe": 7920,
      "ĠMalvÃŃn": 7921,
      "Ġcober": 7922,
      "ĠNuevo": 7923,
      "RE": 7924,
      "ĠpodÃŃan": 7925,
      "ville": 7926,
      "ROU": 7927,
      "Ġaprovechar": 7928,
      "Ġoptimi": 7929,
      "zados": 7930,
      "ĠPel": 7931,
      "rÃºa": 7932,
      "Ġdisparo": 7933,
      "Ġreserva": 7934,
      "Ġcuan": 7935,
      "ĠSus": 7936,
      "Ġbarco": 7937,
      "Ġida": 7938,
      "Ġmedicam": 7939,
      "Ġ54": 7940,
      "Ġdispuso": 7941,
      "Ġremi": 7942,
      "ĠSt": 7943,
      "oriano": 7944,
      "Ġprecisamente": 7945,
      "Ġabre": 7946,
      "Ġvisitar": 7947,
      "Ġposter": 7948,
      "Ġcaracteri": 7949,
      "Ġalternativas": 7950,
      "Ġ52": 7951,
      "Ġideal": 7952,
      "Ġlist": 7953,
      "Ġmonitor": 7954,
      "lera": 7955,
      "Ġcusto": 7956,
      "ĠJackson": 7957,
      "ĠShow": 7958,
      "ement": 7959,
      "ĠBCU": 7960,
      "Ġ800": 7961,
      "Ġverdadera": 7962,
      "ling": 7963,
      "Ġenviado": 7964,
      "ĠcientÃŃfico": 7965,
      "Ġtuve": 7966,
      "ĠArmada": 7967,
      "Ġrecorrer": 7968,
      "Ġgarantizar": 7969,
      "ĠAll": 7970,
      "Ġmuer": 7971,
      "ĠVictoria": 7972,
      "Ġinvertir": 7973,
      "inten": 7974,
      "trÃ¡fico": 7975,
      "Ġlevantar": 7976,
      "Ġanoche": 7977,
      "gida": 7978,
      "Ġgabinete": 7979,
      "Ella": 7980,
      "Ġ#": 7981,
      "Ġsuelen": 7982,
      "ĠCalifornia": 7983,
      "Ġsimul": 7984,
      "ĠDami": 7985,
      "ĠMunicipal": 7986,
      "gara": 7987,
      "Ġdisponibles": 7988,
      "Juan": 7989,
      "cipe": 7990,
      "radores": 7991,
      "Ġinstitucional": 7992,
      "Ġinvitados": 7993,
      "eca": 7994,
      "ĠCiencias": 7995,
      "Ġquinta": 7996,
      "ĠsorprendiÃ³": 7997,
      "ĠiPhone": 7998,
      "Ġple": 7999,
      "Ġmanifi": 8000,
      "Ġpantal": 8001,
      "Ġcamioneta": 8002,
      "elson": 8003,
      "ĠCaracas": 8004,
      "sor": 8005,
      "Ġempieza": 8006,
      "Ġparaguayo": 8007,
      "ĠPen": 8008,
      "ĠBay": 8009,
      "desa": 8010,
      "Ġenfa": 8011,
      "licos": 8012,
      "Ġ53": 8013,
      "Ġterremo": 8014,
      "ĠpropÃ³": 8015,
      "stedes": 8016,
      "Ġasociados": 8017,
      "Ġaceler": 8018,
      "Ġwww": 8019,
      "Ġcelebrar": 8020,
      "ĠhipÃ³": 8021,
      "Ġavenida": 8022,
      "teÃ±o": 8023,
      "Ġdefi": 8024,
      "ajo": 8025,
      "ĠseÃ±or": 8026,
      "Ġoperadores": 8027,
      "ĠprÃ¡cticas": 8028,
      "bero": 8029,
      "tenida": 8030,
      "ĠHollywood": 8031,
      "Ġanuales": 8032,
      "ĠtecnologÃŃas": 8033,
      "Ġincertidumbre": 8034,
      "jera": 8035,
      "entre": 8036,
      "Ġ\"Â¿": 8037,
      "IC": 8038,
      "ata": 8039,
      "ĠOficina": 8040,
      "Ġregresar": 8041,
      "Ġdimen": 8042,
      "Ġrin": 8043,
      "Ġdirigir": 8044,
      "cripciÃ³n": 8045,
      "Ġeventual": 8046,
      "Diego": 8047,
      "onathan": 8048,
      "Ġconfirmar": 8049,
      "Bo": 8050,
      "lande": 8051,
      "ĠNet": 8052,
      "inter": 8053,
      "uta": 8054,
      "Ġelemento": 8055,
      "Ġpat": 8056,
      "ĠMichel": 8057,
      "ĠcategorÃŃas": 8058,
      "Ġestatu": 8059,
      "Ġcumplimiento": 8060,
      "ĠStre": 8061,
      "Ġagar": 8062,
      "Ġtax": 8063,
      "Ġcomienzos": 8064,
      "daron": 8065,
      "800": 8066,
      "Ġdetener": 8067,
      "Ġhice": 8068,
      "Ġvirus": 8069,
      "Ġletras": 8070,
      "Ġintelectu": 8071,
      "Ġtemprano": 8072,
      "Ġlicencia": 8073,
      "letas": 8074,
      "imnas": 8075,
      "Ġvecina": 8076,
      "ĠquizÃ¡s": 8077,
      "OL": 8078,
      "Ġposee": 8079,
      "Clar": 8080,
      "ĠcuÃ¡les": 8081,
      "Ġequip": 8082,
      "sticos": 8083,
      "Ġchico": 8084,
      "ĠSarand": 8085,
      "Ri": 8086,
      "ayas": 8087,
      "Ġcritic": 8088,
      "Ġtradu": 8089,
      "Ġexcelente": 8090,
      "ĠtocÃ³": 8091,
      "Ġprivile": 8092,
      "verso": 8093,
      "Ġaprender": 8094,
      "Ġsustitu": 8095,
      "ĠcomunicÃ³": 8096,
      "Ġcomprob": 8097,
      "erman": 8098,
      "dicto": 8099,
      "Ġalcanzado": 8100,
      "arle": 8101,
      "Ġhagan": 8102,
      "Ġ56": 8103,
      "Ġgobernador": 8104,
      "laridades": 8105,
      "ĠUnited": 8106,
      "endoza": 8107,
      "ĠRobert": 8108,
      "Ġinternos": 8109,
      "Ġbandas": 8110,
      "Am": 8111,
      "Ġater": 8112,
      "Ġmundiales": 8113,
      "Ġevidencia": 8114,
      "Ġincluyen": 8115,
      "Ã³nicas": 8116,
      "Ġempresarial": 8117,
      "Ġ58": 8118,
      "ĠMaximiliano": 8119,
      "ĠrechazÃ³": 8120,
      "Ġrural": 8121,
      "siva": 8122,
      "dicen": 8123,
      "ĠrecibirÃ¡": 8124,
      "Ġcapitales": 8125,
      "arte": 8126,
      "ĠprÃ©stamo": 8127,
      "Ġparal": 8128,
      "emor": 8129,
      "Ġaudio": 8130,
      "ĠocupaciÃ³n": 8131,
      "ĠaprovechÃ³": 8132,
      "ontevide": 8133,
      "Bu": 8134,
      "Sab": 8135,
      "Ġmuertes": 8136,
      "300": 8137,
      "pan": 8138,
      "Ġautomo": 8139,
      "cher": 8140,
      "Ġtrage": 8141,
      "mios": 8142,
      "Ġdesn": 8143,
      "Ġministeri": 8144,
      "Ġintegrado": 8145,
      "Ġsucedido": 8146,
      "Ġdefens": 8147,
      "Ġsenadora": 8148,
      "oles": 8149,
      "Ġconsigna": 8150,
      "Ġcorreo": 8151,
      "Cor": 8152,
      "Ġoficialista": 8153,
      "Ġil": 8154,
      "cÃ³mo": 8155,
      "Ġexpectativa": 8156,
      "ĠentregÃ³": 8157,
      "ĠapariciÃ³n": 8158,
      "ĠrevoluciÃ³n": 8159,
      "Ġsalieron": 8160,
      "ĠmÃŃnima": 8161,
      "Ġnuboso": 8162,
      "ĠRural": 8163,
      "Ġcomercios": 8164,
      "Ġcolorados": 8165,
      "plicÃ³": 8166,
      "Ġnecesarios": 8167,
      "Ġdibu": 8168,
      "ant": 8169,
      "Ġenferm": 8170,
      "ansky": 8171,
      "Ġcomicios": 8172,
      "ĠcausÃ³": 8173,
      "Ġinteresados": 8174,
      "Ġgobernante": 8175,
      "Ġflexi": 8176,
      "Ġjubi": 8177,
      "Ġaltas": 8178,
      "Ġdirectiva": 8179,
      ".-": 8180,
      "Ġoperativa": 8181,
      "Ġinfluencia": 8182,
      "ĠelÃ©ctrica": 8183,
      "ĠNÃºÃ±ez": 8184,
      "Ġpropon": 8185,
      "Ġutilizado": 8186,
      "inho": 8187,
      "Ġintegra": 8188,
      "ĠMag": 8189,
      "ĠAgui": 8190,
      "atori": 8191,
      "Ġimponer": 8192,
      "Ġbalneario": 8193,
      "Ġconsultora": 8194,
      "ĠCivil": 8195,
      "Ġfrenteamplista": 8196,
      "yn": 8197,
      "Ġgala": 8198,
      "ĠtensiÃ³n": 8199,
      "Ġamplio": 8200,
      "ĠAntel": 8201,
      "ĠllegarÃ¡": 8202,
      "doso": 8203,
      "ĠagrÃŃcol": 8204,
      "Ġ64": 8205,
      "ĠcelebraciÃ³n": 8206,
      "ĠSarandÃŃ": 8207,
      "Ġfueran": 8208,
      "ctr": 8209,
      "Ġnumerosos": 8210,
      "Ġdaba": 8211,
      "achos": 8212,
      "ĠtradiciÃ³n": 8213,
      "dias": 8214,
      "Ġcontrib": 8215,
      "Ġarbi": 8216,
      "Ġhs": 8217,
      "Ġcuota": 8218,
      "ĠRica": 8219,
      "Ġcobertura": 8220,
      "ĠHolanda": 8221,
      "Ġresistencia": 8222,
      "Ġhicimos": 8223,
      "Ġcaptu": 8224,
      "ĠMacri": 8225,
      "ĠnarcotrÃ¡fico": 8226,
      "Ġoscu": 8227,
      "Ġhago": 8228,
      "Ġtelevis": 8229,
      "Ġmagni": 8230,
      "icana": 8231,
      "ĠinnovaciÃ³n": 8232,
      "hat": 8233,
      "uf": 8234,
      "ĠTinelli": 8235,
      "ĠPiÃ±": 8236,
      "Ġgo": 8237,
      "Ġpresi": 8238,
      "zz": 8239,
      "ence": 8240,
      "ĠCristian": 8241,
      "lis": 8242,
      "denes": 8243,
      "Ġagrup": 8244,
      "Ġcoopera": 8245,
      "ĠPorto": 8246,
      "Ġespecialista": 8247,
      "Ġsufrir": 8248,
      "Ġaeron": 8249,
      "venir": 8250,
      "Ġopositores": 8251,
      "Ġrazon": 8252,
      "Ġaparato": 8253,
      "ĠeconomÃŃas": 8254,
      "Ġmonetaria": 8255,
      "erva": 8256,
      "Ġene": 8257,
      "ĠacadÃ©m": 8258,
      "Ġinferior": 8259,
      "Ġreconocido": 8260,
      "Ġmirada": 8261,
      "Ġconsultas": 8262,
      "Ġplazos": 8263,
      "Ġevidente": 8264,
      "ciden": 8265,
      "ĠEliminatorias": 8266,
      "garse": 8267,
      "ĠHab": 8268,
      "Ġciertos": 8269,
      "Jos": 8270,
      "Ġtribuna": 8271,
      "Ġreprodu": 8272,
      "Ġkilo": 8273,
      "Ġconcierto": 8274,
      "ĠBella": 8275,
      "ĠordenÃ³": 8276,
      "Ġagropecu": 8277,
      "ĠmÃºltiples": 8278,
      "ĠIR": 8279,
      "Ġperdieron": 8280,
      "ĠconociÃ³": 8281,
      "Ġcubano": 8282,
      "ĠEdi": 8283,
      "Ġproductividad": 8284,
      "ID": 8285,
      "Ġaust": 8286,
      "Ġroja": 8287,
      "guna": 8288,
      "Ġ57": 8289,
      "ĠdifÃŃciles": 8290,
      "Ġhipo": 8291,
      "ĠHotel": 8292,
      "Ġinstrumentos": 8293,
      "Ġlegales": 8294,
      "Ã©rrez": 8295,
      "Ġveo": 8296,
      "Ġmanejar": 8297,
      "Ġcercana": 8298,
      "ias": 8299,
      "sÃ³": 8300,
      "Ġllen": 8301,
      "Ġmeteor": 8302,
      "ĠFMI": 8303,
      "Ġpusieron": 8304,
      "Ġincluido": 8305,
      "ĠdirigiÃ³": 8306,
      "Ġtemperaturas": 8307,
      "Ġplanteo": 8308,
      "Ġconstitucional": 8309,
      "Ġreivindic": 8310,
      "Ġsexuales": 8311,
      "ĠMesa": 8312,
      "Ġretirar": 8313,
      "Ġileg": 8314,
      "Ġpresion": 8315,
      "Ġbara": 8316,
      "Ġdirigida": 8317,
      "ĠErnesto": 8318,
      "gri": 8319,
      "Ġincau": 8320,
      "Ġsuman": 8321,
      "guÃ¡": 8322,
      "Ġcoche": 8323,
      "Ġhincha": 8324,
      "quetbol": 8325,
      "Ġbanca": 8326,
      "48": 8327,
      "Ġtoc": 8328,
      "ĠtenÃ©s": 8329,
      "ÃŃsima": 8330,
      "Ġinconstitu": 8331,
      "Ã©ro": 8332,
      "Ġinfantil": 8333,
      "Ġdistinto": 8334,
      "ĠMovimiento": 8335,
      "sten": 8336,
      "quÃŃn": 8337,
      "Ġparejas": 8338,
      "Ġmuestras": 8339,
      "Ġgusto": 8340,
      "ev": 8341,
      "Ġconfirmaron": 8342,
      "38": 8343,
      "ĠnaciÃ³n": 8344,
      "ĠdifusiÃ³n": 8345,
      "Ġtomaron": 8346,
      "ĠcÃ¡l": 8347,
      "Ġfilme": 8348,
      "Ġganancias": 8349,
      "39": 8350,
      "Ġconsultados": 8351,
      "MA": 8352,
      "Ġposterior": 8353,
      "Ġlimpieza": 8354,
      "Ġcompens": 8355,
      "Ġadquirir": 8356,
      "Ġseleccion": 8357,
      "Ġaspira": 8358,
      "pecto": 8359,
      "Ġsolicitud": 8360,
      "ME": 8361,
      "Ġresultaron": 8362,
      "ĠGanaderÃŃa": 8363,
      "!+!+": 8364,
      "ĠLin": 8365,
      "ĠKen": 8366,
      "ĠFiscal": 8367,
      "ĠEspectador": 8368,
      "Ġmontevide": 8369,
      "Ġfiestas": 8370,
      "Ġeliminar": 8371,
      "Ġsueldo": 8372,
      "Ġtuvimos": 8373,
      "ĠCaducidad": 8374,
      "Ġreunirse": 8375,
      "Ġirregularidades": 8376,
      "Ġgenerado": 8377,
      "Ġfavorable": 8378,
      "ĠJoa": 8379,
      "Ġdesas": 8380,
      "izado": 8381,
      "ĠTorre": 8382,
      "55": 8383,
      "onaldo": 8384,
      "ĠMoreira": 8385,
      "Ġnegativo": 8386,
      "Ġcortes": 8387,
      "Ġsexto": 8388,
      "Ġtransacciones": 8389,
      "tÃŃ": 8390,
      "Ġreciben": 8391,
      "47": 8392,
      "Ġtratando": 8393,
      "Ġlocalidades": 8394,
      "ĠdesafÃŃos": 8395,
      "ania": 8396,
      "Ġprocesados": 8397,
      "Ġadquisi": 8398,
      "Ġfom": 8399,
      "Ġcamp": 8400,
      "izar": 8401,
      "Ġopositor": 8402,
      "37": 8403,
      "Ġhumanidad": 8404,
      "erras": 8405,
      "ticas": 8406,
      "ĠtÃ©cnicas": 8407,
      "ĠJudicial": 8408,
      "ĠIv": 8409,
      "Ġaman": 8410,
      "enciÃ³": 8411,
      "ĠcontinuÃ³": 8412,
      "Ġconflictos": 8413,
      "ĠLeague": 8414,
      "Ġexperiencias": 8415,
      "Ġilegal": 8416,
      "ĠSoriano": 8417,
      "ÃŃncipe": 8418,
      "Ġ1999": 8419,
      "ĠautorizaciÃ³n": 8420,
      "ĠPrimaria": 8421,
      "ĠMed": 8422,
      "endiciÃ³n": 8423,
      "ĠincreÃŃble": 8424,
      "nal": 8425,
      "ĠÃ³p": 8426,
      "Ġtern": 8427,
      "ĠMark": 8428,
      "ĠÃģfrica": 8429,
      "Ã±ado": 8430,
      "ĠMendoza": 8431,
      "nidad": 8432,
      "ĠMicrosoft": 8433,
      "ĠCatal": 8434,
      "400": 8435,
      "Ġtantas": 8436,
      "Ġjubil": 8437,
      "Ġsenadores": 8438,
      "ĠobligaciÃ³n": 8439,
      "Ġaportes": 8440,
      "Ġalemana": 8441,
      "Ġrey": 8442,
      "Ġretra": 8443,
      "uiza": 8444,
      "Ġaquellas": 8445,
      "ĠSegun": 8446,
      "ĠDepartamental": 8447,
      "Ġperspectiva": 8448,
      "Ġrojo": 8449,
      "Ġincluir": 8450,
      "ĠlicitaciÃ³n": 8451,
      "zadas": 8452,
      "Ġecuatori": 8453,
      "entaciÃ³n": 8454,
      "ĠÃ¡lbum": 8455,
      "ĠCN": 8456,
      "econÃ³m": 8457,
      "Ġpudiera": 8458,
      "stiano": 8459,
      "Ġesposo": 8460,
      "Ġnomin": 8461,
      "AhÃŃ": 8462,
      "Ġfinancieras": 8463,
      "Ġintegran": 8464,
      "ticip": 8465,
      "ĠCÃ³": 8466,
      "Ġidentificar": 8467,
      "Ġdispositivo": 8468,
      "Ġprotocol": 8469,
      "Ġsini": 8470,
      "Ġrecoge": 8471,
      "Ġmicro": 8472,
      "Ġcarre": 8473,
      "Ġespecta": 8474,
      "ĠpreparaciÃ³n": 8475,
      "Ġmatar": 8476,
      "Ġrumores": 8477,
      "blos": 8478,
      "Ġtales": 8479,
      "ĠtÃ¡cti": 8480,
      "ĠRÃŃos": 8481,
      "Ġexpresa": 8482,
      "ARC": 8483,
      "Ġpresidenciales": 8484,
      "Ġenfrentamiento": 8485,
      "Ġcharla": 8486,
      "Ġejerc": 8487,
      "ĠemisiÃ³n": 8488,
      "ĠÃļltimas": 8489,
      "Ġnaturales": 8490,
      "Ġguitar": 8491,
      "omis": 8492,
      "ĠNavi": 8493,
      "Ġdefensor": 8494,
      "Ġllamadas": 8495,
      "Ġindependencia": 8496,
      "Ġamistoso": 8497,
      "?\".": 8498,
      "Ã©li": 8499,
      "Ġcoca": 8500,
      "Man": 8501,
      "Ġcompletamente": 8502,
      "tible": 8503,
      "Ã¡mico": 8504,
      "Ġsumaron": 8505,
      "Ġafili": 8506,
      "ĠFuerza": 8507,
      "ĠLegislativo": 8508,
      "Ġtecho": 8509,
      "entÃ³": 8510,
      "ĠcontarÃ¡": 8511,
      "Ġmascul": 8512,
      "Ġja": 8513,
      "ĠTes": 8514,
      "Ġaprobada": 8515,
      "keting": 8516,
      "Ġfuga": 8517,
      "Ġhabido": 8518,
      "ĠdisparÃ³": 8519,
      "ĠMilÃ¡n": 8520,
      "ward": 8521,
      "Ġexces": 8522,
      "rana": 8523,
      "Ġconcretar": 8524,
      "zando": 8525,
      "Ġsemanario": 8526,
      "Ġtranspor": 8527,
      "ĠespectÃ¡culos": 8528,
      "Ġdesple": 8529,
      "Ġbio": 8530,
      "ĠderrotÃ³": 8531,
      "Ġalej": 8532,
      "Gracias": 8533,
      "zaje": 8534,
      "Ġcomunes": 8535,
      "Ġliga": 8536,
      "ĠMeteor": 8537,
      "ĠprÃ©stamos": 8538,
      "Ġcamin": 8539,
      "tadoras": 8540,
      "Ġnacido": 8541,
      "Ġmecanismos": 8542,
      "ĠLA": 8543,
      "Ġcursos": 8544,
      "Ġimpulsar": 8545,
      "Ġcuerpos": 8546,
      "Ġemergentes": 8547,
      "Primero": 8548,
      "Ġliderazgo": 8549,
      "Ġ72": 8550,
      "Ġcentrales": 8551,
      "ĠHen": 8552,
      "Ġcartel": 8553,
      "Ġregiones": 8554,
      "ĠEmp": 8555,
      "Ġconquist": 8556,
      "!\",": 8557,
      "Ġcaja": 8558,
      "Ġpostu": 8559,
      "Ġdirigidos": 8560,
      "Ġterrorismo": 8561,
      "veira": 8562,
      "Ġbolivi": 8563,
      "600": 8564,
      "Ġgor": 8565,
      "Ġsolucionar": 8566,
      "Ġambiental": 8567,
      "ĠBomberos": 8568,
      "onista": 8569,
      "Ġconm": 8570,
      "Ġveinte": 8571,
      "ĠRosario": 8572,
      "ĠMSP": 8573,
      "ĠSalvador": 8574,
      "ĠfotÃ³": 8575,
      "ĠcontinuarÃ¡": 8576,
      "Ġcayeron": 8577,
      "kovic": 8578,
      "ĠbebÃ©": 8579,
      "Ġsob": 8580,
      "teratura": 8581,
      "EL": 8582,
      "ĠBene": 8583,
      "Ġtanta": 8584,
      "Ġintenta": 8585,
      "Ã³rdo": 8586,
      "fal": 8587,
      "ĠFerreira": 8588,
      "ĠpropÃ³sito": 8589,
      "lina": 8590,
      "ĠAngel": 8591,
      "dian": 8592,
      "ĠÃ¡ra": 8593,
      "Ġindependi": 8594,
      "Ġverdadero": 8595,
      "ĠCampeonato": 8596,
      "Ġcien": 8597,
      "Ġrepresentan": 8598,
      "Ġmanifestaciones": 8599,
      "Deb": 8600,
      "onÃ³": 8601,
      "gipto": 8602,
      "yeron": 8603,
      "ĠLÃŃ": 8604,
      "ĠÃº": 8605,
      "ĠgustarÃŃa": 8606,
      "ilma": 8607,
      "Ġ59": 8608,
      "Ġasistir": 8609,
      "idos": 8610,
      "Ġcolegas": 8611,
      "Ġbote": 8612,
      "Ġespectadores": 8613,
      "Ġcrudo": 8614,
      "Ġmaterias": 8615,
      "ĠNelson": 8616,
      "osex": 8617,
      "firman": 8618,
      "ĠKo": 8619,
      "Ġcontun": 8620,
      "Ġtrasladado": 8621,
      "Ġtemor": 8622,
      "--------": 8623,
      "comun": 8624,
      "ĠcompeticiÃ³n": 8625,
      "Ġzaguero": 8626,
      "Ġpropietario": 8627,
      "Ġign": 8628,
      "Ġtemporal": 8629,
      "Ġlados": 8630,
      "Ġagencias": 8631,
      "Ġhomosex": 8632,
      "Ġlengu": 8633,
      "Reci": 8634,
      "oger": 8635,
      "Ġsufrido": 8636,
      "ure": 8637,
      "Ġimportaciones": 8638,
      "Ġemisiones": 8639,
      "CAP": 8640,
      "Ġascenso": 8641,
      "Ġprovi": 8642,
      "Ġprocl": 8643,
      "ĠMarcos": 8644,
      "Ġinmediatamente": 8645,
      "ĠcrÃŃ": 8646,
      "Ġ(-": 8647,
      "Ġaseguran": 8648,
      "Ġdefensi": 8649,
      "inidad": 8650,
      "ĠAT": 8651,
      "candida": 8652,
      "Ġcombate": 8653,
      "Ġfederal": 8654,
      "timos": 8655,
      "Ġinvestigar": 8656,
      "ĠaportÃ³": 8657,
      "Ġpierde": 8658,
      "alÃ¡": 8659,
      "Ġge": 8660,
      "Ġaportar": 8661,
      "Ġrever": 8662,
      "Ġterremoto": 8663,
      "Ã©lez": 8664,
      "ĠQui": 8665,
      "ĠkilÃ³metro": 8666,
      "ĠmencionÃ³": 8667,
      "65": 8668,
      "ĠSha": 8669,
      "Ġconsiste": 8670,
      "Ġempleos": 8671,
      "Nadie": 8672,
      "ĠdesapariciÃ³n": 8673,
      "Ġfundador": 8674,
      "ĠComunista": 8675,
      "ĠTurquÃŃa": 8676,
      "ĠtenÃŃamos": 8677,
      "09": 8678,
      "ĠcontinuaciÃ³n": 8679,
      "habilitaciÃ³n": 8680,
      "Nues": 8681,
      "Ġgolpes": 8682,
      "Ġbancario": 8683,
      "Ġmodificaciones": 8684,
      "ĠconexiÃ³n": 8685,
      "Emp": 8686,
      "Ġdisi": 8687,
      "Ġesque": 8688,
      "Ġestreno": 8689,
      "apones": 8690,
      "zco": 8691,
      "ĠgrÃ¡": 8692,
      "Ġdocumental": 8693,
      "Ġrecientes": 8694,
      "Ġeno": 8695,
      "ĠPrado": 8696,
      "Ġplano": 8697,
      "Ġ51": 8698,
      "ĠquedarÃ¡": 8699,
      "Ġrein": 8700,
      "Ġigualdad": 8701,
      "Ġdemuestra": 8702,
      "ĠportuguÃ©s": 8703,
      "ermo": 8704,
      "polit": 8705,
      "adÃ¡ver": 8706,
      "Ġreserv": 8707,
      "ĠCarre": 8708,
      "Ġtragedia": 8709,
      "Ġbon": 8710,
      "ĠcrÃ©ditos": 8711,
      "Ġlla": 8712,
      "ĠPIT": 8713,
      "icaciones": 8714,
      "villa": 8715,
      "versal": 8716,
      "ĠCorrea": 8717,
      "Ġvientos": 8718,
      "medio": 8719,
      "Ġinfl": 8720,
      "guinetti": 8721,
      "monios": 8722,
      "ĠreiterÃ³": 8723,
      "ĠServicio": 8724,
      "ĠPr": 8725,
      "PA": 8726,
      "mal": 8727,
      "ĠestableciÃ³": 8728,
      "Ġsolidaridad": 8729,
      "Inter": 8730,
      "strucciÃ³n": 8731,
      "asco": 8732,
      "quito": 8733,
      "Ġtraer": 8734,
      "Ġrecomen": 8735,
      "Ġelaborado": 8736,
      "Ġtormentas": 8737,
      "Ġrebotes": 8738,
      "iniones": 8739,
      "Ġenca": 8740,
      "orld": 8741,
      "Ġmando": 8742,
      "Ġestablecimiento": 8743,
      "ĠEnerg": 8744,
      "Ġsupon": 8745,
      "Ġterroristas": 8746,
      "Ġvigilancia": 8747,
      "Ġcostado": 8748,
      "Bi": 8749,
      "ĠAtenas": 8750,
      "quia": 8751,
      "Ã³rdoba": 8752,
      "pri": 8753,
      "puestamente": 8754,
      "Ġcocina": 8755,
      "Ġrealizados": 8756,
      "Ġcelestes": 8757,
      "Ġdia": 8758,
      "Ġreunir": 8759,
      "zona": 8760,
      "llÃ³": 8761,
      "tter": 8762,
      "loom": 8763,
      "Ġabuso": 8764,
      "ĠMaradona": 8765,
      "Ġpies": 8766,
      "Ġposteriormente": 8767,
      "Ġcitado": 8768,
      "ĠAh": 8769,
      "Ġargumento": 8770,
      "ĠAgricultura": 8771,
      "Ġcampos": 8772,
      "Ġhar": 8773,
      "Ġimpro": 8774,
      "vero": 8775,
      "Ġlatinoamericanos": 8776,
      "Ã¡u": 8777,
      "ĠcrÃŃtico": 8778,
      "Ġvotantes": 8779,
      "Ġcomplement": 8780,
      "orada": 8781,
      "Ġargumentos": 8782,
      "sivo": 8783,
      "Ġincent": 8784,
      "ĠexplosiÃ³n": 8785,
      "Ġcruce": 8786,
      "Ġjornadas": 8787,
      "ĠficciÃ³n": 8788,
      "Fe": 8789,
      "Ġsupera": 8790,
      "He": 8791,
      "Ġvisitas": 8792,
      "MS": 8793,
      "ĠYa": 8794,
      "Ġindican": 8795,
      "ĠUPM": 8796,
      "ĠMinistros": 8797,
      "ĠMili": 8798,
      "Ġatentados": 8799,
      "Ġcompromisos": 8800,
      "llero": 8801,
      "ĠJonathan": 8802,
      "Ġparlamentaria": 8803,
      "Ġvar": 8804,
      "ĠincorporaciÃ³n": 8805,
      "ĠcuÃ¡nto": 8806,
      "Ġmort": 8807,
      "mej": 8808,
      "Ġofertas": 8809,
      "cada": 8810,
      "tea": 8811,
      "Ġvidas": 8812,
      "Ġviviendo": 8813,
      "ĠFabiÃ¡n": 8814,
      "ĠSim": 8815,
      "Ġfracaso": 8816,
      "ĠfundaciÃ³n": 8817,
      "05": 8818,
      "Ġembajada": 8819,
      "Ġgrad": 8820,
      "Ġidi": 8821,
      "Ġdeterminado": 8822,
      "ĠAdu": 8823,
      "Ġbron": 8824,
      "Ġ66": 8825,
      "Ġexplicaron": 8826,
      "Ġcometido": 8827,
      "AcÃ¡": 8828,
      "ĠStreet": 8829,
      "dando": 8830,
      "ĠcadÃ¡ver": 8831,
      "ĠKar": 8832,
      "ĠharÃ¡n": 8833,
      "Ġconsecutivo": 8834,
      "Ġsurge": 8835,
      "senal": 8836,
      "ranÃŃ": 8837,
      "Ġciertas": 8838,
      "Ġrostro": 8839,
      "49": 8840,
      "ueva": 8841,
      "Ġmadera": 8842,
      "Ġjerarcas": 8843,
      "landia": 8844,
      "Ġopiniones": 8845,
      "ĠNobel": 8846,
      "Ġoficialmente": 8847,
      "Ġvs": 8848,
      "ĠcolecciÃ³n": 8849,
      "Ġmutual": 8850,
      "icen": 8851,
      "Ġcomuni": 8852,
      "Ġformal": 8853,
      "Ġ1990": 8854,
      "mÃ¡ticas": 8855,
      "Ġblanca": 8856,
      "ĠPanamÃ¡": 8857,
      "Ġtotalidad": 8858,
      "ayago": 8859,
      "Ġponerse": 8860,
      "zzi": 8861,
      "ambre": 8862,
      "Ġcontenedores": 8863,
      "lus": 8864,
      "Ġincluidos": 8865,
      "ĠLuna": 8866,
      "isa": 8867,
      "Ġpidieron": 8868,
      "Ġ700": 8869,
      "Ġmagnitud": 8870,
      "guÃ©": 8871,
      "ĠmÃºsicos": 8872,
      "reros": 8873,
      "Ġextr": 8874,
      "Ġadh": 8875,
      "TO": 8876,
      "ĠGaza": 8877,
      "Ġahorro": 8878,
      "Ġmaestro": 8879,
      "Ġnecesarias": 8880,
      "Ġvinculadas": 8881,
      "Ġindividual": 8882,
      "Respecto": 8883,
      "present": 8884,
      "ĠRamos": 8885,
      "ĠRonaldo": 8886,
      "ĠCha": 8887,
      "Ġglob": 8888,
      "Ġimpedir": 8889,
      "Ġsuperiores": 8890,
      "Ã¡ndole": 8891,
      "enarios": 8892,
      "icÃ³p": 8893,
      "Ġdivis": 8894,
      "ĠprevenciÃ³n": 8895,
      "Ġguarda": 8896,
      "ĠautomÃ³viles": 8897,
      "ĠcrÃŃmenes": 8898,
      "Ġnacimiento": 8899,
      "Ellos": 8900,
      "Ġrecuerdo": 8901,
      "Ġencontraban": 8902,
      "ĠaÃ±ade": 8903,
      "Ġresidu": 8904,
      "cano": 8905,
      "ins": 8906,
      "Ġiniciativas": 8907,
      "Ġsuspender": 8908,
      "ances": 8909,
      "diera": 8910,
      "Ġestatales": 8911,
      "ĠGrande": 8912,
      "ĠPiedras": 8913,
      "mamente": 8914,
      "titu": 8915,
      "ĠMelo": 8916,
      "ĠGro": 8917,
      "Ġoctavos": 8918,
      "Ġfas": 8919,
      "Ġreh": 8920,
      "Ġblog": 8921,
      "Ġhallaz": 8922,
      "radora": 8923,
      "lardo": 8924,
      "gidas": 8925,
      "ĠhipÃ³tesis": 8926,
      "dicas": 8927,
      "Ġ62": 8928,
      "ily": 8929,
      "DT": 8930,
      "gust": 8931,
      "Ġperpe": 8932,
      "ĠQue": 8933,
      "ĠagresiÃ³n": 8934,
      "taje": 8935,
      "andra": 8936,
      "Ġmoral": 8937,
      "ĠvÃŃas": 8938,
      "Ġrusa": 8939,
      "Ġfilas": 8940,
      "Ġresponsabilidades": 8941,
      "ĠÃ¡ni": 8942,
      "Ġindis": 8943,
      "Soy": 8944,
      "Ġretiro": 8945,
      "ĠSA": 8946,
      "Ġpaquete": 8947,
      "Ġpasta": 8948,
      "Ġintegrada": 8949,
      "Ġcelulares": 8950,
      "ĠaceptÃ³": 8951,
      "Ġcomputadora": 8952,
      "Ġhospitales": 8953,
      "Ġrecal": 8954,
      "valu": 8955,
      "Ġlujo": 8956,
      "Ġfinanciamiento": 8957,
      "Ġilust": 8958,
      "Ġincur": 8959,
      "Ġdeclarado": 8960,
      "iente": 8961,
      "Ġdetalle": 8962,
      "zÃ¡": 8963,
      "Ġfama": 8964,
      "Ġmotor": 8965,
      "Ġcambiado": 8966,
      "ĠfinanciaciÃ³n": 8967,
      "ĠDerecho": 8968,
      "Ġjud": 8969,
      "32": 8970,
      "daje": 8971,
      "Ġinformar": 8972,
      "ĠConfe": 8973,
      "uras": 8974,
      "Ġselecciones": 8975,
      "Ġmerca": 8976,
      "ĠbaÃ±o": 8977,
      "ĠViera": 8978,
      "engo": 8979,
      "ĠserÃŃan": 8980,
      "Ġespecul": 8981,
      "Ġtarifas": 8982,
      "Ġmales": 8983,
      "Ġempe": 8984,
      "forme": 8985,
      "Ġconvir": 8986,
      "ĠiranÃŃ": 8987,
      "Ġpresiones": 8988,
      "Estados": 8989,
      "Ġfuncionar": 8990,
      "ĠFranco": 8991,
      "Ġexige": 8992,
      "Ġinstrumento": 8993,
      "ĠSocialista": 8994,
      "Ã¡ne": 8995,
      "ĠFÃ©nix": 8996,
      "Luis": 8997,
      "ah": 8998,
      "Ġcolocar": 8999,
      "ĠKi": 9000,
      "ĠRob": 9001,
      "Ġpronos": 9002,
      "Ġdemostrado": 9003,
      "Ġces": 9004,
      "lido": 9005,
      "Ġsociedades": 9006,
      "lismo": 9007,
      "Ġinformaciones": 9008,
      "ĠseÃ±alando": 9009,
      "Ġdeportiva": 9010,
      "44": 9011,
      "cÃº": 9012,
      "ĠEgipto": 9013,
      "Ġpapeles": 9014,
      "Ġpropietarios": 9015,
      "ĠirÃ¡": 9016,
      "ĠGimÃ©nez": 9017,
      "Ġcorrespondientes": 9018,
      "bajadores": 9019,
      "Ġeducativos": 9020,
      "Ġextremo": 9021,
      "ĠPacheco": 9022,
      "kel": 9023,
      "chada": 9024,
      "Ġequilibrio": 9025,
      "ĠcapÃŃtulo": 9026,
      "Ġnutri": 9027,
      "Ġllamados": 9028,
      "Ġadic": 9029,
      "SerÃ¡": 9030,
      "Ġromper": 9031,
      "tiende": 9032,
      "ĠDon": 9033,
      "Ġrestaurante": 9034,
      "Ġaborto": 9035,
      "Ġcolumna": 9036,
      "tiÃ©rrez": 9037,
      "Ġanul": 9038,
      "Ġameric": 9039,
      "Ġarmado": 9040,
      "Ġculp": 9041,
      "Ġconcreto": 9042,
      "Ġprimas": 9043,
      "198": 9044,
      "Ġbebidas": 9045,
      "Ġimpi": 9046,
      "ligencia": 9047,
      "SÃ³lo": 9048,
      "Ġsaque": 9049,
      "Ġresidentes": 9050,
      "Ġsalariales": 9051,
      "ĠÃį": 9052,
      "Ġaparte": 9053,
      "ĠHerrera": 9054,
      "Mat": 9055,
      "inson": 9056,
      "Ġpertenece": 9057,
      "Ġpatrimonio": 9058,
      "ctoral": 9059,
      "ĠhelicÃ³p": 9060,
      "Ġadu": 9061,
      "Ġustedes": 9062,
      "ĠMuseo": 9063,
      "ĠeliminaciÃ³n": 9064,
      "Ġrequeri": 9065,
      "76": 9066,
      "Ġestric": 9067,
      "Ġmejoras": 9068,
      "Ġfestival": 9069,
      "Ġdepartamental": 9070,
      "Ġintensidad": 9071,
      "Ġnaciones": 9072,
      "tarlo": 9073,
      "ĠcirculaciÃ³n": 9074,
      "Ġmaneras": 9075,
      "Ġvolvieron": 9076,
      "ĠBentos": 9077,
      "Ġampliar": 9078,
      "ĠSecretarÃŃa": 9079,
      "ecoba": 9080,
      "Ġescap": 9081,
      "mbla": 9082,
      "tencias": 9083,
      "ĠSp": 9084,
      "ĠOl": 9085,
      "ĠCÃ³rdoba": 9086,
      "ĠlegislaciÃ³n": 9087,
      "Ġansi": 9088,
      "Ġpotencia": 9089,
      "ilando": 9090,
      "Ġformato": 9091,
      "ĠArgent": 9092,
      "Ġelectorales": 9093,
      "Pos": 9094,
      "ĠDom": 9095,
      "Ġfundamentales": 9096,
      "ĠDarÃŃo": 9097,
      "Ġafectado": 9098,
      "ĠDirec": 9099,
      "ĠFederer": 9100,
      "Ġnegra": 9101,
      "Ġalquiler": 9102,
      "ervar": 9103,
      "Ġdispuestos": 9104,
      "Ġaprobar": 9105,
      "ave": 9106,
      "ĠpasarÃ¡": 9107,
      "Ġcaminos": 9108,
      "Ġuniversidad": 9109,
      "Ġimpresion": 9110,
      "Ġembarazo": 9111,
      "ĠNASA": 9112,
      "tativo": 9113,
      "ĠautomÃ³vil": 9114,
      "Ġquiera": 9115,
      "porque": 9116,
      "ĠMel": 9117,
      "ĠejÃ©rcito": 9118,
      "ĠSindica": 9119,
      "Ġfundamentalmente": 9120,
      "Tres": 9121,
[...]
