{
  "version": "1.0",
  "truncation": null,
  "padding": null,
  "added_tokens": [
    {
      "id": 0,
      "content": "<|endoftext|>",
      "single_word": false,
      "lstrip": false,
      "rstrip": false,
      "normalized": false,
      "special": true
    }
  ],
  "normalizer": null,
  "pre_tokenizer": {
    "type": "ByteLevel",
    "add_prefix_space": false,
    "trim_offsets": true,
    "use_regex": true
  },
  "post_processor": null,
  "decoder": {
    "type": "ByteLevel",
    "add_prefix_space": true,
    "trim_offsets": true,
    "use_regex": true
  },
  "model": {
    "type": "BPE",
    "dropout": null,
    "unk_token": null,
    "continuing_subword_prefix": null,
    "end_of_word_suffix": null,
    "fuse_unk": false,
    "byte_fallback": false,
    "ignore_merges": false,
    "vocab": {
      "<|endoftext|>": 0,
      "!": 1,
      "\"": 2,
      "#": 3,
      "$": 4,
      "%": 5,
      "&": 6,
      "'": 7,
      "(": 8,
      ")": 9,
      "*": 10,
      "+": 11,
      ",": 12,
      "-": 13,
      ".": 14,
      "/": 15,
      "0": 16,
      "1": 17,
      "2": 18,
      "3": 19,
      "4": 20,
      "5": 21,
      "6": 22,
      "7": 23,
      "8": 24,
      "9": 25,
      ":": 26,
      ";": 27,
      "<": 28,
      "=": 29,
      ">": 30,
      "?": 31,
      "@": 32,
      "A": 33,
      "B": 34,
      "C": 35,
      "D": 36,
      "E": 37,
      "F": 38,
      "G": 39,
      "H": 40,
      "I": 41,
      "J": 42,
      "K": 43,
      "L": 44,
      "M": 45,
      "N": 46,
      "O": 47,
      "P": 48,
      "Q": 49,
      "R": 50,
      "S": 51,
      "T": 52,
      "U": 53,
      "V": 54,
      "W": 55,
      "X": 56,
      "Y": 57,
      "Z": 58,
      "[": 59,
      "\\": 60,
      "]": 61,
      "^": 62,
      "_": 63,
      "`": 64,
      "a": 65,
      "b": 66,
      "c": 67,
      "d": 68,
      "e": 69,
      "f": 70,
      "g": 71,
      "h": 72,
      "i": 73,
      "j": 74,
      "k": 75,
      "l": 76,
      "m": 77,
      "n": 78,
      "o": 79,
      "p": 80,
      "q": 81,
      "r": 82,
      "s": 83,
      "t": 84,
      "u": 85,
      "v": 86,
      "w": 87,
      "x": 88,
      "y": 89,
      "z": 90,
      "{": 91,
      "|": 92,
      "}": 93,
      "~": 94,
      "¡": 95,
      "¢": 96,
      "£": 97,
      "¤": 98,
      "¥": 99,
      "¦": 100,
      "§": 101,
      "¨": 102,
      "©": 103,
      "ª": 104,
      "«": 105,
      "¬": 106,
      "®": 107,
      "¯": 108,
      "°": 109,
      "±": 110,
      "²": 111,
      "³": 112,
      "´": 113,
      "µ": 114,
      "¶": 115,
      "·": 116,
      "¸": 117,
      "¹": 118,
      "º": 119,
      "»": 120,
      "¼": 121,
      "½": 122,
      "¾": 123,
      "¿": 124,
      "À": 125,
      "Á": 126,
      "Â": 127,
      "Ã": 128,
      "Ä": 129,
      "Å": 130,
      "Æ": 131,
      "Ç": 132,
      "È": 133,
      "É": 134,
      "Ê": 135,
      "Ë": 136,
      "Ì": 137,
      "Í": 138,
      "Î": 139,
      "Ï": 140,
      "Ð": 141,
      "Ñ": 142,
      "Ò": 143,
      "Ó": 144,
      "Ô": 145,
      "Õ": 146,
      "Ö": 147,
      "×": 148,
      "Ø": 149,
      "Ù": 150,
      "Ú": 151,
      "Û": 152,
      "Ü": 153,
      "Ý": 154,
      "Þ": 155,
      "ß": 156,
      "à": 157,
      "á": 158,
      "â": 159,
      "ã": 160,
      "ä": 161,
      "å": 162,
      "æ": 163,
      "ç": 164,
      "è": 165,
      "é": 166,
      "ê": 167,
      "ë": 168,
      "ì": 169,
      "í": 170,
      "î": 171,
      "ï": 172,
      "ð": 173,
      "ñ": 174,
      "ò": 175,
      "ó": 176,
      "ô": 177,
      "õ": 178,
      "ö": 179,
      "÷": 180,
      "ø": 181,
      "ù": 182,
      "ú": 183,
      "û": 184,
      "ü": 185,
      "ý": 186,
      "þ": 187,
      "ÿ": 188,
      "Ā": 189,
      "ā": 190,
      "Ă": 191,
      "ă": 192,
      "Ą": 193,
      "ą": 194,
      "Ć": 195,
      "ć": 196,
      "Ĉ": 197,
      "ĉ": 198,
      "Ċ": 199,
      "ċ": 200,
      "Č": 201,
      "č": 202,
      "Ď": 203,
      "ď": 204,
      "Đ": 205,
      "đ": 206,
      "Ē": 207,
      "ē": 208,
      "Ĕ": 209,
      "ĕ": 210,
      "Ė": 211,
      "ė": 212,
      "Ę": 213,
      "ę": 214,
      "Ě": 215,
      "ě": 216,
      "Ĝ": 217,
      "ĝ": 218,
      "Ğ": 219,
      "ğ": 220,
      "Ġ": 221,
      "ġ": 222,
      "Ģ": 223,
      "ģ": 224,
      "Ĥ": 225,
      "ĥ": 226,
      "Ħ": 227,
      "ħ": 228,
      "Ĩ": 229,
      "ĩ": 230,
      "Ī": 231,
      "ī": 232,
      "Ĭ": 233,
      "ĭ": 234,
      "Į": 235,
      "į": 236,
      "İ": 237,
      "ı": 238,
      "Ĳ": 239,
      "ĳ": 240,
      "Ĵ": 241,
      "ĵ": 242,
      "Ķ": 243,
      "ķ": 244,
      "ĸ": 245,
      "Ĺ": 246,
      "ĺ": 247,
      "Ļ": 248,
      "ļ": 249,
      "Ľ": 250,
      "ľ": 251,
      "Ŀ": 252,
      "ŀ": 253,
      "Ł": 254,
      "ł": 255,
      "Ń": 256,
      "de": 257,
      "Ġde": 258,
      "Ġe": 259,
      "Ġl": 260,
      "os": 261,
      "Ġp": 262,
      "Ġc": 263,
      "Ġa": 264,
      "en": 265,
      "es": 266,
      "ci": 267,
      "er": 268,
      "Ġs": 269,
      "ar": 270,
      "on": 271,
      "as": 272,
      "or": 273,
      "Ã³": 274,
      "an": 275,
      "Ġla": 276,
      "ad": 277,
      "re": 278,
      "Ġm": 279,
      "qu": 280,
      "in": 281,
      "al": 282,
      "Ġen": 283,
      "Ã³n": 284,
      "un": 285,
      "ti": 286,
      "te": 287,
      "Ġel": 288,
      "que": 289,
      "Ġes": 290,
      "Ġy": 291,
      "to": 292,
      "ÃŃ": 293,
      "tr": 294,
      "aci": 295,
      "di": 296,
      "Ġque": 297,
      "Ġcon": 298,
      "Ġn": 299,
      "Ã¡": 300,
      "ta": 301,
      "om": 302,
      "Ġun": 303,
      "do": 304,
      "ro": 305,
      "Ġh": 306,
      "is": 307,
      "Ġse": 308,
      "Ġf": 309,
      "Ġlos": 310,
      "ic": 311,
      "aciÃ³n": 312,
      "Ġre": 313,
      "Ġin": 314,
      "Ġdel": 315,
      "Ã©": 316,
      "Ġo": 317,
      "Ġv": 318,
      "am": 319,
      "id": 320,
      "Ġlas": 321,
      "Ġcom": 322,
      "Ġpar": 323,
      "res": 324,
      "Ġsu": 325,
      "cu": 326,
      "le": 327,
      "ien": 328,
      "ado": 329,
      "Ġb": 330,
      "tu": 331,
      "Ġg": 332,
      "lo": 333,
      "ab": 334,
      "Ġdi": 335,
      "ones": 336,
      "Ġal": 337,
      "im": 338,
      "ter": 339,
      "ec": 340,
      "Ġpro": 341,
      "la": 342,
      "Ġpor": 343,
      "ente": 344,
      "el": 345,
      "ol": 346,
      "Ġ1": 347,
      "tos": 348,
      "Ġno": 349,
      "Ġd": 350,
      "Ġpara": 351,
      "ciÃ³n": 352,
      "ue": 353,
      "ten": 354,
      "ra": 355,
      "tar": 356,
      "se": 357,
      "Ġtr": 358,
      "ÃŃa": 359,
      "ig": 360,
      "Ġuna": 361,
      "tiv": 362,
      "Ġcu": 363,
      "Ã±": 364,
      "Ġ2": 365,
      "io": 366,
      "em": 367,
      "tes": 368,
      "il": 369,
      "00": 370,
      "iÃ³n": 371,
      "us": 372,
      "Ġ(": 373,
      "ch": 374,
      "ales": 375,
      "Ãº": 376,
      "ce": 377,
      "ici": 378,
      "da": 379,
      "Ġper": 380,
      "ir": 381,
      "idad": 382,
      "orm": 383,
      "ia": 384,
      "ados": 385,
      "Ġest": 386,
      "bre": 387,
      "Ġme": 388,
      "Â¿": 389,
      "ada": 390,
      "ur": 391,
      "Ġdes": 392,
      "iz": 393,
      "Ġex": 394,
      "Ġlo": 395,
      "Ġso": 396,
      "cia": 397,
      "por": 398,
      "Ġha": 399,
      "tor": 400,
      "pe": 401,
      "Ã¡s": 402,
      "tan": 403,
      "ier": 404,
      "..": 405,
      "no": 406,
      "Ġj": 407,
      "Ġpr": 408,
      "Ġto": 409,
      "Ġac": 410,
      "ca": 411,
      "per": 412,
      "ib": 413,
      "go": 414,
      "Ġap": 415,
      "des": 416,
      "aciones": 417,
      "Ġres": 418,
      "ul": 419,
      "den": 420,
      "Ã¡n": 421,
      "ues": 422,
      "co": 423,
      "tra": 424,
      "tam": 425,
      "Ġan": 426,
      "Ġti": 427,
      "jo": 428,
      "fic": 429,
      "Ġr": 430,
      "lic": 431,
      "Ġar": 432,
      "Ġser": 433,
      "Ġcomo": 434,
      "tal": 435,
      "iv": 436,
      "ida": 437,
      "iento": 438,
      "uc": 439,
      "Ġpres": 440,
      "Ġas": 441,
      "tas": 442,
      "mo": 443,
      "Ġesta": 444,
      "Ġsi": 445,
      "ando": 446,
      "Ġpa": 447,
      "con": 448,
      "los": 449,
      "Ġcons": 450,
      "ma": 451,
      "Ġle": 452,
      "Ġpre": 453,
      "gr": 454,
      "ento": 455,
      "Ġpo": 456,
      "Ġma": 457,
      "po": 458,
      "um": 459,
      "tÃŃ": 460,
      "Ġinter": 461,
      "Ġmu": 462,
      "Ġte": 463,
      "dos": 464,
      "bi": 465,
      "tro": 466,
      "form": 467,
      "dad": 468,
      "Ġqu": 469,
      "ĠmÃ¡s": 470,
      "mp": 471,
      "br": 472,
      "Ġsobre": 473,
      "Ġdis": 474,
      "Ġmi": 475,
      "Ġim": 476,
      "par": 477,
      "onal": 478,
      "Ġca": 479,
      "Ġor": 480,
      "Ġsus": 481,
      "der": 482,
      "aba": 483,
      "Ġpue": 484,
      "Ġmedi": 485,
      "gu": 486,
      "ios": 487,
      "Ã©n": 488,
      "Â¡": 489,
      "isiÃ³n": 490,
      "Ġgr": 491,
      "âĢ": 492,
      "adas": 493,
      "cl": 494,
      "Ġreg": 495,
      "Ġob": 496,
      "ble": 497,
      "je": 498,
      "pa": 499,
      "Ġdeb": 500,
      "das": 501,
      "ciones": 502,
      "tre": 503,
      "Ġ3": 504,
      "ores": 505,
      "ven": 506,
      "si": 507,
      "ante": 508,
      "uro": 509,
      "min": 510,
      "cer": 511,
      "lam": 512,
      "me": 513,
      "ÃŃs": 514,
      "Ã©s": 515,
      "pon": 516,
      "Ġco": 517,
      "Ġ19": 518,
      "ero": 519,
      "tin": 520,
      "tado": 521,
      "Ġ200": 522,
      "fer": 523,
      "mente": 524,
      "ica": 525,
      "las": 526,
      "Ġten": 527,
      "culo": 528,
      "encia": 529,
      "Ġfin": 530,
      "Ġeuro": 531,
      "Ġ,": 532,
      "ces": 533,
      "Ġhab": 534,
      "era": 535,
      "...": 536,
      "ri": 537,
      "Ġt": 538,
      "duc": 539,
      "amente": 540,
      "pues": 541,
      "Ġmo": 542,
      "Ġi": 543,
      "cial": 544,
      "Ġcar": 545,
      "tros": 546,
      "Ãºn": 547,
      "gun": 548,
      "Ġcas": 549,
      "ver": 550,
      "Ġman": 551,
      "Ġ.": 552,
      "pos": 553,
      "les": 554,
      "tÃŃculo": 555,
      "Ġmar": 556,
      "ac": 557,
      "fici": 558,
      "ido": 559,
      "Ġinform": 560,
      "lar": 561,
      "lan": 562,
      "gan": 563,
      "rec": 564,
      "Ġtraba": 565,
      "Ġtra": 566,
      "ie": 567,
      "tiva": 568,
      "Ġcor": 569,
      "Ġad": 570,
      "za": 571,
      "ĠaÃ±": 572,
      "Ġeste": 573,
      "taciÃ³n": 574,
      "Ġconse": 575,
      "Ġins": 576,
      "gar": 577,
      "Ġcomun": 578,
      "idades": 579,
      "Ġparti": 580,
      "Ġ\"": 581,
      "Ġgen": 582,
      "dr": 583,
      "eces": 584,
      "Ġentre": 585,
      "ĠcomisiÃ³n": 586,
      "igu": 587,
      "tivo": 588,
      "entes": 589,
      "Ġpers": 590,
      "Ġform": 591,
      "ora": 592,
      "Ġcomp": 593,
      "tic": 594,
      "ene": 595,
      "blic": 596,
      "Ġam": 597,
      "Ġau": 598,
      "vi": 599,
      "cho": 600,
      "esti": 601,
      "ga": 602,
      "uer": 603,
      "fec": 604,
      "mi": 605,
      "tur": 606,
      "Ġeurope": 607,
      "ico": 608,
      "ens": 609,
      "pec": 610,
      "Ġgener": 611,
      "cion": 612,
      "Ġve": 613,
      "Ġsin": 614,
      "Ġpol": 615,
      "cip": 616,
      "Ġcre": 617,
      "Ġemp": 618,
      "vo": 619,
      "Ġdeci": 620,
      "amos": 621,
      "tica": 622,
      "Ġter": 623,
      "tambi": 624,
      "tambiÃ©n": 625,
      "it": 626,
      "Ġmis": 627,
      "Ġsal": 628,
      "titu": 629,
      "ias": 630,
      "ba": 631,
      "Ġcam": 632,
      "man": 633,
      "ĠestÃ¡": 634,
      "iste": 635,
      "Ġpos": 636,
      "pres": 637,
      "ario": 638,
      "Ġdo": 639,
      "aliz": 640,
      "Ġver": 641,
      "mos": 642,
      "Ġ4": 643,
      "mas": 644,
      "cre": 645,
      "enta": 646,
      "tras": 647,
      "Ġson": 648,
      "ĠpaÃŃs": 649,
      "lamento": 650,
      "ech": 651,
      "Ġacu": 652,
      "Ġdere": 653,
      "ÃŃas": 654,
      "Ġ|": 655,
      "Ġneces": 656,
      "ans": 657,
      "com": 658,
      "emos": 659,
      "itar": 660,
      "Ġdirec": 661,
      "yo": 662,
      "Ġprim": 663,
      "Ġmiem": 664,
      "Ġlu": 665,
      "Ġu": 666,
      "ona": 667,
      "Ġimpor": 668,
      "Ġus": 669,
      "Ġconsejo": 670,
      "ve": 671,
      "Ġnue": 672,
      "Ġsol": 673,
      "ĠartÃŃculo": 674,
      "Ġ5": 675,
      "Ġfun": 676,
      "car": 677,
      "Ġaplic": 678,
      "miento": 679,
      "Ġpas": 680,
      "rol": 681,
      "acional": 682,
      "ya": 683,
      "til": 684,
      "ĠtambiÃ©n": 685,
      "cias": 686,
      "Ġgeneral": 687,
      "Ġdesar": 688,
      "Ġestados": 689,
      "Ġlle": 690,
      ").": 691,
      "Ġproduc": 692,
      "Ġtu": 693,
      "Ġmen": 694,
      "jer": 695,
      "Ġbien": 696,
      "va": 697,
      "vis": 698,
      "Ġfr": 699,
      "iden": 700,
      "chos": 701,
      "Ġcontra": 702,
      "tivos": 703,
      "bier": 704,
      "ĠâĢ": 705,
      "Ġtan": 706,
      "Ġestable": 707,
      "Ġpe": 708,
      "iente": 709,
      "200": 710,
      "01": 711,
      "men": 712,
      "Ãºblic": 713,
      "iones": 714,
      "ior": 715,
      "Ġdesarrol": 716,
      "ÃŃn": 717,
      "Ġespe": 718,
      "Ġacuer": 719,
      "Ġseg": 720,
      "Ġparte": 721,
      "Ġpero": 722,
      "so": 723,
      "quÃ©": 724,
      "zo": 725,
      "Ġmun": 726,
      "),": 727,
      "ador": 728,
      "Ġintern": 729,
      "Ġay": 730,
      "ina": 731,
      "uciÃ³n": 732,
      "gram": 733,
      "ĠpolÃŃ": 734,
      "quier": 735,
      "arÃ¡": 736,
      "Ġtodo": 737,
      "tura": 738,
      "Ġem": 739,
      "Ġfue": 740,
      "du": 741,
      "laciÃ³n": 742,
      "Ġcen": 743,
      "Ġserv": 744,
      "ex": 745,
      "izaciÃ³n": 746,
      "Ġch": 747,
      "idos": 748,
      "cur": 749,
      "cen": 750,
      "siÃ³n": 751,
      "Ġtrans": 752,
      "Ġni": 753,
      "Ġcr": 754,
      "19": 755,
      "Ġpuede": 756,
      "Ġhan": 757,
      "Ġtodos": 758,
      "idas": 759,
      "Ġk": 760,
      "ĠÂ": 761,
      "Ġdos": 762,
      "Ġincl": 763,
      "bros": 764,
      "onales": 765,
      "Ġcal": 766,
      "tante": 767,
      "Ġprogram": 768,
      "unto": 769,
      "Ġcontr": 770,
      "Ġ-": 771,
      "Ġorgan": 772,
      "oci": 773,
      "Ġgran": 774,
      "Ġab": 775,
      "Ġba": 776,
      "ana": 777,
      "Ġ199": 778,
      "Ġtrabajo": 779,
      "ĠÂ¿": 780,
      "Ã©r": 781,
      "embre": 782,
      "ĠaÃ±os": 783,
      "Ġmiembros": 784,
      "Ġestado": 785,
      "asta": 786,
      "ud": 787,
      "ÃŃo": 788,
      "ĠÃ¡": 789,
      "uen": 790,
      "able": 791,
      "Ġapar": 792,
      "pu": 793,
      "cep": 794,
      "Ġgo": 795,
      "Ġ6": 796,
      "cha": 797,
      "minis": 798,
      "ĠseÃ±": 799,
      "arse": 800,
      "Ġpu": 801,
      "emp": 802,
      "Ġcual": 803,
      "Ġcos": 804,
      "can": 805,
      "Ġplan": 806,
      "Ġservici": 807,
      "ja": 808,
      "Ġecon": 809,
      "adores": 810,
      "iciÃ³n": 811,
      "Ġcuando": 812,
      "Ġsigu": 813,
      "mpl": 814,
      "almente": 815,
      "Ġsan": 816,
      "av": 817,
      "Ġne": 818,
      "cio": 819,
      "Ġcap": 820,
      "Ġacuerdo": 821,
      "ific": 822,
      "tados": 823,
      "ĠquÃ©": 824,
      "fr": 825,
      "Ġhacer": 826,
      "arios": 827,
      "Ġbas": 828,
      "ha": 829,
      "Ã±a": 830,
      "ÃŃan": 831,
      "Ġefec": 832,
      "anos": 833,
      "Ġnues": 834,
      "Ġnos": 835,
      "yec": 836,
      "ilidad": 837,
      "onas": 838,
      "Ġempres": 839,
      "Ġesto": 840,
      "anci": 841,
      "ĠasÃŃ": 842,
      "Ġval": 843,
      "Ġmej": 844,
      "tir": 845,
      "ĠpaÃŃses": 846,
      "ticas": 847,
      "Ġmer": 848,
      "Ġprin": 849,
      "Ġmuy": 850,
      "na": 851,
      "Ġya": 852,
      "Ġdesarrollo": 853,
      "gen": 854,
      "Ġindi": 855,
      "Ġci": 856,
      "Ġsiste": 857,
      "amiento": 858,
      "Ġda": 859,
      "Ġpodr": 860,
      "Ġdur": 861,
      "Ġautor": 862,
      "icos": 863,
      "ĠÃ©": 864,
      "cciÃ³n": 865,
      "endo": 866,
      "Ġmil": 867,
      "Ġprincip": 868,
      "Ġhum": 869,
      "tivas": 870,
      "mÃ¡s": 871,
      "qui": 872,
      "truc": 873,
      "quÃŃ": 874,
      "tific": 875,
      "Ã³m": 876,
      "Ġtrabaj": 877,
      "Ġcan": 878,
      "Ã±o": 879,
      "Ġ9": 880,
      "Ġmay": 881,
      "Ġhay": 882,
      "iendo": 883,
      "entar": 884,
      "Ġsub": 885,
      "Ġfu": 886,
      "Ġpla": 887,
      "ent": 888,
      "ista": 889,
      "Ġmon": 890,
      "Ġotros": 891,
      "Ġrela": 892,
      "bar": 893,
      "Ġobje": 894,
      "ible": 895,
      "Ġvez": 896,
      "Ġ7": 897,
      "gos": 898,
      "Ã³lo": 899,
      "ismo": 900,
      "entos": 901,
      "Ġtiene": 902,
      "ĠinformaciÃ³n": 903,
      "ĠpÃºblic": 904,
      "Ġproce": 905,
      "cr": 906,
      "nos": 907,
      "Ġactiv": 908,
      "Ġreglamento": 909,
      "Ġsuper": 910,
      "Ġtiem": 911,
      "Ġhasta": 912,
      "ord": 913,
      "ano": 914,
      "Ġprop": 915,
      "erv": 916,
      "Ġadminis": 917,
      "Ġz": 918,
      "antes": 919,
      "ino": 920,
      "Ġcada": 921,
      "Ġ8": 922,
      "Ġconsi": 923,
      "Ġra": 924,
      "Ġcaso": 925,
      "Ġgru": 926,
      "Ġsig": 927,
      "pero": 928,
      "tico": 929,
      "Ġsegur": 930,
      "Ġfinanci": 931,
      "ombre": 932,
      "oy": 933,
      "Ġalgun": 934,
      "aron": 935,
      "Ġrealiz": 936,
      "Ġpresiden": 937,
      "ren": 938,
      "uy": 939,
      "Ġproyec": 940,
      "Ġeuropea": 941,
      "Ġestu": 942,
      "lig": 943,
      "Ġapro": 944,
      "Ġw": 945,
      "Ġmin": 946,
      "Ġden": 947,
      "Ġce": 948,
      "Ġdesde": 949,
      "ing": 950,
      "uda": 951,
      "Ġref": 952,
      "Ġnorm": 953,
      "Ġtiempo": 954,
      "ientos": 955,
      "Ġcer": 956,
      "Ġactu": 957,
      "Ġah": 958,
      "Ġsab": 959,
      "Ġdeber": 960,
      "Ġvi": 961,
      "ctor": 962,
      "Ġmayor": 963,
      "Ġlugar": 964,
      "Ġfuer": 965,
      "tencia": 966,
      "ber": 967,
      "ÂŃ": 968,
      "Ġforma": 969,
      "ĠeconÃ³m": 970,
      "ĠaÃ±o": 971,
      "icas": 972,
      "Ġmater": 973,
      "Â»": 974,
      "cn": 975,
      "cal": 976,
      "Ġutil": 977,
      "Ġespecial": 978,
      "Ġna": 979,
      "Ġado": 980,
      "Ġgobier": 981,
      "fin": 982,
      "Ġderechos": 983,
      "sÃŃ": 984,
      "pro": 985,
      "Ġley": 986,
      "oluciÃ³n": 987,
      "puesto": 988,
      "fes": 989,
      "zar": 990,
      "dific": 991,
      "Ġseguridad": 992,
      "Ġmejor": 993,
      "Ġconven": 994,
      "tÃ³": 995,
      "Ġofici": 996,
      "Ġdurante": 997,
      "cado": 998,
      "Ġquier": 999,
      "eros": 1000,
      "Ġeur": 1001,
      "cas": 1002,
      "Ġro": 1003,
      "imiento": 1004,
      "Ġinv": 1005,
      "Ġ10": 1006,
      "Ġven": 1007,
      "esta": 1008,
      "Ãºl": 1009,
      "Ġpresente": 1010,
      "ial": 1011,
      "artÃŃculo": 1012,
      "Ġlib": 1013,
      "Ġju": 1014,
      "he": 1015,
      "tamente": 1016,
      "ĠÂ«": 1017,
      "ciales": 1018,
      "para": 1019,
      "ĠaquÃŃ": 1020,
      "reg": 1021,
      "Ġmedidas": 1022,
      "Ã¡c": 1023,
      "Ġadop": 1024,
      "Ġvol": 1025,
      "xim": 1026,
      "pi": 1027,
      "mar": 1028,
      "Ġsegu": 1029,
      "Ġcol": 1030,
      "Ġrespec": 1031,
      "ĠdÃŃa": 1032,
      "Ġdebe": 1033,
      "Ġrepres": 1034,
      "ceso": 1035,
      "Ġban": 1036,
      "Ġ)": 1037,
      "Ġeso": 1038,
      "Ġreci": 1039,
      "Ġpersonas": 1040,
      "Ġcab": 1041,
      "Ġdon": 1042,
      "Ġmismo": 1043,
      "Ġsen": 1044,
      "Ġade": 1045,
      "acionales": 1046,
      "Ġleg": 1047,
      "termin": 1048,
      "Ġhech": 1049,
      "Ġyo": 1050,
      "ĠestÃ¡n": 1051,
      "sos": 1052,
      "Ġtien": 1053,
      "Ġresul": 1054,
      "Ġir": 1055,
      "Ġmes": 1056,
      "Ġera": 1057,
      "Ãºlti": 1058,
      "Ġsitu": 1059,
      "Ġtanto": 1060,
      "pen": 1061,
      "jos": 1062,
      "val": 1063,
      "Ġobs": 1064,
      "ferencia": 1065,
      "cular": 1066,
      "ton": 1067,
      "Ġcomer": 1068,
      "Ġprograma": 1069,
      "Ãºm": 1070,
      "dades": 1071,
      "Ġcomunidad": 1072,
      "cri": 1073,
      "ientes": 1074,
      "cos": 1075,
      "Ġpes": 1076,
      "est": 1077,
      "Ġderecho": 1078,
      "teg": 1079,
      "iÃ³": 1080,
      "estiÃ³n": 1081,
      "Ġservicios": 1082,
      "Ġsistema": 1083,
      "Ġmedio": 1084,
      "Ġmujer": 1085,
      "Ã±os": 1086,
      "Ġconsider": 1087,
      "ĠuniÃ³n": 1088,
      "ĠaplicaciÃ³n": 1089,
      "Ġinternacional": 1090,
      "Ġcondi": 1091,
      "ĠpolÃŃtica": 1092,
      "ivel": 1093,
      "puesta": 1094,
      "Ġpues": 1095,
      "Ġconf": 1096,
      "aran": 1097,
      "su": 1098,
      "Ġli": 1099,
      "gua": 1100,
      "Ġ0": 1101,
      "acia": 1102,
      "Ġestableci": 1103,
      "Ġfi": 1104,
      "gaciÃ³n": 1105,
      "Ġtar": 1106,
      "Ġgobierno": 1107,
      "Ġsolici": 1108,
      "Ġdetermin": 1109,
      "puÃ©s": 1110,
      "Ġinforme": 1111,
      "Ġesp": 1112,
      "Ġbuen": 1113,
      "itÃ©": 1114,
      "Ġgu": 1115,
      "Ġeuros": 1116,
      "tantes": 1117,
      "Ġvida": 1118,
      "Ġllam": 1119,
      "cios": 1120,
      "ustr": 1121,
      "Ġsido": 1122,
      "udad": 1123,
      "Ġamb": 1124,
      "Ġcompe": 1125,
      "ĠsÃ³lo": 1126,
      "Ġinici": 1127,
      "ĠperÃŃo": 1128,
      "199": 1129,
      "Ġpl": 1130,
      "Ġcuenta": 1131,
      "Ġexp": 1132,
      "clar": 1133,
      "ĠÃºlti": 1134,
      "Ġhi": 1135,
      "Ġpueden": 1136,
      "Ġag": 1137,
      "Ġnivel": 1138,
      "duci": 1139,
      "Ġher": 1140,
      "Ġestudi": 1141,
      "Ġmal": 1142,
      "Ġuno": 1143,
      "Ġpresidente": 1144,
      "gÃŃa": 1145,
      "Ã³mo": 1146,
      "Ġjun": 1147,
      "Ġ12": 1148,
      "respon": 1149,
      "Ġpon": 1150,
      "Ġoper": 1151,
      "Ġsocial": 1152,
      "avor": 1153,
      "Ġeuropeo": 1154,
      "10": 1155,
      "000": 1156,
      "Ġciudad": 1157,
      "dido": 1158,
      "ban": 1159,
      "Ġfe": 1160,
      "Ġotras": 1161,
      "ito": 1162,
      "Ã¡r": 1163,
      "Ġapartado": 1164,
      "Ġestar": 1165,
      "Ġinf": 1166,
      "Ġsea": 1167,
      "ĠnÃºm": 1168,
      "Ġrel": 1169,
      "Ġmodific": 1170,
      "Ġbar": 1171,
      "tad": 1172,
      "Ġutiliz": 1173,
      "Ġsector": 1174,
      "Ġproble": 1175,
      "ĠcomitÃ©": 1176,
      "Ġgrupo": 1177,
      "ome": 1178,
      "Ġdispos": 1179,
      "Ġdese": 1180,
      "Ġrecur": 1181,
      "Ġof": 1182,
      "Ġtodas": 1183,
      "Ġantes": 1184,
      "Ġcomple": 1185,
      "una": 1186,
      "Ġcl": 1187,
      "Ġese": 1188,
      "ea": 1189,
      "Ġsa": 1190,
      "Ġ15": 1191,
      "Ġnaciones": 1192,
      "Ġnacional": 1193,
      "iciones": 1194,
      "bo": 1195,
      "Ġ201": 1196,
      "Ġrespon": 1197,
      "Ġbr": 1198,
      "Ġdecir": 1199,
      "âĢĿ": 1200,
      "ĠmÃ©": 1201,
      "esto": 1202,
      "ĠÃ©l": 1203,
      "aria": 1204,
      "Ġcontin": 1205,
      "inaciÃ³n": 1206,
      "tido": 1207,
      "Ġviv": 1208,
      "Ġhor": 1209,
      "Ġvis": 1210,
      "Ġ18": 1211,
      "Ġcontrol": 1212,
      "Ġfavor": 1213,
      "ĠseÃ±or": 1214,
      "tud": 1215,
      "Ġcul": 1216,
      "Ġej": 1217,
      "uel": 1218,
      "Ġis": 1219,
      "ĠdecisiÃ³n": 1220,
      "oper": 1221,
      "ita": 1222,
      "Ġind": 1223,
      "Ġalgo": 1224,
      "ted": 1225,
      "ĠperÃŃodo": 1226,
      "Ġinstitu": 1227,
      "Ġmundo": 1228,
      "Ġpersonal": 1229,
      "tores": 1230,
      "Ġjus": 1231,
      "tamos": 1232,
      "Ġtoda": 1233,
      "Ġcorrespon": 1234,
      "Ã¡l": 1235,
      "Ġprocedi": 1236,
      "Ġtipo": 1237,
      "Ġinvesti": 1238,
      "cel": 1239,
      "Ġpermi": 1240,
      "arias": 1241,
      "Ġdici": 1242,
      "Ġllev": 1243,
      "Ġproductos": 1244,
      "Ġur": 1245,
      "Ġunidas": 1246,
      "Ġparticip": 1247,
      "Ġhecho": 1248,
      "Ġmenos": 1249,
      "Ġconstitu": 1250,
      "ase": 1251,
      "Ġcualquier": 1252,
      "Ġotra": 1253,
      "cul": 1254,
      "imen": 1255,
      "Ġtal": 1256,
      "ional": 1257,
      "ticos": 1258,
      "ables": 1259,
      "fo": 1260,
      "Ġdonde": 1261,
      "Ġestos": 1262,
      "tis": 1263,
      "Ġale": 1264,
      "Ġotro": 1265,
      "ĠhabÃŃa": 1266,
      "12": 1267,
      "Ġva": 1268,
      "Ġcompr": 1269,
      "siones": 1270,
      "pr": 1271,
      "Ġorden": 1272,
      "exo": 1273,
      "et": 1274,
      "Ġgaran": 1275,
      "Ġactividades": 1276,
      "omento": 1277,
      "dia": 1278,
      "encias": 1279,
      "empre": 1280,
      "sa": 1281,
      "Ġparticular": 1282,
      "Ġinclu": 1283,
      "Ġsegun": 1284,
      "Ġconform": 1285,
      "Ġagr": 1286,
      "ĠtÃ©": 1287,
      "ĠâĢĶ": 1288,
      "Ġinte": 1289,
      "este": 1290,
      "Ġdocu": 1291,
      "alidad": 1292,
      "toria": 1293,
      "culos": 1294,
      "porte": 1295,
      "Ġelec": 1296,
      "\".": 1297,
      "Ġoblig": 1298,
      "cor": 1299,
      "Ġtres": 1300,
      "tamiento": 1301,
      "ĠresoluciÃ³n": 1302,
      "Ġcentr": 1303,
      "li": 1304,
      "tario": 1305,
      "Ġjur": 1306,
      "Ġprofes": 1307,
      "Ġenti": 1308,
      "Ġentr": 1309,
      "pre": 1310,
      "Ġahora": 1311,
      "ĠdespuÃ©s": 1312,
      "abor": 1313,
      "Ġtotal": 1314,
      "Ġ13": 1315,
      "Ġ11": 1316,
      "che": 1317,
      "Ġvig": 1318,
      "ies": 1319,
      "contr": 1320,
      "omo": 1321,
      "Ġdatos": 1322,
      "Ġsecre": 1323,
      "Ġporque": 1324,
      "Ġcondiciones": 1325,
      "paÃ±": 1326,
      "Ġeje": 1327,
      "zas": 1328,
      "Ġhace": 1329,
      "Ġcooper": 1330,
      "xto": 1331,
      "Ġfal": 1332,
      "Ġembar": 1333,
      "Ġproyecto": 1334,
      "Ġles": 1335,
      "Ġpunto": 1336,
      "Ġpublic": 1337,
      "gas": 1338,
      "Ġnuev": 1339,
      "Ġrecon": 1340,
      "Ġsim": 1341,
      "seÃ±": 1342,
      "Ġer": 1343,
      "Ġhe": 1344,
      "Ġmanten": 1345,
      "Ġorganiz": 1346,
      "Ġprimer": 1347,
      "ĠÃºn": 1348,
      "untos": 1349,
      "ual": 1350,
      "Ġfran": 1351,
      "ena": 1352,
      "Ġprote": 1353,
      "ĠtÃ©cn": 1354,
      "Ġvo": 1355,
      "ular": 1356,
      "Ġfon": 1357,
      "Ġ20": 1358,
      "Ġrespecto": 1359,
      "Ġoc": 1360,
      "Ġpal": 1361,
      "Ġdiciembre": 1362,
      "Ġnuevo": 1363,
      "acias": 1364,
      "bro": 1365,
      "Ġemple": 1366,
      "Ġgas": 1367,
      "Ġmercado": 1368,
      "Ã³r": 1369,
      "ĠdÃŃas": 1370,
      "Ġsiguiente": 1371,
      "van": 1372,
      "arÃ¡n": 1373,
      "ĠserÃ¡": 1374,
      "Ġpresu": 1375,
      "Ġestas": 1376,
      "Ġdeclar": 1377,
      "ho": 1378,
      "Ġadministr": 1379,
      "Ġcomunic": 1380,
      "gres": 1381,
      "amil": 1382,
      "uso": 1383,
      "Ġsr": 1384,
      "port": 1385,
      "Ġparlamento": 1386,
      "Ġrepresen": 1387,
      "cam": 1388,
      "Ġejecu": 1389,
      "Ġ14": 1390,
      "Ġhumanos": 1391,
      "Ġesper": 1392,
      "Ġprimera": 1393,
      "ece": 1394,
      "otros": 1395,
      "Ġempresa": 1396,
      "Ġdefin": 1397,
      "Ġop": 1398,
      "Ġdispon": 1399,
      "ĠnÃºmero": 1400,
      "Ġayuda": 1401,
      "Ġexper": 1402,
      "Ġtener": 1403,
      "Ġanti": 1404,
      "Ġexis": 1405,
      "Ġses": 1406,
      "dan": 1407,
      "Ġbo": 1408,
      "Ġ30": 1409,
      "ĠâĢľ": 1410,
      "adre": 1411,
      "Ġmill": 1412,
      "uaciÃ³n": 1413,
      "ah": 1414,
      "ge": 1415,
      "\",": 1416,
      "ĠmÃ¡": 1417,
      "Ġdifer": 1418,
      "Ġfuncion": 1419,
      "terior": 1420,
      "torio": 1421,
      "Ġdirectiva": 1422,
      "Ġmomento": 1423,
      "Ġplazo": 1424,
      "Ġesa": 1425,
      "sab": 1426,
      "ibu": 1427,
      "Ġ17": 1428,
      "ĠrelaciÃ³n": 1429,
      "cie": 1430,
      "mientos": 1431,
      "Ġ198": 1432,
      "tancia": 1433,
      "cup": 1434,
      "Ġencu": 1435,
      "Ġcatal": 1436,
      "bio": 1437,
      "Ġsiempre": 1438,
      "Ġequi": 1439,
      "Ġante": 1440,
      "Ġcumpl": 1441,
      "Ġinten": 1442,
      "ign": 1443,
      "Ġlab": 1444,
      "Ġtienen": 1445,
      "Ã³g": 1446,
      "Ġdej": 1447,
      "Ġconten": 1448,
      "Ġfamil": 1449,
      "Ġpartes": 1450,
      "tural": 1451,
      "Ġreun": 1452,
      "Ġrep": 1453,
      "teri": 1454,
      "Ġterri": 1455,
      "Ġfor": 1456,
      "11": 1457,
      "Ġejemp": 1458,
      "Ġcomunitar": 1459,
      "Ġnombre": 1460,
      "Ġapo": 1461,
      "Ġdar": 1462,
      "Ġindustr": 1463,
      "cil": 1464,
      "uego": 1465,
      "omb": 1466,
      "Ġigu": 1467,
      "Ġtras": 1468,
      "Ġinteres": 1469,
      "Ġaum": 1470,
      "iver": 1471,
      "chas": 1472,
      "diente": 1473,
      "anza": 1474,
      "sin": 1475,
      "Ġmucho": 1476,
      "ĠsituaciÃ³n": 1477,
      "Ġdestin": 1478,
      "ne": 1479,
      "Ġmanera": 1480,
      "ÃŃfic": 1481,
      "ĠsÃŃ": 1482,
      "Ġmediante": 1483,
      "Ġ:": 1484,
      "Ġencontr": 1485,
      "cimiento": 1486,
      "Ġbase": 1487,
      "abr": 1488,
      "th": 1489,
      "Ġnada": 1490,
      "Ġ16": 1491,
      "gado": 1492,
      "dis": 1493,
      "quel": 1494,
      "Ġimportante": 1495,
      "Ġpob": 1496,
      "ade": 1497,
      "visiÃ³n": 1498,
      "Ġaprob": 1499,
      "Ġdios": 1500,
      "Ġhis": 1501,
      "cee": 1502,
      "Ġaten": 1503,
      "enefici": 1504,
      "Ġlim": 1505,
      "Ġimp": 1506,
      "Ġellos": 1507,
      "Ġgra": 1508,
      "Ġfund": 1509,
      "Ġabr": 1510,
      "Ġprevis": 1511,
      "âĢĶ": 1512,
      "col": 1513,
      "lu": 1514,
      "ensa": 1515,
      "Ġconoci": 1516,
      "Ġdentro": 1517,
      "Ġampl": 1518,
      "Ġx": 1519,
      "Ġmarco": 1520,
      "Ġempresas": 1521,
      "Ġlegis": 1522,
      "Ġmillones": 1523,
      "eron": 1524,
      "az": 1525,
      "unque": 1526,
      "Ġta": 1527,
      "Ã©g": 1528,
      "Ġ[": 1529,
      "Ġescu": 1530,
      "Ġorig": 1531,
      "Ġanexo": 1532,
      "ĠprotecciÃ³n": 1533,
      "Ġnueva": 1534,
      "Ġdeben": 1535,
      "Ġjul": 1536,
      "Ġlar": 1537,
      "tando": 1538,
      "quis": 1539,
      "acion": 1540,
      "Ġcapaci": 1541,
      "Ġmuer": 1542,
      "Ġliber": 1543,
      "cional": 1544,
      "Ġella": 1545,
      "Ġembargo": 1546,
      "Ġhu": 1547,
      "mento": 1548,
      "venciÃ³n": 1549,
      "ĠcooperaciÃ³n": 1550,
      "Ġcier": 1551,
      "Ġvalor": 1552,
      "omin": 1553,
      "ĠcomÃºn": 1554,
      "ari": 1555,
      "Ġnormas": 1556,
      "Ġfech": 1557,
      "Ġcele": 1558,
      "Ġespec": 1559,
      "end": 1560,
      "Ġhaber": 1561,
      "como": 1562,
      "Ġsiguientes": 1563,
      "ĠÃ©s": 1564,
      "Ġcasa": 1565,
      "Ġpresen": 1566,
      "Ġposible": 1567,
      "Â°": 1568,
      "Ġexam": 1569,
      "igo": 1570,
      "Ġraz": 1571,
      "gi": 1572,
      "Ġusted": 1573,
      "Ãºs": 1574,
      "Ġeval": 1575,
      "Ġintegr": 1576,
      "Ġho": 1577,
      "istas": 1578,
      "mbi": 1579,
      "ares": 1580,
      "Ġservicio": 1581,
      "Ġdir": 1582,
      "Ġafec": 1583,
      "Ġpi": 1584,
      "Ġadministra": 1585,
      "Ġtem": 1586,
      "tulo": 1587,
      "ĠprÃ¡c": 1588,
      "Ġaf": 1589,
      "Ãºblica": 1590,
      "Ġtercer": 1591,
      "tran": 1592,
      "Ġproceso": 1593,
      "buen": 1594,
      "Ġpoder": 1595,
      "Ġrecursos": 1596,
      "20": 1597,
      "Ġtratado": 1598,
      "Ġnacionales": 1599,
      "taria": 1600,
      "lec": 1601,
      "ĠinvestigaciÃ³n": 1602,
      "Ġpeque": 1603,
      "dir": 1604,
      "Ġjulio": 1605,
      "ĠsÃ©": 1606,
      "dencia": 1607,
      "Ġencuen": 1608,
      "ara": 1609,
      "Ġaquel": 1610,
      "Ġdistin": 1611,
      "mon": 1612,
      "lor": 1613,
      "Ġtrib": 1614,
      "Ġdin": 1615,
      "Ġpel": 1616,
      "if": 1617,
      "ĠsegÃºn": 1618,
      "__": 1619,
      "Ġuso": 1620,
      "Ġconformidad": 1621,
      "Ġinde": 1622,
      "Ġmateria": 1623,
      "Ġ25": 1624,
      "Ġpersona": 1625,
      "ves": 1626,
      "itos": 1627,
      "Ġasis": 1628,
      "be": 1629,
      "ine": 1630,
      "ap": 1631,
      "ion": 1632,
      "cto": 1633,
      "Ġmundi": 1634,
      "Ġejer": 1635,
      "Ġpropuesta": 1636,
      "dera": 1637,
      "Ġregis": 1638,
      "ros": 1639,
      "Ġquien": 1640,
      "dico": 1641,
      "dida": 1642,
      "Ġexpres": 1643,
      "Ġuniver": 1644,
      "Ġzona": 1645,
      "Ġgus": 1646,
      "dio": 1647,
      "Ġmiembro": 1648,
      "Ġejemplo": 1649,
      "Ġii": 1650,
      "Ġapoyo": 1651,
      "Ġinver": 1652,
      "ju": 1653,
      "ivo": 1654,
      "Ġcir": 1655,
      "ĠÃ¡mbi": 1656,
      "tÃ¡n": 1657,
      "Ġsalud": 1658,
      "ag": 1659,
      "Ġeuropa": 1660,
      "Ġdisposiciones": 1661,
      "Ġlabor": 1662,
      "Ġprogramas": 1663,
      "Ġmujeres": 1664,
      "ibilidad": 1665,
      "Ġcentro": 1666,
      "Ġcelebr": 1667,
      "diÃ³": 1668,
      "seg": 1669,
      "Ġpregun": 1670,
      "Ġextra": 1671,
      "bido": 1672,
      "Ġcuan": 1673,
      "Ġrecom": 1674,
      "Ġminis": 1675,
      "zos": 1676,
      "Ġdiver": 1677,
      "ĠrepÃºblica": 1678,
      "Ġ%": 1679,
      "ĠgestiÃ³n": 1680,
      "ĠjurÃŃ": 1681,
      "Ġalgunos": 1682,
      "Ġnego": 1683,
      "Ġfecha": 1684,
      "Ġigual": 1685,
      "Ġbenefici": 1686,
      "cuando": 1687,
      "Ġprocedimiento": 1688,
      "Ġcaus": 1689,
      "aban": 1690,
      "Ġclar": 1691,
      "Ġtendr": 1692,
      "Ġren": 1693,
      "unca": 1694,
      "Ġhoras": 1695,
      "16": 1696,
      "don": 1697,
      "Ġfinal": 1698,
      "Ġestaba": 1699,
      "Ġhombre": 1700,
      "Ġcur": 1701,
      "ducir": 1702,
      "isis": 1703,
      "ativa": 1704,
      "ĠorganizaciÃ³n": 1705,
      "imo": 1706,
      "Ġasoci": 1707,
      "Ġtribun": 1708,
      "dar": 1709,
      "Ġmone": 1710,
      "Ġpens": 1711,
      "Ġjunio": 1712,
      "pti": 1713,
      "estÃ¡": 1714,
      "Ġpromo": 1715,
      "Ġ/": 1716,
      "Ġhaya": 1717,
      "ĠformaciÃ³n": 1718,
      "turas": 1719,
      "Ġsocie": 1720,
      "fe": 1721,
      "Ġpueb": 1722,
      "Ġalcan": 1723,
      "Ġener": 1724,
      "ieron": 1725,
      "ĠlÃŃ": 1726,
      "Ġeduc": 1727,
      "ientras": 1728,
      "Ġele": 1729,
      "ĠniÃ±os": 1730,
      "Ġpoco": 1731,
      "tidad": 1732,
      "Ġpriv": 1733,
      "eci": 1734,
      "ple": 1735,
      "Ġconsul": 1736,
      "Ġpen": 1737,
      "dor": 1738,
      "30": 1739,
      "eso": 1740,
      "cÃ³mo": 1741,
      "taciones": 1742,
      "ez": 1743,
      "Ġcambi": 1744,
      "Ġdicho": 1745,
      "Ġgaranti": 1746,
      "Ġmas": 1747,
      "Ġsino": 1748,
      "Ġhacia": 1749,
      "Ġdeba": 1750,
      "Ġpartir": 1751,
      "Ġries": 1752,
      "logÃŃa": 1753,
      "Ġnuestra": 1754,
      "Ġquer": 1755,
      "15": 1756,
      "Ġcono": 1757,
      "Ġmeses": 1758,
      "Ġclas": 1759,
      "Ġtrabajadores": 1760,
      "Ġreal": 1761,
      "Ġjo": 1762,
      "Ġefectos": 1763,
      "eras": 1764,
      "jas": 1765,
      "Ġobserv": 1766,
      "Ġauto": 1767,
      "Ġsolo": 1768,
      "ĠmÃ¡xim": 1769,
      "inas": 1770,
      "ibles": 1771,
      "iso": 1772,
      "Ġobten": 1773,
      "Ġnor": 1774,
      "Ġpap": 1775,
      "Ġtur": 1776,
      "vÃ©s": 1777,
      "ducciÃ³n": 1778,
      "Ġnuestro": 1779,
      "paÃ±a": 1780,
      "Ġesti": 1781,
      "ĠproducciÃ³n": 1782,
      "Ġmor": 1783,
      "clus": 1784,
      "Ġcosas": 1785,
      "Ġbus": 1786,
      "Ġdocumen": 1787,
      "ts": 1788,
      "viembre": 1789,
      "Ġsign": 1790,
      "tada": 1791,
      "vamos": 1792,
      "Ġbajo": 1793,
      "tales": 1794,
      "Ġvir": 1795,
      "Ġenero": 1796,
      "ĠpodrÃ¡": 1797,
      "icip": 1798,
      "eza": 1799,
      "Ġfuera": 1800,
      "Ġconj": 1801,
      "Ġder": 1802,
      "Ġnoviembre": 1803,
      "ĠpÃ¡r": 1804,
      "Ġ24": 1805,
      "Ġconsecu": 1806,
      "Ġtier": 1807,
      "partam": 1808,
      "Ġmundial": 1809,
      "Ġnecesario": 1810,
      "Ġproblemas": 1811,
      "Ġthe": 1812,
      "Ġsignific": 1813,
      "ĠtravÃ©s": 1814,
      "ticia": 1815,
      "Ġide": 1816,
      "Ġcentral": 1817,
      "crib": 1818,
      "Ġestruc": 1819,
      "dic": 1820,
      "Ġcien": 1821,
      "Ġconte": 1822,
      "pue": 1823,
      "ancia": 1824,
      "Ġmisma": 1825,
      "Ġtor": 1826,
      "Ġcasos": 1827,
      "Ġcalidad": 1828,
      "iales": 1829,
      "Ã¡fic": 1830,
      "Ġall": 1831,
      "todo": 1832,
      "ĠÃ³r": 1833,
      "ques": 1834,
      "ĠespecÃŃfic": 1835,
      "Ã©gimen": 1836,
      "ĠeducaciÃ³n": 1837,
      "Ġfa": 1838,
      "Ġdif": 1839,
      "ĠacciÃ³n": 1840,
      "Ġ22": 1841,
      "Ġguer": 1842,
      "ificaciÃ³n": 1843,
      "Ġdef": 1844,
      "posiciÃ³n": 1845,
      "dientes": 1846,
      "Ġpaz": 1847,
      "Ġseman": 1848,
      "Ġello": 1849,
      "vid": 1850,
      "Ġayud": 1851,
      "bas": 1852,
      "Ġsos": 1853,
      "dose": 1854,
      "Ġ31": 1855,
      "bien": 1856,
      "Ġpropor": 1857,
      "Ġarreg": 1858,
      "Ġmencion": 1859,
      "Ġnosotros": 1860,
      "ror": 1861,
      "Ġbce": 1862,
      "Ã©di": 1863,
      "irm": 1864,
      "Ġunidos": 1865,
      "Ġincluy": 1866,
      "Ġcambio": 1867,
      "ĠmÃŃ": 1868,
      "Ġrecu": 1869,
      "Ġcin": 1870,
      "Ġprepar": 1871,
      "inar": 1872,
      "Ġrelacion": 1873,
      "Ã³nde": 1874,
      "tion": 1875,
      "ame": 1876,
      "Ġprev": 1877,
      "Ġagua": 1878,
      "ĠdirecciÃ³n": 1879,
      "Ġsuperior": 1880,
      "Ġdepartam": 1881,
      "tric": 1882,
      "tiene": 1883,
      "asÃŃ": 1884,
      "atro": 1885,
      "ili": 1886,
      "13": 1887,
      "Ġmarzo": 1888,
      "Ġsur": 1889,
      "Ġevi": 1890,
      "Ġconce": 1891,
      "Ġpuedo": 1892,
      "Ġconvenio": 1893,
      "Ġfaci": 1894,
      "pl": 1895,
      "ĠtÃŃ": 1896,
      "oso": 1897,
      "irÃ¡": 1898,
      "ĠtÃ©r": 1899,
      "ĠrÃ©gimen": 1900,
      "Ġdirig": 1901,
      "tadas": 1902,
      "Ġfueron": 1903,
      "Ġtribunal": 1904,
      "quil": 1905,
      "14": 1906,
      "Ġestra": 1907,
      "Ġedi": 1908,
      "Ġestoy": 1909,
      "Ġbe": 1910,
      "Ġtom": 1911,
      "Ġviol": 1912,
      "all": 1913,
      "Ġmayo": 1914,
      "Ġlogr": 1915,
      "tien": 1916,
      "tarÃŃa": 1917,
      "acio": 1918,
      "ionales": 1919,
      "tÃº": 1920,
      "ĠeconÃ³mica": 1921,
      "trum": 1922,
      "ombres": 1923,
      "tificaciÃ³n": 1924,
      "son": 1925,
      "Ġperman": 1926,
      "ice": 1927,
      "amble": 1928,
      "ĠdemÃ¡s": 1929,
      "ura": 1930,
      "ciden": 1931,
      "ĠmÃŃn": 1932,
      "ademÃ¡s": 1933,
      "trucciÃ³n": 1934,
      "Ġ2004": 1935,
      "50": 1936,
      "ÃŃsticas": 1937,
      "Ã¡g": 1938,
      "ĠÃ¡mbito": 1939,
      "Ġprue": 1940,
      "ĠartÃŃ": 1941,
      "ĠpÃºblico": 1942,
      "Ġrefier": 1943,
      "Ġ26": 1944,
      "Ġcri": 1945,
      "pas": 1946,
      "Ġnatural": 1947,
      "Ġ2001": 1948,
      "Ġmuchos": 1949,
      "jus": 1950,
      "ĠadministraciÃ³n": 1951,
      "tel": 1952,
      "Ġacer": 1953,
      "Ġciv": 1954,
      "Ġautoridades": 1955,
      "Ġrelativa": 1956,
      "Ġadecu": 1957,
      "Ġasamble": 1958,
      "olu": 1959,
      "Ġ2002": 1960,
      "Ġgan": 1961,
      "ĠcuestiÃ³n": 1962,
      "Ġquiero": 1963,
      "Ġenfer": 1964,
      "Ġsue": 1965,
      "Ġdistr": 1966,
      "ĠseÃ±al": 1967,
      "Ġoport": 1968,
      "Ġacceso": 1969,
      "tÃŃa": 1970,
      "Ġtengo": 1971,
      "udas": 1972,
      "Ġacep": 1973,
      "Ġcompar": 1974,
      "Ġfundam": 1975,
      "ĠpolÃŃticas": 1976,
      "ismos": 1977,
      "Ġcivil": 1978,
      "Ġdic": 1979,
      "Ġcuesti": 1980,
      "ĠcÃ³mo": 1981,
      "ĠtÃº": 1982,
      "Ġproyectos": 1983,
      "bol": 1984,
      "Ġpreo": 1985,
      "Ġobjetivo": 1986,
      "ay": 1987,
      "Ġsesiones": 1988,
      "demos": 1989,
      "Ġorien": 1990,
      "Ġelabor": 1991,
      "Ġanim": 1992,
      "Ġunos": 1993,
      "Ġgente": 1994,
      "tubre": 1995,
      "turales": 1996,
      "....": 1997,
      "Ġue": 1998,
      "olÃ³g": 1999,
      "Ġenton": 2000,
      "todos": 2001,
      "sidad": 2002,
      "iera": 2003,
      "Ġtexto": 2004,
      "Ġdijo": 2005,
      "Ġobjeto": 2006,
      "Ġinstrum": 2007,
      "creto": 2008,
      "bern": 2009,
      "puestas": 2010,
      "Ġasamblea": 2011,
      "Ġ23": 2012,
      "Ġentonces": 2013,
      "cno": 2014,
      "Ġactividad": 2015,
      "Ġelem": 2016,
      "Ġoctubre": 2017,
      "Ġcapacidad": 2018,
      "tivamente": 2019,
      "ĠtÃ©rmin": 2020,
      "tina": 2021,
      "uÃ±a": 2022,
      "ĠlÃŃn": 2023,
      "Ġmunicip": 2024,
      "Ġmov": 2025,
      "Ġpresupues": 2026,
      "Ã¡p": 2027,
      "Ġprecios": 2028,
      "ese": 2029,
      "Ġoperaciones": 2030,
      "Ġsegundo": 2031,
      "ĠpoblaciÃ³n": 2032,
      "ill": 2033,
      "Ġhoy": 2034,
      "Ġaunque": 2035,
      "Ġcontinu": 2036,
      "Ġ2006": 2037,
      "Ġorganizaciones": 2038,
      "gra": 2039,
      "Ġinstal": 2040,
      "Ġtrata": 2041,
      "Ã³di": 2042,
      "Ġinternacionales": 2043,
      "ptiembre": 2044,
      "hay": 2045,
      "ras": 2046,
      "Ġconta": 2047,
      "ĠpodrÃŃa": 2048,
      "gracias": 2049,
      "--": 2050,
      "Ġmientras": 2051,
      "ĠpÃ¡rra": 2052,
      "Ġesf": 2053,
      "Ġ2003": 2054,
      "Ġveces": 2055,
      "Ġobjetivos": 2056,
      "ĠinterÃ©s": 2057,
      "Ġ2000": 2058,
      "Ġmodo": 2059,
      "Ġoportun": 2060,
      "18": 2061,
      "Ġmedida": 2062,
      "Ġ29": 2063,
      "Ġje": 2064,
      "tÃ¡": 2065,
      "ĠcataluÃ±a": 2066,
      "Ġejerci": 2067,
      "Ġpresentar": 2068,
      "ĠdÃ©": 2069,
      "Ġresultados": 2070,
      "Ġseptiembre": 2071,
      "ingun": 2072,
      "lares": 2073,
      "Ġconver": 2074,
      "ĠeconÃ³mico": 2075,
      "Ġofre": 2076,
      "Ġambiente": 2077,
      "Ġproblema": 2078,
      "25": 2079,
      "Ġlargo": 2080,
      "mu": 2081,
      "icio": 2082,
      "eo": 2083,
      "Ġsociedad": 2084,
      "Ġmedios": 2085,
      "Ġcabo": 2086,
      "tera": 2087,
      "Ã¡cter": 2088,
      "ecer": 2089,
      "Ġempleo": 2090,
      "ĠcrÃ©di": 2091,
      "acter": 2092,
      "Ġdemo": 2093,
      "vin": 2094,
      "tente": 2095,
      "Ġsistemas": 2096,
      "Ġ2005": 2097,
      "Ġos": 2098,
      "teriores": 2099,
      "cepto": 2100,
      "izo": 2101,
      "ĠcarÃ¡cter": 2102,
      "ahora": 2103,
      "Ġescri": 2104,
      "ger": 2105,
      "ficiente": 2106,
      "tentes": 2107,
      "Ġoficial": 2108,
      "ama": 2109,
      "Ġdiferentes": 2110,
      "zado": 2111,
      "ĠatenciÃ³n": 2112,
      "Ġvuel": 2113,
      "Ġdepartamento": 2114,
      "jes": 2115,
      "ĠÂ¡": 2116,
      "Ġ28": 2117,
      "ĠpÃºblica": 2118,
      "ĠÃºltimo": 2119,
      "Ġfrente": 2120,
      "Ġabril": 2121,
      "arÃŃa": 2122,
      "ĠmayorÃŃa": 2123,
      "Ġpuer": 2124,
      "Ã©l": 2125,
      "Ġterritor": 2126,
      "Ġcorr": 2127,
      "Ġtrad": 2128,
      "17": 2129,
      "Ġasistencia": 2130,
      "sal": 2131,
      "201": 2132,
      "hab": 2133,
      "ĠaÃºn": 2134,
      "Ġtermin": 2135,
      "Ġguerra": 2136,
      "Ġurban": 2137,
      "up": 2138,
      "bles": 2139,
      "Ġjusticia": 2140,
      "ibuciÃ³n": 2141,
      "ĠparticipaciÃ³n": 2142,
      "oma": 2143,
      "Ġrecomend": 2144,
      "Ġsociales": 2145,
      "rea": 2146,
      "cap": 2147,
      "Ġases": 2148,
      "ed": 2149,
      "Ġpasa": 2150,
      "cales": 2151,
      "Ġgrupos": 2152,
      "Ġesos": 2153,
      "Ġcoord": 2154,
      "Ġreco": 2155,
      "Ġadi": 2156,
      "fa": 2157,
      "tegor": 2158,
      "alizaciÃ³n": 2159,
      "Ã¼": 2160,
      "Ġsecretario": 2161,
      "Ġdice": 2162,
      "Ġpadre": 2163,
      "Ġtecno": 2164,
      "Ġlibre": 2165,
      "Âº": 2166,
      "vÃŃa": 2167,
      "Ġnoche": 2168,
      "Ġ27": 2169,
      "imos": 2170,
      "recu": 2171,
      "Ġol": 2172,
      "Ġrecib": 2173,
      "Ġarreglo": 2174,
      "Ġverdad": 2175,
      "Ġ21": 2176,
      "Ġinstituciones": 2177,
      "fi": 2178,
      "Ġeconom": 2179,
      "tida": 2180,
      "bueno": 2181,
      "cados": 2182,
      "Ġestad": 2183,
      "Ġfij": 2184,
      "lado": 2185,
      "ĠÃ³rgan": 2186,
      "Ġgrandes": 2187,
      "Ġencar": 2188,
      "80": 2189,
      "dÃŃa": 2190,
      "Ġefic": 2191,
      "ĠartÃŃculos": 2192,
      "ital": 2193,
      "Ã¡tica": 2194,
      "Ġlocal": 2195,
      "ard": 2196,
      "Ġindepen": 2197,
      "ĠevaluaciÃ³n": 2198,
      "ĠcomunicaciÃ³n": 2199,
      "brero": 2200,
      "Ġiden": 2201,
      "Ġprofesional": 2202,
      "ĠademÃ¡s": 2203,
      "Ġnunca": 2204,
      "dica": 2205,
      "iva": 2206,
      "Ġtierra": 2207,
      "uales": 2208,
      "Ġpapel": 2209,
      "Ġpreci": 2210,
      "40": 2211,
      "Ġsiendo": 2212,
      "cun": 2213,
      "ler": 2214,
      "illa": 2215,
      "cada": 2216,
      "Ġtele": 2217,
      "Ġ&": 2218,
      "Ġefecto": 2219,
      "Ġtransporte": 2220,
      "Ġningun": 2221,
      "Ġcomercio": 2222,
      "ima": 2223,
      "fun": 2224,
      "Ġexig": 2225,
      "Ġrad": 2226,
      "crip": 2227,
      "Ġcomercial": 2228,
      "Ġdinero": 2229,
      "tru": 2230,
      "Ġcuestiones": 2231,
      "Ġgastos": 2232,
      "ĠdeclaraciÃ³n": 2233,
      "Ġrespe": 2234,
      "Ġfacil": 2235,
      "cin": 2236,
      "Ġcuanto": 2237,
      "ĠenergÃŃa": 2238,
      "Ġfondo": 2239,
      "Ã±as": 2240,
      "Ġesfuer": 2241,
      "Ġentidades": 2242,
      "Ġreferencia": 2243,
      "leg": 2244,
      "Ġing": 2245,
      "Ġ197": 2246,
      "Ġnegoci": 2247,
      "Ġnuevas": 2248,
      "Ġconv": 2249,
      "Ġcuer": 2250,
      "Ġherman": 2251,
      "ĠpÃ¡rrafo": 2252,
      "Ġalgunas": 2253,
      "Ġfo": 2254,
      "Ġpueblo": 2255,
      "Ġsoy": 2256,
      "Ġhablar": 2257,
      "bal": 2258,
      "Ġfamilia": 2259,
      "Ġestablece": 2260,
      "Ġreconoci": 2261,
      "Ġcuatro": 2262,
      "Ġcaracter": 2263,
      "Ġnecesidad": 2264,
      "unci": 2265,
      "Ġpuesto": 2266,
      "Ġasuntos": 2267,
      "Ġlen": 2268,
      "Ġdesa": 2269,
      "Ġnuevos": 2270,
      "oh": 2271,
      "eas": 2272,
      "Ġhombres": 2273,
      "Ġmul": 2274,
      "Ġelectr": 2275,
      "her": 2276,
      "hola": 2277,
      "ĠdeberÃ¡": 2278,
      "ins": 2279,
      "bilidad": 2280,
      "Ġbal": 2281,
      "ĠfunciÃ³n": 2282,
      "segur": 2283,
      "Ġrefer": 2284,
      "Ġsentido": 2285,
      "Ġllegar": 2286,
      "ĠregiÃ³n": 2287,
      "icamente": 2288,
      "entales": 2289,
      "Ġresponsab": 2290,
      "Ġon": 2291,
      "Ġnorte": 2292,
      "Ã³digo": 2293,
      "osa": 2294,
      "adamente": 2295,
      "ire": 2296,
      "Ġqued": 2297,
      "ĠejecuciÃ³n": 2298,
      "Ġru": 2299,
      "ĠpÃºblicas": 2300,
      "Ġpie": 2301,
      "Ġdele": 2302,
      "eno": 2303,
      "ingÃºn": 2304,
      "Ġmec": 2305,
      "Ġequipo": 2306,
      "Ġespeci": 2307,
      "Ġsean": 2308,
      "ich": 2309,
      "ĠcreaciÃ³n": 2310,
      "22": 2311,
      "Ġhijo": 2312,
      "Ã£": 2313,
      "Ġand": 2314,
      "Ġpueda": 2315,
      "Ġpan": 2316,
      "ono": 2317,
      "gue": 2318,
      "tÃ©": 2319,
      "Ġhistoria": 2320,
      "Ġcategor": 2321,
      "celona": 2322,
      "quer": 2323,
      "Ġprincipio": 2324,
      "Ġimportancia": 2325,
      "ii": 2326,
      "Ġoficina": 2327,
      "Ġhabi": 2328,
      "Ġorigin": 2329,
      "Ġtitu": 2330,
      "Ġparece": 2331,
      "ell": 2332,
      "60": 2333,
      "Ġrelaciones": 2334,
      "Ġincluso": 2335,
      "Ġhaci": 2336,
      "bil": 2337,
      "ĠrazÃ³n": 2338,
      "Ġocup": 2339,
      "ĠprÃ³": 2340,
      "ye": 2341,
      "Ġfondos": 2342,
      "ental": 2343,
      "guien": 2344,
      "Ġnuestros": 2345,
      "Ġlista": 2346,
      "terio": 2347,
      "ienda": 2348,
      "Ġopin": 2349,
      "Ġaspec": 2350,
      "ĠrÃ¡p": 2351,
      "Ġanterior": 2352,
      "Ġagu": 2353,
      "bras": 2354,
      "Ġtratamiento": 2355,
      "Ġsegunda": 2356,
      "tarios": 2357,
      "Ġhabr": 2358,
      "Ġdemocr": 2359,
      "ĠÃºnico": 2360,
      "ĠenseÃ±": 2361,
      "Ġestablecer": 2362,
      "Ġampli": 2363,
      "Ġmues": 2364,
      "Ġespecialmente": 2365,
      "sÃ³lo": 2366,
      "Ġrec": 2367,
      "arÃ©": 2368,
      "Ġproporcion": 2369,
      "Ġrev": 2370,
      "Ġhora": 2371,
      "hÃŃ": 2372,
      "tio": 2373,
      "ĠestÃ¡s": 2374,
      "ĠdÃ³": 2375,
      "Ġvia": 2376,
      "Ġrequis": 2377,
      "Ġcompren": 2378,
      "terios": 2379,
      "adie": 2380,
      "Ġtenemos": 2381,
      "Ġabs": 2382,
      "ni": 2383,
      "Ġconferencia": 2384,
      "Ġgarantizar": 2385,
      "Ġfebrero": 2386,
      "dur": 2387,
      "Ġsignifica": 2388,
      "Ġfalta": 2389,
      "Ġcuen": 2390,
      "Ġcapital": 2391,
      "Ġpasado": 2392,
      "Ġhemos": 2393,
      "Ġtema": 2394,
      "dios": 2395,
      "iza": 2396,
      "tarÃ¡": 2397,
      "Ġtran": 2398,
      "puestos": 2399,
      "Ġpolic": 2400,
      "Ġmode": 2401,
      "tancias": 2402,
      "Ġlado": 2403,
      "Ġrefiere": 2404,
      "Ġbanco": 2405,
      "usiÃ³n": 2406,
      "igur": 2407,
      "Ġacciones": 2408,
      "media": 2409,
      "Ġvista": 2410,
      "tarse": 2411,
      "log": 2412,
      "tÃ³n": 2413,
      "Ġtomar": 2414,
      "Ġpron": 2415,
      "Ġregul": 2416,
      "iÃ©n": 2417,
      "Ġvin": 2418,
      "23": 2419,
      "esiÃ³n": 2420,
      "Ġgracias": 2421,
      "Ġprincipales": 2422,
      "turo": 2423,
      "Ġdecreto": 2424,
      "arlo": 2425,
      "ĠningÃºn": 2426,
      "Ġvac": 2427,
      "Ġperio": 2428,
      "ĠpodrÃ¡n": 2429,
      "Ġcomunidades": 2430,
      "Ġfer": 2431,
      "Ġalim": 2432,
      "Ġpreocup": 2433,
      "bur": 2434,
      "Ġpaci": 2435,
      "Ġserie": 2436,
      "Ġfac": 2437,
      "elas": 2438,
      "Ġproducto": 2439,
      "Ġenten": 2440,
      "sas": 2441,
      "tual": 2442,
      "Ġcompetencia": 2443,
      "Ġriesgo": 2444,
      "Ġenvi": 2445,
      "Ġsex": 2446,
      "Ġfis": 2447,
      "Ġcuales": 2448,
      "ĠdeberÃŃa": 2449,
      "Ġcolabor": 2450,
      "ĠcompaÃ±": 2451,
      "Ġaleman": 2452,
      "Ġdepen": 2453,
      "Ġet": 2454,
      "Ġesas": 2455,
      "Ġintro": 2456,
      "Ġsolicitud": 2457,
      "Ġpresupuesto": 2458,
      "Ġexperien": 2459,
      "Ġprincipal": 2460,
      "Ġtipos": 2461,
      "Ġcreo": 2462,
      "estoy": 2463,
      "Ġayudas": 2464,
      "Ġalto": 2465,
      "Ġfunciones": 2466,
      "Ġrelativo": 2467,
      "Ġincre": 2468,
      "Ġ50": 2469,
      "ip": 2470,
      "Ġpropie": 2471,
      "cionales": 2472,
      "Ġluego": 2473,
      "gel": 2474,
      "Ġcomis": 2475,
      "Ã¡lisis": 2476,
      "Ġpuntos": 2477,
      "Ġmir": 2478,
      "Ġglo": 2479,
      "ĠpÃ¡g": 2480,
      "Ġtam": 2481,
      "ĠlegislaciÃ³n": 2482,
      "iba": 2483,
      "Ġsosten": 2484,
      "Ġred": 2485,
      "Ġdebido": 2486,
      "Ġbol": 2487,
      "Ġhizo": 2488,
      "Ġvarios": 2489,
      "Ġamor": 2490,
      "Ġvalores": 2491,
      "Ġbuena": 2492,
      "Ġfeder": 2493,
      "24": 2494,
      "adora": 2495,
      "abric": 2496,
      "Ã¡tico": 2497,
      "Ġarmas": 2498,
      "Ã©rica": 2499,
      "Ġcuar": 2500,
      "Ġsaber": 2501,
      "ĠreuniÃ³n": 2502,
      "erva": 2503,
      "Ġcrecimiento": 2504,
      "isto": 2505,
      "del": 2506,
      "ke": 2507,
      "Ġprincipios": 2508,
      "nada": 2509,
      "tiÃ³": 2510,
      "Ġreino": 2511,
      "ÃŃamos": 2512,
      "Ġajus": 2513,
      "and": 2514,
      "zÃ³": 2515,
      "ĠâĢĵ": 2516,
      "Ã±ana": 2517,
      "Ġzonas": 2518,
      "Ġingres": 2519,
      "ĠtenÃŃa": 2520,
      "Ġvolun": 2521,
      "Ġreform": 2522,
      "Ġpelig": 2523,
      "Ġcomen": 2524,
      "Ġcomprom": 2525,
      "Ġmos": 2526,
      "Ġejercicio": 2527,
      "Ġempe": 2528,
      "Ġblan": 2529,
      "clu": 2530,
      "Ġcinco": 2531,
      "Ġinterior": 2532,
      "Ġev": 2533,
      "Ġninguna": 2534,
      "Ġseguir": 2535,
      "ĠserÃ¡n": 2536,
      "Ġtempor": 2537,
      "Ġestrateg": 2538,
      "ĠfinanciaciÃ³n": 2539,
      "Ġenferme": 2540,
      "icul": 2541,
      "Ġcomb": 2542,
      "Ġhuman": 2543,
      "Ġfuturo": 2544,
      "Ġvoy": 2545,
      "gt": 2546,
      "-Â¿": 2547,
      "Ġconjunto": 2548,
      "26": 2549,
      "ĠfÃ¡": 2550,
      "Ġestudios": 2551,
      "Ġnecesidades": 2552,
      "Ġalguna": 2553,
      "Ġvan": 2554,
      "Ġterror": 2555,
      "Ġindustria": 2556,
      "Ġata": 2557,
      "ĠprÃ³xim": 2558,
      "Ġseguro": 2559,
      "pone": 2560,
      "dez": 2561,
      "Ġdocumento": 2562,
      "Ġcorrec": 2563,
      "Ġmuchas": 2564,
      "izar": 2565,
      "Ġtes": 2566,
      "Ġdetal": 2567,
      "ĠbÃ¡s": 2568,
      "ĠdÃ³lares": 2569,
      "ob": 2570,
      "ÃŃtulo": 2571,
      "Ġavan": 2572,
      "Ġfra": 2573,
      "Ġapoy": 2574,
      "ĠlÃŃnea": 2575,
      "pens": 2576,
      "Ġrespons": 2577,
      "Ġital": 2578,
      "Ġelementos": 2579,
      "iene": 2580,
      "Ġquiere": 2581,
      "Ġocur": 2582,
      "Ġactual": 2583,
      "Ġpatr": 2584,
      "ĠconvenciÃ³n": 2585,
      "Ġtarde": 2586,
      "Ġ2007": 2587,
      "ĠmÃ¡ximo": 2588,
      "Ġprocedimientos": 2589,
      "Ġponer": 2590,
      "Ġpago": 2591,
      "Ġventa": 2592,
      "Ġ100": 2593,
      "Ġmuerte": 2594,
      "Ġincor": 2595,
      "irse": 2596,
      "pera": 2597,
      "hib": 2598,
      "Ġacuerdos": 2599,
      "Ġdecisiones": 2600,
      "leo": 2601,
      "Ġmilitar": 2602,
      "gre": 2603,
      "imismo": 2604,
      "Ã³si": 2605,
      "Ġequ": 2606,
      "Ġindivid": 2607,
      "Ġimportantes": 2608,
      "Ġinm": 2609,
      "poner": 2610,
      "29": 2611,
      "estruc": 2612,
      "Ġestatu": 2613,
      "Ġpuedan": 2614,
      "Ġminu": 2615,
      "ĠespaÃ±a": 2616,
      "jar": 2617,
      "iminaciÃ³n": 2618,
      "ĠahÃŃ": 2619,
      "Ġasegur": 2620,
      "Ġvirtud": 2621,
      "Ġestudio": 2622,
      "ĠposiciÃ³n": 2623,
      "Ġsac": 2624,
      "Ġlan": 2625,
      "Ġpresent": 2626,
      "Ġindic": 2627,
      "Ġterritorio": 2628,
      "Ġcontribu": 2629,
      "Ġcuad": 2630,
      "Ġbienes": 2631,
      "Ġaz": 2632,
      "Ġconci": 2633,
      "Ġestamos": 2634,
      "Ġcorrespondiente": 2635,
      "Ġrelativas": 2636,
      "Ġayudar": 2637,
      "onces": 2638,
      "inos": 2639,
      "Ġedad": 2640,
      "Ġnota": 2641,
      "Ġ1999": 2642,
      "Ġmadre": 2643,
      "Ġfabric": 2644,
      "Ġacerca": 2645,
      "nas": 2646,
      "ela": 2647,
      "eric": 2648,
      "Ġ2008": 2649,
      "Ġresiden": 2650,
      "ÃŃstica": 2651,
      "Ġcosa": 2652,
      "Ġprogres": 2653,
      "Ġefectu": 2654,
      "Ġexplic": 2655,
      "pol": 2656,
      "Ġobstante": 2657,
      "Ã©ase": 2658,
      "Ġeuropeas": 2659,
      "Ġarch": 2660,
      "Ġmantener": 2661,
      "Ġsigue": 2662,
      "Ġrealizar": 2663,
      "gÃ³": 2664,
      "ka": 2665,
      "Ġvigor": 2666,
      "umen": 2667,
      "estas": 2668,
      "Ġbu": 2669,
      "Ġsiento": 2670,
      "Ġcantidad": 2671,
      "Ġpodemos": 2672,
      "cepciÃ³n": 2673,
      "iado": 2674,
      "Ġsustitu": 2675,
      "Ġdesem": 2676,
      "gosto": 2677,
      "Ġalma": 2678,
      "Ġdesp": 2679,
      "creo": 2680,
      "tengo": 2681,
      "Ġgenerales": 2682,
      "Ġcumplimiento": 2683,
      "27": 2684,
      "ĠsecciÃ³n": 2685,
      "Â».": 2686,
      "didas": 2687,
      "Ġexplo": 2688,
      "Ġestablecido": 2689,
      "ĠanÃ¡lisis": 2690,
      "Ġinmedia": 2691,
      "Ġlocales": 2692,
      "ivos": 2693,
      "Ãł": 2694,
      "Ġlucha": 2695,
      "ĠeconomÃŃa": 2696,
      "Ġexpe": 2697,
      "ĠpolicÃŃa": 2698,
      "Ġestre": 2699,
      "Ġcla": 2700,
      "Ġespacio": 2701,
      "Ã¡ndo": 2702,
      "og": 2703,
      "acciÃ³n": 2704,
      "89": 2705,
      "au": 2706,
      "Ġat": 2707,
      "ĠÂ»": 2708,
      "Ġautoridad": 2709,
      "ĠtÃ©cnica": 2710,
      "Ġsir": 2711,
      "desde": 2712,
      "Ġjunto": 2713,
      "Ġcargo": 2714,
      "Ġdicha": 2715,
      "Ġeres": 2716,
      "frica": 2717,
      "Ġabier": 2718,
      "Ġhon": 2719,
      "mis": 2720,
      "tividad": 2721,
      "Ġllevar": 2722,
      "ĠmaÃ±ana": 2723,
      "Ġcasi": 2724,
      "Ġrequisitos": 2725,
      "Ġrespuesta": 2726,
      "Ġdirector": 2727,
      "entonces": 2728,
      "Ġimporte": 2729,
      "ilidades": 2730,
      "Ġtienes": 2731,
      "Ġprior": 2732,
      "Ġorigen": 2733,
      "Ġvas": 2734,
      "deci": 2735,
      "Ġconflic": 2736,
      "cito": 2737,
      "dente": 2738,
      "Ġfel": 2739,
      "Ã¡ndose": 2740,
      "Ġrom": 2741,
      "Ġproteg": 2742,
      "ĠserÃŃa": 2743,
      "dal": 2744,
      "bra": 2745,
      "Ġregiones": 2746,
      "Ġcentros": 2747,
      "vas": 2748,
      "quiÃ©n": 2749,
      "Ġdispuesto": 2750,
      "iga": 2751,
      "Ġalguien": 2752,
      "prim": 2753,
      "ativas": 2754,
      "Ġinfra": 2755,
      "diendo": 2756,
      "Ġmejorar": 2757,
      "Ġil": 2758,
      "pir": 2759,
      "ĠvehÃŃ": 2760,
      "Ġcamino": 2761,
      "ĠprÃ¡ctica": 2762,
      "Ġinformes": 2763,
      "Ġfir": 2764,
      "ck": 2765,
      "cÃŃa": 2766,
      "Ġconsegu": 2767,
      "Ġhaciendo": 2768,
      "Ġrevis": 2769,
      "Ġagosto": 2770,
      ");": 2771,
      "Ġformul": 2772,
      "anas": 2773,
      "Ġlibertad": 2774,
      "Ġada": 2775,
      "87": 2776,
      "Ġsuficiente": 2777,
      "Ġresultado": 2778,
      "Ġproces": 2779,
      "Ġmecan": 2780,
      "ĠvÃŃ": 2781,
      "Ġdomin": 2782,
      "ĠlÃŃmi": 2783,
      "eta": 2784,
      "Ġvari": 2785,
      "Ġconserv": 2786,
      "centr": 2787,
      "Ġdocumentos": 2788,
      "Ġpertin": 2789,
      "Ġciudadanos": 2790,
      "Ġhas": 2791,
      "ĠagrÃŃ": 2792,
      "later": 2793,
      "Ġcru": 2794,
      "Ġproto": 2795,
      "ĠallÃŃ": 2796,
      "cula": 2797,
      "Ġsubven": 2798,
      "Ġayun": 2799,
      "Ġjue": 2800,
      "dero": 2801,
      "Ġsatis": 2802,
      "Ġhayan": 2803,
      "char": 2804,
      "tÃŃfic": 2805,
      "Ġatra": 2806,
      "ĠcrÃ©dito": 2807,
      "Â«": 2808,
      "ser": 2809,
      "Ġadap": 2810,
      "ee": 2811,
      "segu": 2812,
      "Ġpartici": 2813,
      "Ġvie": 2814,
      "Ġconsecuencia": 2815,
      "igr": 2816,
      "Ġeran": 2817,
      "Ġregistro": 2818,
      "Ġresponsabilidad": 2819,
      "cripciÃ³n": 2820,
      "Ġapren": 2821,
      "ĠhabÃŃan": 2822,
      "Ġextran": 2823,
      "Ġacab": 2824,
      "Ġbel": 2825,
      "ĠpublicaciÃ³n": 2826,
      "Ġvamos": 2827,
      "33": 2828,
      "bl": 2829,
      "Ġaumento": 2830,
      "ĠÃ¡r": 2831,
      "ĠtendrÃ¡": 2832,
      "tamen": 2833,
      "48": 2834,
      "Ġfrecu": 2835,
      "Ġdesta": 2836,
      "Ġquin": 2837,
      "Ġobras": 2838,
      "Ġfuncionamiento": 2839,
      "Ġocas": 2840,
      "28": 2841,
      "Ġrealidad": 2842,
      "Ġsemana": 2843,
      "Ġatr": 2844,
      "ĠÃºltima": 2845,
      "ĠfÃŃs": 2846,
      "esa": 2847,
      "Ġtales": 2848,
      "grÃ¡fic": 2849,
      "ile": 2850,
      "ĠdeberÃ¡n": 2851,
      "Ġvolver": 2852,
      "Ġidea": 2853,
      "Ġposibilidad": 2854,
      "____": 2855,
      "cla": 2856,
      "90": 2857,
      "Ġig": 2858,
      "Ġpropuestas": 2859,
      "Ġfil": 2860,
      "Ġdado": 2861,
      "Ġdebate": 2862,
      "Ġcriterios": 2863,
      "Ġgol": 2864,
      "Ġencontrar": 2865,
      "Ġescal": 2866,
      "Ġcuerpo": 2867,
      "Ġregional": 2868,
      "Ġdescu": 2869,
      "Ġincorpor": 2870,
      "Ġencuentra": 2871,
      "ĠcientÃŃfic": 2872,
      "Ġinfer": 2873,
      "Ġinvi": 2874,
      "Ġperju": 2875,
      "ĠconstrucciÃ³n": 2876,
      "Ġpropia": 2877,
      "ormente": 2878,
      "tencias": 2879,
      "Ġmantenimiento": 2880,
      "Ġorganismos": 2881,
      "Ġvisto": 2882,
      "Ġ2009": 2883,
      "eb": 2884,
      "Ġcoraz": 2885,
      "gÃºn": 2886,
      "Ġtas": 2887,
      "Ġconsum": 2888,
      "ĠdifÃŃ": 2889,
      "menes": 2890,
      "Ġprob": 2891,
      "Ġinstrumentos": 2892,
      "tiz": 2893,
      "Ġunas": 2894,
      "Ġsome": 2895,
      "Ġexamen": 2896,
      "tidos": 2897,
      "Ġdeman": 2898,
      "ĠjurÃŃdico": 2899,
      "Ġrefle": 2900,
      "Ġluz": 2901,
      "gro": 2902,
      "Ġdeten": 2903,
      "gada": 2904,
      "Ġcolec": 2905,
      "Ġagricul": 2906,
      "Ġintercam": 2907,
      "Ġfuerza": 2908,
      "Ġ40": 2909,
      "43": 2910,
      "Ġadoptar": 2911,
      "Ġasign": 2912,
      "21": 2913,
      "jero": 2914,
      "ucle": 2915,
      "Ġsiglo": 2916,
      "Ġrepresentantes": 2917,
      "gal": 2918,
      "Ġmol": 2919,
      "tificado": 2920,
      "Ġecu": 2921,
      "Ġpop": 2922,
      "Ġderiv": 2923,
      "Ġalta": 2924,
      "Ġexten": 2925,
      "Ġbarcelona": 2926,
      "Ġprecio": 2927,
      "dentes": 2928,
      "Ġpartido": 2929,
      "terr": 2930,
      "vil": 2931,
      "Ġcarta": 2932,
      "Ġarm": 2933,
      "iar": 2934,
      "ĠtodavÃŃa": 2935,
      "Ġdemas": 2936,
      "Ġcerca": 2937,
      "Ġcampo": 2938,
      "Ġprimero": 2939,
      "Ġfron": 2940,
      "ches": 2941,
      "igos": 2942,
      "Ġalter": 2943,
      "Ġarr": 2944,
      "Ġesfuerzos": 2945,
      "Ġcorrespondientes": 2946,
      "Ġhubier": 2947,
      "Ã¨": 2948,
      "ĠÃºltimos": 2949,
      "Ġeleg": 2950,
      "abra": 2951,
      "venes": 2952,
      "ĠÃ©x": 2953,
      "omos": 2954,
      "teriormente": 2955,
      "Ġprofun": 2956,
      "Ġmercados": 2957,
      "Ġsuje": 2958,
      "ĠniÃ±o": 2959,
      "88": 2960,
      "icidad": 2961,
      "via": 2962,
      "Ġnom": 2963,
      "ĠutilizaciÃ³n": 2964,
      "2003": 2965,
      "Ġhar": 2966,
      "Ġdu": 2967,
      "importe": 2968,
      "Ġpermitir": 2969,
      "Ġmano": 2970,
      "san": 2971,
      "Ġexperiencia": 2972,
      "Ã³s": 2973,
      "Ġnecesi": 2974,
      "âĢ¢": 2975,
      "Ġnadie": 2976,
      "Ġcontenido": 2977,
      "55": 2978,
      "durante": 2979,
      "tades": 2980,
      "Ġfinancieros": 2981,
      "Ã³venes": 2982,
      "Ġprovin": 2983,
      "mica": 2984,
      "ĠÃºnica": 2985,
      "Ġhijos": 2986,
      "imon": 2987,
      "ĠsesiÃ³n": 2988,
      "46": 2989,
      "Ġobtener": 2990,
      "Ġobligaciones": 2991,
      "ania": 2992,
      "Ġpropio": 2993,
      "Ġprodu": 2994,
      "ĠelectrÃ³n": 2995,
      "Ġusu": 2996,
      "Ġigles": 2997,
      "ĠestÃ©": 2998,
      "Ġplante": 2999,
      "ll": 3000,
      "Ġobra": 3001,
      "colo": 3002,
      "Ġcausa": 3003,
      "rael": 3004,
      "Ġlegisla": 3005,
      "ilar": 3006,
      "Ġfinanciera": 3007,
      "Ġseis": 3008,
      "03": 3009,
      "Ġformas": 3010,
      "Ġanual": 3011,
      "Ġrecurso": 3012,
      "abras": 3013,
      "fue": 3014,
      "Ġniveles": 3015,
      "Ġcuentas": 3016,
      "ĠmÃŃnimo": 3017,
      "reglamento": 3018,
      "Ġconcre": 3019,
      "Ġrey": 3020,
      "clam": 3021,
      "ĠcÃ³digo": 3022,
      "Ġconvo": 3023,
      "Ġmag": 3024,
      "ram": 3025,
      "Ġvarias": 3026,
      "ĠjÃ³venes": 3027,
      "2001": 3028,
      "ĠÂŃ": 3029,
      "Ġentrada": 3030,
      "dÃ³nde": 3031,
      "adoras": 3032,
      "vaciÃ³n": 3033,
      "Ġespeciales": 3034,
      "Ġmad": 3035,
      "Ġnucle": 3036,
      "Ġayuntamiento": 3037,
      "laz": 3038,
      "ella": 3039,
      "Ġetc": 3040,
      "dicos": 3041,
      "ĠopiniÃ³n": 3042,
      "isa": 3043,
      "Ġconsigu": 3044,
      "ub": 3045,
      "quiero": 3046,
      "olver": 3047,
      "tudes": 3048,
      "entemente": 3049,
      "ĠtecnologÃŃa": 3050,
      "Ġautoriz": 3051,
      "Ġcome": 3052,
      "Ġpuedes": 3053,
      "table": 3054,
      "ibr": 3055,
      "ĠmisiÃ³n": 3056,
      "trÃ³": 3057,
      "Ġpien": 3058,
      "var": 3059,
      "Ġunido": 3060,
      "ĠpresentaciÃ³n": 3061,
      "Ġevitar": 3062,
      "Ġaspectos": 3063,
      "ĠinversiÃ³n": 3064,
      "Ġpesar": 3065,
      "ĠreducciÃ³n": 3066,
      "yos": 3067,
      "Ġregres": 3068,
      "Ġanimales": 3069,
      "Ġmoder": 3070,
      "Ġcomunitario": 3071,
      "Ġemi": 3072,
      "ala": 3073,
      "Ġton": 3074,
      "2002": 3075,
      "05": 3076,
      "direc": 3077,
      "Ġcierto": 3078,
      "77": 3079,
      "Ġrelig": 3080,
      "Ġcurso": 3081,
      "Ġdan": 3082,
      "45": 3083,
      "Ġsectores": 3084,
      "entre": 3085,
      "Ġbi": 3086,
      "Ġperten": 3087,
      "Ġnaturaleza": 3088,
      "Ġdirectamente": 3089,
      "Ġbor": 3090,
      "Ġsepar": 3091,
      "Ġdemos": 3092,
      "hesiÃ³n": 3093,
      "Ġcircun": 3094,
      "Ġpalabras": 3095,
      "ĠÃ©ste": 3096,
      "ĠasociaciÃ³n": 3097,
      "gencia": 3098,
      "Ġamigo": 3099,
      "abe": 3100,
      "estÃ¡s": 3101,
      "Ġsabe": 3102,
      "Ġhici": 3103,
      "idamente": 3104,
      "Ġdefini": 3105,
      "Ġfigur": 3106,
      "Ġrus": 3107,
      "Ġ1998": 3108,
      "Ġfacilitar": 3109,
      "Ġescrib": 3110,
      "Ġhos": 3111,
      "ablemente": 3112,
      "Ġellas": 3113,
      "ĠdisposiciÃ³n": 3114,
      "Ġaproxim": 3115,
      "cesiÃ³n": 3116,
      "ĠalgÃºn": 3117,
      "Ġpobre": 3118,
      "Ġrepresentante": 3119,
      "illo": 3120,
      "Ġjor": 3121,
      "âĢĿ.": 3122,
      "93": 3123,
      "Ġmaterial": 3124,
      "85": 3125,
      "ĠmodificaciÃ³n": 3126,
      "Ġpaso": 3127,
      "Ġprovis": 3128,
      "Ġcrear": 3129,
      "Ġreducir": 3130,
      "soy": 3131,
      "Ġ2010": 3132,
      "ĠvÃŃa": 3133,
      "Ġexiste": 3134,
      "Ġguar": 3135,
      "Ġexclus": 3136,
      "Ġbre": 3137,
      "Ġuniversidad": 3138,
      "ĠsoluciÃ³n": 3139,
      "Ġsupuesto": 3140,
      "ĠquiÃ©n": 3141,
      "onia": 3142,
      "Ġlaboral": 3143,
      "Ġrecono": 3144,
      "Ġadministrativo": 3145,
      "sec": 3146,
      "Ġintereses": 3147,
      "ĠtÃ©rmino": 3148,
      "Ġisrael": 3149,
      "umo": 3150,
      "Ġreserv": 3151,
      ".,": 3152,
      "Ġtransform": 3153,
      "ĠprÃ¡cticas": 3154,
      "bernam": 3155,
      "algun": 3156,
      "Ġfrancia": 3157,
      "Ġcuya": 3158,
      "96": 3159,
      "Ġreglam": 3160,
      "cido": 3161,
      "Ġverda": 3162,
      "Ġnaci": 3163,
      "ecen": 3164,
      "Ġpalabra": 3165,
      "Ġdejar": 3166,
      "Ġtus": 3167,
      "Ġentidad": 3168,
      "Ġmic": 3169,
      "Ġesen": 3170,
      "Ġconsidera": 3171,
      "Ġresto": 3172,
      "ĠautorizaciÃ³n": 3173,
      "itaria": 3174,
      "anzas": 3175,
      "taron": 3176,
      "Ġdiscr": 3177,
      "fru": 3178,
      "iendas": 3179,
      "Ġpopular": 3180,
      "abilidad": 3181,
      "Ġnum": 3182,
      "Ġconclus": 3183,
      "Ġprueba": 3184,
      "Ġunidad": 3185,
      "âĢľ": 3186,
      "Ġmedia": 3187,
      "35": 3188,
      "nes": 3189,
      "Ġquieres": 3190,
      "Ġpermanente": 3191,
      "Ġpacientes": 3192,
      "ĠcÃ¡": 3193,
      "Ġmucha": 3194,
      "aunque": 3195,
      "Ġtuvo": 3196,
      "2006": 3197,
      "Ġnecesarias": 3198,
      "Ġaquellos": 3199,
      "Ġhacerlo": 3200,
      "Ġbueno": 3201,
      "Ġcomunitaria": 3202,
      "tedes": 3203,
      "Ġcumplir": 3204,
      "Ġaudi": 3205,
      "Ġgrado": 3206,
      "Ġgusta": 3207,
      "udo": 3208,
      "Ġpuestos": 3209,
      "Ġll": 3210,
      "Ġenm": 3211,
      "Ġotor": 3212,
      "tec": 3213,
      "Ġmur": 3214,
      "Ġinterpre": 3215,
      "Ġactivos": 3216,
      "Ã¡lo": 3217,
      "Ġsens": 3218,
      "Ġcambios": 3219,
      "derÃ¡": 3220,
      "dedor": 3221,
      "ĠcoordinaciÃ³n": 3222,
      "seÃ±or": 3223,
      "Ġpruebas": 3224,
      "Ġrecuper": 3225,
      "lante": 3226,
      "Ġevalu": 3227,
      "paÃ±ol": 3228,
      "trar": 3229,
      "Ġpermite": 3230,
      "07": 3231,
      "Ġgrande": 3232,
      "tarias": 3233,
      "alo": 3234,
      "Ġpudi": 3235,
      "2005": 3236,
      "portaciÃ³n": 3237,
      "Ġmodelo": 3238,
      "Ġsuminis": 3239,
      "ĠtÃŃtulo": 3240,
      "Ġsuce": 3241,
      "Ġlengua": 3242,
      "Ġtrabajos": 3243,
      "Ġmulti": 3244,
      "Ġprohib": 3245,
      "Ġjefe": 3246,
      "sider": 3247,
      "ĠmÃºs": 3248,
      "Ġsuperfici": 3249,
      "Ġasunto": 3250,
      "ĠrealizaciÃ³n": 3251,
      "ĠÃŃn": 3252,
      "Ġmercan": 3253,
      "95": 3254,
      "Ġcris": 3255,
      "ula": 3256,
      "uos": 3257,
      "Ġposi": 3258,
      "47": 3259,
      "Ġedifici": 3260,
      "ĠaprobaciÃ³n": 3261,
      "Ġacom": 3262,
      "Ġtenido": 3263,
      "Ġcultura": 3264,
      "estos": 3265,
      "ite": 3266,
      "Ġdesempe": 3267,
      "Ġestablecimiento": 3268,
      "lica": 3269,
      "despuÃ©s": 3270,
      "Ġtenga": 3271,
      "mun": 3272,
      "emor": 3273,
      "ival": 3274,
      "ĠÃ©xito": 3275,
      "ĠpÃ©r": 3276,
      "porque": 3277,
      "gaciones": 3278,
      "ĠcategorÃŃa": 3279,
      "Ġambien": 3280,
      "Ġqueda": 3281,
      "Ġobliga": 3282,
      "tigo": 3283,
      "Ġresid": 3284,
      "xico": 3285,
      "Ġletra": 3286,
      "Ġmedicam": 3287,
      "Ġdemasiado": 3288,
      "ordin": 3289,
      "ĠcorazÃ³n": 3290,
      "Ġinno": 3291,
      "Ġestrategia": 3292,
      "Ġestim": 3293,
      "Ġsimple": 3294,
      "reas": 3295,
      "86": 3296,
      "Ġterritorial": 3297,
      "Ġcrisis": 3298,
      "2004": 3299,
      "Ġnuestras": 3300,
      "):": 3301,
      "Ġmanda": 3302,
      "gados": 3303,
      "uno": 3304,
      "Ġregionales": 3305,
      "ÃŃdo": 3306,
      "tino": 3307,
      "Ġpesca": 3308,
      "ĠdifÃŃcil": 3309,
      "Ġgobiernos": 3310,
      "Ġingresos": 3311,
      "Ġlic": 3312,
      "Ġfuerzas": 3313,
      "ibuy": 3314,
      "Ġrepresenta": 3315,
      "Ġalemania": 3316,
      "Â»,": 3317,
      "Ġdem": 3318,
      "Ġminutos": 3319,
      "ĠsecretarÃŃa": 3320,
      "Ġsil": 3321,
      "ĠseÃ±ora": 3322,
      "Ġdismin": 3323,
      "ĠÃ³rganos": 3324,
      "Ġprotocolo": 3325,
      "amientos": 3326,
      "Ġchina": 3327,
      "Ġcabeza": 3328,
      "eres": 3329,
      "Ġclase": 3330,
      "Ġlibro": 3331,
      "Ġ;": 3332,
      "Ġ+": 3333,
      "Ġconduc": 3334,
      "Ġweb": 3335,
      "han": 3336,
      "Ġmani": 3337,
      "Ġrealmente": 3338,
      "Ġiglesia": 3339,
      "ĠfÃ¡cil": 3340,
      "inform": 3341,
      "ĠprÃ©s": 3342,
      "Ġamena": 3343,
      "Ġconsumo": 3344,
      "âĢĿ,": 3345,
      "ĠcaracterÃŃsticas": 3346,
      "36": 3347,
      "aquÃŃ": 3348,
      "Ġcontexto": 3349,
      "Ġsitio": 3350,
      "Ġcircuns": 3351,
      "drÃ¡": 3352,
      "Ġdistintos": 3353,
      "ko": 3354,
      "Ġpac": 3355,
      "Ġimpres": 3356,
      "Ġtel": 3357,
      "din": 3358,
      "ĠtÃ©rminos": 3359,
      "Âª": 3360,
      "Ġrepar": 3361,
      "ĠpromociÃ³n": 3362,
      "Ġaplicable": 3363,
      "Ġinstalaciones": 3364,
      "Ġfirm": 3365,
      "Ġbos": 3366,
      "Ġaumentar": 3367,
      "idado": 3368,
      "Ġprevisto": 3369,
      "Ġfuerte": 3370,
      "ĠprevenciÃ³n": 3371,
      "ÃŃr": 3372,
      "Ġpromover": 3373,
      "Ġcircu": 3374,
      "lÃ©s": 3375,
      "cti": 3376,
      "1999": 3377,
      "neces": 3378,
      "Ġdictamen": 3379,
      "97": 3380,
      "Ġfortal": 3381,
      "jeros": 3382,
      "tem": 3383,
      "Ġacon": 3384,
      "Ġinferior": 3385,
      "Ġadu": 3386,
      "lecciÃ³n": 3387,
      "Ġmismos": 3388,
      "Ġjuego": 3389,
      "rido": 3390,
      "Ġmus": 3391,
      "ĠmÃ©dico": 3392,
      "Ġutilizar": 3393,
      "cons": 3394,
      "Ġpregunta": 3395,
      "Ġedu": 3396,
      "ry": 3397,
      "ĠpelÃŃ": 3398,
      "ĠeconÃ³micos": 3399,
      "Ġplen": 3400,
      "Ġperfec": 3401,
      "Ġcontar": 3402,
      "Ġfar": 3403,
      "Ġriesgos": 3404,
      "Ġvar": 3405,
      "dado": 3406,
      "ctr": 3407,
      "Ġconcentr": 3408,
      "ÃŃri": 3409,
      "Ġoportunidad": 3410,
      "fÃŃa": 3411,
      "ĠespaÃ±ol": 3412,
      "Ġfigu": 3413,
      "37": 3414,
      "Ġdro": 3415,
      "100": 3416,
      "bu": 3417,
      "Ġcomplemen": 3418,
      "Ġhabl": 3419,
      "Ġpresupuestaria": 3420,
      "ĠcrÃŃ": 3421,
      "Ġdenomin": 3422,
      "Ġiniciativa": 3423,
      "ĠpolÃŃtico": 3424,
      "arca": 3425,
      "Ġaplicar": 3426,
      "teras": 3427,
      "Ġenfr": 3428,
      "94": 3429,
      "Ġjunta": 3430,
      "ĠpolÃŃticos": 3431,
      "cina": 3432,
      "Ġlograr": 3433,
      "Ġsra": 3434,
      "Ġcomien": 3435,
      "08": 3436,
      "Ġdep": 3437,
      "istema": 3438,
      "Ġacre": 3439,
      "ner": 3440,
      "Ġgrave": 3441,
      "dice": 3442,
      "quiera": 3443,
      "04": 3444,
      "Ġsabes": 3445,
      "Ġclaro": 3446,
      "Ġiii": 3447,
      "muy": 3448,
      "Ġescuela": 3449,
      "ĠpÃºblicos": 3450,
      "Ġpasar": 3451,
      "trado": 3452,
      "ĠamÃ©rica": 3453,
      "Ġmensa": 3454,
      "ÃŃgen": 3455,
      "Ġantigu": 3456,
      "segÃºn": 3457,
      "Ġrur": 3458,
      "Ġpad": 3459,
      "idaciÃ³n": 3460,
      "57": 3461,
      "ianza": 3462,
      "Ġcontrato": 3463,
      "Ġsor": 3464,
      "Ġviolencia": 3465,
      "Ġestablecen": 3466,
      "Ġparticipar": 3467,
      "Ġpun": 3468,
      "Ġportu": 3469,
      "Ġcapa": 3470,
      "Ġparticipantes": 3471,
      "Ġconocimiento": 3472,
      "Ġtrabajador": 3473,
      "tero": 3474,
      "ĠespÃŃri": 3475,
      "comun": 3476,
      "mer": 3477,
      "Ġmateriales": 3478,
      "idores": 3479,
      "Ġglobal": 3480,
      "dÃ©": 3481,
      "06": 3482,
      "Ġ*": 3483,
      "tres": 3484,
      "ĠadopciÃ³n": 3485,
      "titud": 3486,
      "eca": 3487,
      "cÃ³": 3488,
      "Ġbon": 3489,
      "Ġmenor": 3490,
      "Ġdefensa": 3491,
      "vech": 3492,
      "Ġdesign": 3493,
      "Ġagra": 3494,
      "Ġaustr": 3495,
      "Ġexamin": 3496,
      "ĠÃ³": 3497,
      "Ġcompromiso": 3498,
      "alizar": 3499,
      "Ġimpa": 3500,
      "ĠrÃŃo": 3501,
      "ĠgÃ©n": 3502,
      "ticamente": 3503,
      "cola": 3504,
      "Ġenfermedad": 3505,
      "Ġteniendo": 3506,
      "imonio": 3507,
      "ĠÃ¡rea": 3508,
      "Ġterceros": 3509,
      "Ġelev": 3510,
      "torias": 3511,
      "ĠÃ¡frica": 3512,
      "ĠperiÃ³": 3513,
      "Ġfinanciero": 3514,
      "quir": 3515,
      "vÃ©ase": 3516,
      "Ġtransi": 3517,
      "tt": 3518,
      "Ġcompon": 3519,
      "Ġconm": 3520,
      "Ġvigil": 3521,
      "Ġescrito": 3522,
      "Ġtemas": 3523,
      "ĠinglÃ©s": 3524,
      "Ġespos": 3525,
      "Ġbancos": 3526,
      "Ġnombr": 3527,
      "ĠtÃ©cnicas": 3528,
      "Ġtro": 3529,
      "Ġcuyo": 3530,
      "laciones": 3531,
      "Ġfundamental": 3532,
      "didos": 3533,
      "Ġtex": 3534,
      ".\"": 3535,
      "2000": 3536,
      "ĠcontinuaciÃ³n": 3537,
      "Ġconstituye": 3538,
      "Ġinternet": 3539,
      "Ġmanifes": 3540,
      "ficul": 3541,
      "Ġtrabajar": 3542,
      "ducido": 3543,
      "Ġdio": 3544,
      "partida": 3545,
      "amÃ¡": 3546,
      "Ġcarr": 3547,
      "98": 3548,
      "ĠcolaboraciÃ³n": 3549,
      "fu": 3550,
      "consider": 3551,
      "tÃ³r": 3552,
      "Ġespecific": 3553,
      "Ġsolicitudes": 3554,
      "56": 3555,
      "Ġcandida": 3556,
      "Ġgal": 3557,
      "Ġconocer": 3558,
      "Ã¡ticos": 3559,
      "Ġpros": 3560,
      "Ġcompeti": 3561,
      "Ġdificul": 3562,
      "Ġprofesionales": 3563,
      "Ġjudi": 3564,
      "Ġga": 3565,
      "Ġcump": 3566,
      "Ġsuelo": 3567,
      "Ġterren": 3568,
      "anexo": 3569,
      "tiendo": 3570,
      "Ġmanos": 3571,
      "ĠacompaÃ±": 3572,
      "ĠgarantÃŃa": 3573,
      "Ġjustific": 3574,
      "Ġfinancieras": 3575,
      "quiere": 3576,
      "ĠdistribuciÃ³n": 3577,
      "Ġlec": 3578,
      "Ġmejora": 3579,
      "pal": 3580,
      "Ġcara": 3581,
      "poco": 3582,
      "Ġnecesita": 3583,
      "Ġbaja": 3584,
      "Ġestructura": 3585,
      "Ġigualdad": 3586,
      "Ġconcepto": 3587,
      "are": 3588,
      "Ġ60": 3589,
      "Ġjos": 3590,
      "Ġfase": 3591,
      "Ġcorre": 3592,
      "Ġespera": 3593,
      "ĠvÃŃcti": 3594,
      "sr": 3595,
      "for": 3596,
      "sabes": 3597,
      "Ġoficiales": 3598,
      "44": 3599,
      "Ġhacen": 3600,
      "ulaciÃ³n": 3601,
      "Ġactos": 3602,
      "Ġadoptado": 3603,
      "Ġjes": 3604,
      "ordar": 3605,
      "Ġben": 3606,
      "Ġplanes": 3607,
      "ĠespÃŃritu": 3608,
      "irÃ¡n": 3609,
      "pati": 3610,
      "Ġensa": 3611,
      "Ġgobern": 3612,
      "Ġconsol": 3613,
      "Ġdesarrollar": 3614,
      "Ġpagos": 3615,
      "92": 3616,
      "Ġenfo": 3617,
      "Ġlon": 3618,
      "Ġrelacionados": 3619,
      "Ġalimen": 3620,
      "Ġcalle": 3621,
      "Ġdisfru": 3622,
      "Ġpoten": 3623,
      "Ġamigos": 3624,
      "Ġber": 3625,
      "Ġcomerciales": 3626,
      "ĠcapÃŃtulo": 3627,
      "Ġsubvenciones": 3628,
      "Ã©tica": 3629,
      "dimiento": 3630,
      "quen": 3631,
      "Ġexterior": 3632,
      "Ġadministrativa": 3633,
      "Ġcompro": 3634,
      "Ã¡fico": 3635,
      "Ġreforma": 3636,
      "ĠdÃ³nde": 3637,
      "ferencias": 3638,
      "viv": 3639,
      "Ġmovimiento": 3640,
      "Ġvic": 3641,
      "Ġpod": 3642,
      "ĠenseÃ±anza": 3643,
      "ĠconcesiÃ³n": 3644,
      "Ġpresencia": 3645,
      "Ġustedes": 3646,
      "Ġcerr": 3647,
      "Ġrecuer": 3648,
      "Ġtoma": 3649,
      "enso": 3650,
      "puede": 3651,
      "Ġministro": 3652,
      "Ġalre": 3653,
      "Ġmunicipal": 3654,
      "ĠaÃ±ad": 3655,
      "02": 3656,
      "Ġretir": 3657,
      "........": 3658,
      "Ġeuropeos": 3659,
      "torno": 3660,
      "Ġpin": 3661,
      "Ġira": 3662,
      "Ġpales": 3663,
      "Ġincluidos": 3664,
      "Ġdom": 3665,
      "Ġselec": 3666,
      "Ġquienes": 3667,
      "istÃ¡n": 3668,
      "tienes": 3669,
      "ĠÃ©sta": 3670,
      "Ġterrorismo": 3671,
      "Ġnav": 3672,
      "ork": 3673,
      "Ġresponsable": 3674,
      "Ġtengan": 3675,
      "ĠduraciÃ³n": 3676,
      "misiÃ³n": 3677,
      "Ġros": 3678,
      "Ġinspec": 3679,
      "Ġfines": 3680,
      "Ġsangre": 3681,
      "Ġaban": 3682,
      "99": 3683,
      "Ġfacul": 3684,
      "Ġfigura": 3685,
      "ÃŃos": 3686,
      "Ġministerio": 3687,
      "Ġacciden": 3688,
      "ĠestarÃ¡": 3689,
      "Ġambos": 3690,
      "Ġrecomendaciones": 3691,
      "ulas": 3692,
      "Ġextre": 3693,
      "rag": 3694,
      "nunca": 3695,
      "Ġfinales": 3696,
      "58": 3697,
      "hi": 3698,
      "Ġinstituto": 3699,
      "ĠcondiciÃ³n": 3700,
      "Ġ196": 3701,
      "ĠintervenciÃ³n": 3702,
      "Ġrefu": 3703,
      "Ġelim": 3704,
      "cidad": 3705,
      "aste": 3706,
      "Ġpeligros": 3707,
      "Ġagricultura": 3708,
      "32": 3709,
      "zada": 3710,
      "Ġaire": 3711,
      "Ġalum": 3712,
      "ĠintegraciÃ³n": 3713,
      "Ġdeterminados": 3714,
      "Ġcamp": 3715,
      "Ġconseguir": 3716,
      "Ġnormativa": 3717,
      "Ġ---": 3718,
      "logÃŃas": 3719,
      "ĠÎ": 3720,
      "Ġbru": 3721,
      "Ġseguimiento": 3722,
      "ok": 3723,
      "itario": 3724,
      "Ġapr": 3725,
      "Ġpeti": 3726,
      "tim": 3727,
      "Ġextraordin": 3728,
      "Ġexpertos": 3729,
      "31": 3730,
      "gc": 3731,
      "Ġrequer": 3732,
      "Ġeduca": 3733,
      "Ġinfraestruc": 3734,
      "iores": 3735,
      "Ġalcanzar": 3736,
      "Ġojos": 3737,
      "Ġsostenible": 3738,
      "Ġbur": 3739,
      "Ġestaban": 3740,
      "Ġaguas": 3741,
      "remos": 3742,
      "sus": 3743,
      "ĠallÃ¡": 3744,
      "Ġindustrial": 3745,
      "Ġbarr": 3746,
      "Ġprome": 3747,
      "Ġorg": 3748,
      "âĢĵ": 3749,
      "Ġinversiones": 3750,
      "burgo": 3751,
      "Ġanteriores": 3752,
      "Ġindica": 3753,
      "mira": 3754,
      "Ġradio": 3755,
      "Ġconforme": 3756,
      "ĠÃ³rgano": 3757,
      "Ġpropiedad": 3758,
      "ĠmÃŃo": 3759,
      "Ġactualmente": 3760,
      "ille": 3761,
      "cÃŃas": 3762,
      "Ġmuestra": 3763,
      "Ġsem": 3764,
      "hasta": 3765,
      "omas": 3766,
      "hn": 3767,
      "ĠevoluciÃ³n": 3768,
      "Ġdebemos": 3769,
      "ix": 3770,
      "ete": 3771,
      "ĠimportaciÃ³n": 3772,
      "taur": 3773,
      "Ã¡logo": 3774,
      "Ġ1997": 3775,
      "Ġincluye": 3776,
      "Ġpagar": 3777,
      "Ġpropios": 3778,
      "capaci": 3779,
      "Ġquis": 3780,
      "deb": 3781,
      "illas": 3782,
      "Ã³sito": 3783,
      "34": 3784,
      "ki": 3785,
      "Ġcuadro": 3786,
      "Ġperspec": 3787,
      "Ġdiez": 3788,
      "tom": 3789,
      "tiles": 3790,
      "Ġcic": 3791,
      "Ġnaturales": 3792,
      "Ġequival": 3793,
      "Ġmatr": 3794,
      "Ġgre": 3795,
      "Ġ90": 3796,
      "bia": 3797,
      "Ġimporta": 3798,
      "vos": 3799,
      "Ġequipos": 3800,
      "Ġreuniones": 3801,
      "Ġcolor": 3802,
      "Ġerr": 3803,
      "Ġparcial": 3804,
      "ĠexplotaciÃ³n": 3805,
      "Ġemis": 3806,
      "Ġ2011": 3807,
      "itas": 3808,
      "tenemos": 3809,
      "uls": 3810,
      "ĠmÃ©xico": 3811,
      "Ġofer": 3812,
      "ĠdiscriminaciÃ³n": 3813,
      "Ġdiario": 3814,
      "Ġcontacto": 3815,
      "Ġnave": 3816,
      "Ġdeterminar": 3817,
      "Ġnecesaria": 3818,
      "visto": 3819,
      "Ġpronto": 3820,
      "Ġprovo": 3821,
      "ucr": 3822,
      "ĠejÃ©r": 3823,
      "ĠprevÃ©": 3824,
      "Ġub": 3825,
      "Ġge": 3826,
      "Ġpresentado": 3827,
      "Ġestablecidos": 3828,
      "Ġaprobado": 3829,
      "ĠdocumentaciÃ³n": 3830,
      "tienen": 3831,
      "Ġenerg": 3832,
      "ĠquÃŃ": 3833,
      "ierda": 3834,
      "vieron": 3835,
      "Ġsemanas": 3836,
      "Ġocu": 3837,
      "Ġtram": 3838,
      "Ġpuerta": 3839,
      "ĠconstituciÃ³n": 3840,
      "Ġdiferencia": 3841,
      "Ġocciden": 3842,
      "Ġpadres": 3843,
      "ian": 3844,
      "Ġpertinentes": 3845,
      "Ġeficaz": 3846,
      "lio": 3847,
      "Ġcompens": 3848,
      "Ġirlan": 3849,
      "Ġreserva": 3850,
      "Ġdiversos": 3851,
      "Ġsanta": 3852,
      "idar": 3853,
      "Ġpueblos": 3854,
      "ĠeconÃ³micas": 3855,
      "Ġgeneralidad": 3856,
      "Ġul": 3857,
      "Ġpeso": 3858,
      "ty": 3859,
      "Ġnecesarios": 3860,
      "Ġcorte": 3861,
      "Ġdise": 3862,
      "Â´": 3863,
      "ĠmÃ©todos": 3864,
      "uelo": 3865,
      "Ġadquir": 3866,
      "Ġsalir": 3867,
      "zca": 3868,
      "hu": 3869,
      "contin": 3870,
      "Ġespaci": 3871,
      "Ġcie": 3872,
      "Ġreclam": 3873,
      "Ġtradici": 3874,
      "91": 3875,
      "Ġexac": 3876,
      "cando": 3877,
      "Ġfuncionarios": 3878,
      "Ġagentes": 3879,
      "Ġjap": 3880,
      "Ġfom": 3881,
      "Ġperjuicio": 3882,
      "Ġlin": 3883,
      "Ġdichos": 3884,
      "esper": 3885,
      "Ġhubiera": 3886,
      "metros": 3887,
      "Ġconsiguiente": 3888,
      "Ġcuarto": 3889,
      "Ġfoto": 3890,
      "quilibr": 3891,
      "Ġunidades": 3892,
      "ĠmÃ¡qu": 3893,
      "Ġ1996": 3894,
      "biÃ³": 3895,
      "Ġpartida": 3896,
      "ÃŃti": 3897,
      "Ġpresidencia": 3898,
      "Ġexteriores": 3899,
      "Ġid": 3900,
      "lin": 3901,
      "Ġitalia": 3902,
      "Ġescala": 3903,
      "zan": 3904,
      "ĠmÃ¡xima": 3905,
      "portes": 3906,
      "Ġprimeros": 3907,
      "Ġdesarroll": 3908,
      "Ġcentrales": 3909,
      "ĠaÃ©": 3910,
      "Ġaprue": 3911,
      "Ġllamado": 3912,
      "Ġabandon": 3913,
      "Ġ1995": 3914,
      "Ġindependiente": 3915,
      "Ġjuris": 3916,
      "deo": 3917,
      "Ã©is": 3918,
      "quiz": 3919,
      "lle": 3920,
      "Ġbajos": 3921,
      "Ġrecibir": 3922,
      "Ġleyes": 3923,
      "Ġarchivo": 3924,
      "Ġsala": 3925,
      "Ġmotivo": 3926,
      "Ġpobreza": 3927,
      "usted": 3928,
      "Ġcostes": 3929,
      "enci": 3930,
      "Ġ'": 3931,
      "iles": 3932,
      "Ġredes": 3933,
      "Ġidentific": 3934,
      "Ġgar": 3935,
      "Ġdeterminadas": 3936,
      "Ġcarre": 3937,
      "Ġlig": 3938,
      "podr": 3939,
      "Ġdesapar": 3940,
      "ĠtÃ©cnico": 3941,
      "Ġaus": 3942,
      "ĠhistÃ³r": 3943,
      "nues": 3944,
      "ĠpÃ¡gina": 3945,
      "diciÃ³n": 3946,
      "Ġhal": 3947,
      "ĠpodÃŃa": 3948,
      "ph": 3949,
      "ĠvehÃŃculos": 3950,
      "Ġadministraciones": 3951,
      "Ġri": 3952,
      "Ġproteger": 3953,
      "ĠestÃ©n": 3954,
      "Ġmemor": 3955,
      "Ġsufr": 3956,
      "Ġprem": 3957,
      "75": 3958,
      "Ġsuperficie": 3959,
      "Ġcomba": 3960,
      "ps": 3961,
      "illos": 3962,
      "Ġconmigo": 3963,
      "pital": 3964,
      "Ġprincipalmente": 3965,
      "Ġbio": 3966,
      "Ġconstru": 3967,
      "Ġmaterias": 3968,
      "Ġcontempl": 3969,
      "Ġcomunes": 3970,
      "Ġcole": 3971,
      "Ġprivado": 3972,
      "Ġenv": 3973,
      "ĠobligaciÃ³n": 3974,
      "Ġsuel": 3975,
      "Ġautom": 3976,
      "ĠcÃ¡mar": 3977,
      "colas": 3978,
      "wa": 3979,
      "Ġsolamente": 3980,
      "Ġafr": 3981,
      "Ġvolumen": 3982,
      "Ġhaga": 3983,
      "Ġ1994": 3984,
      "Ġperiodo": 3985,
      "Ġalrededor": 3986,
      "Ġelecciones": 3987,
      "Ġestabilidad": 3988,
      "Ġjoven": 3989,
      "asimismo": 3990,
      "ft": 3991,
      "Ġdr": 3992,
      "ley": 3993,
      "Ġarmon": 3994,
      "Ġexisten": 3995,
      "hor": 3996,
      "Ġaprovech": 3997,
      "sen": 3998,
      "Ġhumano": 3999,
      "Ġfrances": 4000,
      "considerando": 4001,
      "Ġinterna": 4002,
      "Ġcomprome": 4003,
      "yas": 4004,
      "ĠoperaciÃ³n": 4005,
      "Ġuni": 4006,
      "Ġdistintas": 4007,
      "Ġconjun": 4008,
      "serv": 4009,
      "curso": 4010,
      "ĠdelegaciÃ³n": 4011,
      "Ġdesc": 4012,
      "ĠpequeÃ±o": 4013,
      "38": 4014,
      "Ġpresenta": 4015,
      "bajo": 4016,
      "ste": 4017,
      "ĠÃ©po": 4018,
      "ĠelaboraciÃ³n": 4019,
      "Ġmatar": 4020,
      "Ġ35": 4021,
      "ĠrevisiÃ³n": 4022,
      "Ġreservas": 4023,
      "Ã©ctr": 4024,
      "Ġdiversas": 4025,
      "Ġdije": 4026,
      "Ġrazones": 4027,
      "Ġrecog": 4028,
      "Ġsatisf": 4029,
      "istencia": 4030,
      "Ġnumeros": 4031,
      "Ġprom": 4032,
      "ĠmÃºsica": 4033,
      "Ġrelacionadas": 4034,
      "aÃ±o": 4035,
      ".)": 4036,
      "Ġescol": 4037,
      "Ġbri": 4038,
      "Ġdig": 4039,
      "76": 4040,
      "ff": 4041,
      "Ġfru": 4042,
      "reci": 4043,
      "Ġdestino": 4044,
      "Ġfle": 4045,
      "Ġdosis": 4046,
      "Ġtratar": 4047,
      "Ġagencia": 4048,
      "Ġiniciativas": 4049,
      "Ġmejores": 4050,
      "izado": 4051,
      "Ġreno": 4052,
      "Ġdiscu": 4053,
      "Ġbastante": 4054,
      "Ġrecha": 4055,
      "Ġnega": 4056,
      "Ġcontrario": 4057,
      "Ġrespeto": 4058,
      "ĠÃ¡n": 4059,
      "ĠactuaciÃ³n": 4060,
      "bernamentales": 4061,
      "Ġmandato": 4062,
      "Ġbuscar": 4063,
      "Ġasegurar": 4064,
      "jan": 4065,
      "Ġsolu": 4066,
      "Ġ...": 4067,
      "ĠdiÃ¡logo": 4068,
      "ĠsupervisiÃ³n": 4069,
      "Ġbeb": 4070,
      "Ġadelante": 4071,
      "ĠejÃ©rcito": 4072,
      "Ġorganismo": 4073,
      "Ġcontam": 4074,
      "Ã¡ticas": 4075,
      "Ġdispone": 4076,
      "Ġnegociaciones": 4077,
      "Ġabsolu": 4078,
      "erÃŃa": 4079,
      "icios": 4080,
      "Ġblo": 4081,
      "ĠmercancÃŃas": 4082,
      "Ġexport": 4083,
      "Ġhogar": 4084,
      "Ġjornada": 4085,
      "Ġcel": 4086,
      "ciente": 4087,
      "Ġresulta": 4088,
      "Ġreconocimiento": 4089,
      "ficiencia": 4090,
      "Ġcircunstancias": 4091,
      "Ġprovincia": 4092,
      "eran": 4093,
      "Ġfiscal": 4094,
      "Ġeficacia": 4095,
      "ĠpasÃ³": 4096,
      "Ġconden": 4097,
      "Ġprocesos": 4098,
      "Ġgeo": 4099,
      "Ġbra": 4100,
      "Ġprove": 4101,
      "itada": 4102,
      "ĠcÃ¡l": 4103,
      "Ġaplicables": 4104,
      "ĠexportaciÃ³n": 4105,
      "Ġimpacto": 4106,
      "ĠpequeÃ±as": 4107,
      "Ġprevistas": 4108,
      "tÃŃn": 4109,
      "mbre": 4110,
      "Ġexistentes": 4111,
      "Ġargen": 4112,
      "ĠsubvenciÃ³n": 4113,
      "Ġtemp": 4114,
      "Ġcolo": 4115,
      "Ġdipu": 4116,
      "ance": 4117,
      "tÃ©n": 4118,
      "Ġflu": 4119,
      "Ġcompetentes": 4120,
      "],": 4121,
      "Ġtre": 4122,
      "Ġcere": 4123,
      "ĠtendrÃ¡n": 4124,
      "Ġmodificado": 4125,
      "Ġrelativos": 4126,
      "oluciones": 4127,
      "Ġlugares": 4128,
      "Ġjuan": 4129,
      "Ġgraves": 4130,
      "torios": 4131,
      "Ġcompetente": 4132,
      "Ġrespecta": 4133,
      "??": 4134,
      "Ġexistencia": 4135,
      "Ġcultural": 4136,
      "quÃŃa": 4137,
      "Ġmonta": 4138,
      "Ġconvoca": 4139,
      "inado": 4140,
      "Ġtercera": 4141,
      "Ġestatuto": 4142,
      "ĠcampaÃ±a": 4143,
      "Ġ36": 4144,
      "quieres": 4145,
      "Ġâ": 4146,
      "Ġapropi": 4147,
      "Ġconsecuencias": 4148,
      "Ġapor": 4149,
      "iber": 4150,
      "Ġom": 4151,
      "Ġurbanismo": 4152,
      "Ġacredi": 4153,
      "Ġalimentos": 4154,
      "Ġmesa": 4155,
      "centa": 4156,
      "Ġfundamentales": 4157,
      "Ġ1990": 4158,
      "Ġubic": 4159,
      "trices": 4160,
      "medi": 4161,
      "Ġmg": 4162,
      "ĠpodrÃŃan": 4163,
      "dÃŃ": 4164,
      "Ġlevan": 4165,
      "Ġofrece": 4166,
      "Ġ1992": 4167,
      "Ġbcn": 4168,
      "Ġconex": 4169,
      "Ġtratados": 4170,
      "ĠgÃ©nero": 4171,
      "land": 4172,
      "Ġhid": 4173,
      "78": 4174,
      "Ġimper": 4175,
      "anÃŃa": 4176,
      "tidades": 4177,
      "Ġmarcha": 4178,
      "Ġdichas": 4179,
      "tuvo": 4180,
      "ĠpequeÃ±a": 4181,
      "fon": 4182,
      "gica": 4183,
      "Ġexcep": 4184,
      "Ġprovisional": 4185,
      "Ġham": 4186,
      "erte": 4187,
      "Ġ2012": 4188,
      "Ġenci": 4189,
      "Ġtareas": 4190,
      "isos": 4191,
      "Ġasesor": 4192,
      "idor": 4193,
      "Ġencuentran": 4194,
      "deres": 4195,
      "Ġresiduos": 4196,
      "ut": 4197,
      "Ġeta": 4198,
      "Ġmayores": 4199,
      "Ġconstituy": 4200,
      "ĠorientaciÃ³n": 4201,
      "Ġinstrumento": 4202,
      "Ġduda": 4203,
      "cionar": 4204,
      "Ġclave": 4205,
      "tidas": 4206,
      "Ġiv": 4207,
      "Ġcosta": 4208,
      "ĠespecÃŃficas": 4209,
      "ĠdesempeÃ±": 4210,
      "Ġcarne": 4211,
      "Ġesencial": 4212,
      "Ġtransmi": 4213,
      "Ġesfer": 4214,
      "Ġsede": 4215,
      "Ġvivir": 4216,
      "Ġhermano": 4217,
      "Ġbeneficios": 4218,
      "Ġjer": 4219,
      "Ġmonetaria": 4220,
      "Ġpra": 4221,
      "echo": 4222,
      "americ": 4223,
      "Ġposib": 4224,
      "Ġrepro": 4225,
      "Ġpreven": 4226,
      "Ġdiv": 4227,
      "ello": 4228,
      "ĠcirculaciÃ³n": 4229,
      "2007": 4230,
      "Ġemer": 4231,
      "Ġcapit": 4232,
      "Ġbras": 4233,
      "Ġ1993": 4234,
      "Ġplata": 4235,
      "ensiÃ³n": 4236,
      "Ġcompetencias": 4237,
      "0000": 4238,
      "Ġmitad": 4239,
      "ienta": 4240,
      "ĠpelÃŃcula": 4241,
      "Ġadmi": 4242,
      "Ġentrar": 4243,
      "Ġalterna": 4244,
      "Ġperci": 4245,
      "-Â¡": 4246,
      "Ġadicional": 4247,
      "Ġcarga": 4248,
      "Ġresolver": 4249,
      "ativo": 4250,
      "Ġliqu": 4251,
      "cluy": 4252,
      "Ġedific": 4253,
      "bios": 4254,
      "Ġdev": 4255,
      "ĠprÃ©stamos": 4256,
      "Ġhumana": 4257,
      "Ġviene": 4258,
      "Ġtecn": 4259,
      "Ġrefor": 4260,
      "tualmente": 4261,
      "Ġasum": 4262,
      "imientos": 4263,
      "irma": 4264,
      "Ġpenal": 4265,
      "mor": 4266,
      "Ġexter": 4267,
      "ĠsÃŃn": 4268,
      "Ġcompor": 4269,
      "agen": 4270,
      "Ġcontratos": 4271,
      "Ġsuces": 4272,
      "Ġincu": 4273,
      "ĠdeberÃŃan": 4274,
      "Ġalmacen": 4275,
      "inter": 4276,
      "ĠcompaÃ±ÃŃa": 4277,
      "Ġcuo": 4278,
      "Ã³l": 4279,
      "Ġkm": 4280,
      "Ġvigilancia": 4281,
      "ĠÃº": 4282,
      "puedo": 4283,
      "Ġambiental": 4284,
      "ĠquerÃŃa": 4285,
      "dÃ³n": 4286,
      "Ġadver": 4287,
      "Ġpreguntas": 4288,
      "dere": 4289,
      "Ġvoluntad": 4290,
      "ack": 4291,
      "ĠlÃŃmite": 4292,
      "Ġbrus": 4293,
      "Ġ=": 4294,
      "Ġpreten": 4295,
      "Ġregular": 4296,
      "Ġconsulta": 4297,
      "presiden": 4298,
      "Ġfl": 4299,
      "Ġrusia": 4300,
      "Ġincluir": 4301,
      "Ġmodifica": 4302,
      "ĠjurÃŃdica": 4303,
      "fra": 4304,
      "ĠestadÃŃsticas": 4305,
      "Ġurb": 4306,
      "âĢ¦": 4307,
      "mej": 4308,
      "ĠÃºnicamente": 4309,
      "oro": 4310,
      "ĠagrÃŃcolas": 4311,
      "Ġbases": 4312,
      "Ġperm": 4313,
      "ilares": 4314,
      "acciones": 4315,
      "Ġoro": 4316,
      "Ġviaje": 4317,
      "Ġsola": 4318,
      "Ã³vil": 4319,
      "Ġdispar": 4320,
      "giados": 4321,
      "Ġconocimientos": 4322,
      "Ġinci": 4323,
      "ĠÃ©poca": 4324,
      "Ġiz": 4325,
      "ĠadhesiÃ³n": 4326,
      "ĠtecnologÃŃas": 4327,
      "Ġmetros": 4328,
      "dieron": 4329,
      "sub": 4330,
      "Ã¶": 4331,
      "49": 4332,
      "Ġhechos": 4333,
      "Ġfuentes": 4334,
      "estamos": 4335,
      "Ġposibles": 4336,
      "Ġmoneda": 4337,
      "70": 4338,
      "Ġexce": 4339,
      "Ġrum": 4340,
      "Ġdeuda": 4341,
      "Ġusuarios": 4342,
      "Ġlleva": 4343,
      "Ġdisposi": 4344,
      "Ġsalvo": 4345,
      "ĠdefiniciÃ³n": 4346,
      "66": 4347,
      "ĠgustarÃŃa": 4348,
      "ĠversiÃ³n": 4349,
      "cÃ©s": 4350,
      "edores": 4351,
      "39": 4352,
      "Ġquiz": 4353,
      "tuales": 4354,
      "1998": 4355,
      "Ġregistr": 4356,
      "ĠrÃ¡pido": 4357,
      "ĠelÃ©ctr": 4358,
      "Ġespecies": 4359,
      "Ġproductores": 4360,
      "Ġtasa": 4361,
      "Ġrealizado": 4362,
      "gÃ¼": 4363,
      "ivamente": 4364,
      "Ġmuerto": 4365,
      "Ġnormal": 4366,
      "itaciÃ³n": 4367,
      "ĠprestaciÃ³n": 4368,
      "Ġfederal": 4369,
      "usti": 4370,
      "Ġinterven": 4371,
      "Ġ38": 4372,
      "ĠampliaciÃ³n": 4373,
      "Ġpec": 4374,
      "ĠhabrÃŃa": 4375,
      "Ġusar": 4376,
      "ĠordenaciÃ³n": 4377,
      "ris": 4378,
      "edo": 4379,
      "Ġeurosistema": 4380,
      "Ġincluidas": 4381,
      "Ġretr": 4382,
      "ĠcrÃ©ditos": 4383,
      "Ġpedir": 4384,
      "uniden": 4385,
      "Ġarte": 4386,
      "ĠharÃ¡": 4387,
      "Ġencan": 4388,
      "Ġcorpor": 4389,
      "imas": 4390,
      "42": 4391,
      "Ġestablecidas": 4392,
      "Ġdoctor": 4393,
      "Ġtranspar": 4394,
      "Ġinicial": 4395,
      "Ġalcance": 4396,
      "cuer": 4397,
      "itan": 4398,
      "Ġasimismo": 4399,
      "gando": 4400,
      "mal": 4401,
      "Ġclub": 4402,
      "Ġserio": 4403,
      "Ġconflicto": 4404,
      "Ġinflu": 4405,
      "Ġmotivos": 4406,
      "Ġarti": 4407,
      "ĠmÃ©todo": 4408,
      "Ġdemanda": 4409,
      "Ġimportaciones": 4410,
      "Ġmecanismos": 4411,
      "Ġsalv": 4412,
      "Ġcualquiera": 4413,
      "voy": 4414,
      "Ġlimp": 4415,
      "ĠpreparaciÃ³n": 4416,
      "Ġmaes": 4417,
      "Ġescen": 4418,
      "ump": 4419,
      "Ġdescubr": 4420,
      "ĠnÂº": 4421,
      "claro": 4422,
      "Ġsecun": 4423,
      "Ġyork": 4424,
      "Ġreligios": 4425,
      "etas": 4426,
      "Ġoriginal": 4427,
      "Ġidi": 4428,
      "Ġrestaur": 4429,
      "ws": 4430,
      "Ġdescon": 4431,
      "Ġvincul": 4432,
      "lada": 4433,
      "Ġestudiantes": 4434,
      "Ġfactores": 4435,
      "und": 4436,
      "Ġja": 4437,
      "grafÃŃa": 4438,
      "Ġluc": 4439,
      "Ġimagen": 4440,
      "Ġincen": 4441,
      "Ġcontribuy": 4442,
      "Ġlegal": 4443,
      "Ġvelo": 4444,
      "Ġcop": 4445,
      "Ġcompleto": 4446,
      "Ġreda": 4447,
      "Ġincremen": 4448,
      "ĠrepresentaciÃ³n": 4449,
      "Ġintercambio": 4450,
      "iedad": 4451,
      "pers": 4452,
      "mico": 4453,
      "Ġ000": 4454,
      "ominaciÃ³n": 4455,
      "ĠdiseÃ±o": 4456,
      "ĠdivisiÃ³n": 4457,
      "ÃŃstico": 4458,
      "ĠcomercializaciÃ³n": 4459,
      "Ġdescrib": 4460,
      "Ġconflictos": 4461,
      "59": 4462,
      "Ġ00": 4463,
      "edad": 4464,
      "Ġcristi": 4465,
      "Ġpier": 4466,
      "ĠvÃŃctimas": 4467,
      "Ġmismas": 4468,
      "160": 4469,
      "Ġsh": 4470,
      "Ġporcenta": 4471,
      "Ġblanco": 4472,
      "ĠtrÃ¡fico": 4473,
      "Ġbille": 4474,
      "deber": 4475,
      "Ġefectivo": 4476,
      "Ġpeligro": 4477,
      "izados": 4478,
      "ĠtecnolÃ³g": 4479,
      "Ġincluyen": 4480,
      "gon": 4481,
      "sific": 4482,
      "Ġhonor": 4483,
      "Ġmenudo": 4484,
      "itarios": 4485,
      "Ġdisponibles": 4486,
      "Ġvoz": 4487,
      "Ġdoc": 4488,
      "Ġfuente": 4489,
      "Ġsalida": 4490,
      "ĠpresiÃ³n": 4491,
      "ĠÃ¡reas": 4492,
      "Ġcarb": 4493,
      "Ġalimentar": 4494,
      "nidad": 4495,
      "Ġtitular": 4496,
      "Ġsecund": 4497,
      "Ġenfoque": 4498,
      "Ġestadouniden": 4499,
      "Ġitali": 4500,
      "Ġtotalmente": 4501,
      "Ġnotific": 4502,
      "vista": 4503,
      "ale": 4504,
      "Ġproducir": 4505,
      "Ġacto": 4506,
      "Ġdolor": 4507,
      "Ġacus": 4508,
      "Ġexaminar": 4509,
      "Ġoportunidades": 4510,
      "Ġindependencia": 4511,
      "Ġmez": 4512,
      "Ġfamilias": 4513,
      "Ġdorm": 4514,
      "Ġcontigo": 4515,
      "Ġofrecer": 4516,
      "uela": 4517,
      "Ġhija": 4518,
      "Ġcubr": 4519,
      "prob": 4520,
      "talla": 4521,
      "Ġcomunitarias": 4522,
      "Ġclientes": 4523,
      "ato": 4524,
      "Ġsituaciones": 4525,
      "Ġeven": 4526,
      "Ġsuerte": 4527,
      "ĠvotaciÃ³n": 4528,
      "Ġraci": 4529,
      "Ġequilibr": 4530,
      "Ġciuda": 4531,
      "Ġprevia": 4532,
      "Ġcantidades": 4533,
      "Ġ80": 4534,
      "tÃŃas": 4535,
      "Ġmente": 4536,
      "Ġcompleta": 4537,
      "Ġentien": 4538,
      "Ġram": 4539,
      "zando": 4540,
      "ĠcategorÃŃas": 4541,
      "Ġconocido": 4542,
      "Ġprocede": 4543,
      "nia": 4544,
      "Ġconfianza": 4545,
      "ly": 4546,
      "queda": 4547,
      "Ġfuego": 4548,
      "Ġnu": 4549,
      "Ġprocedentes": 4550,
      "Ġmens": 4551,
      "Ġpuesta": 4552,
      "Ġdesplaz": 4553,
      "tÃ©g": 4554,
      "Ġcubier": 4555,
      "Ġarriba": 4556,
      "Ġquedar": 4557,
      "Ġculturales": 4558,
      "Ġfrecuencia": 4559,
      "sobre": 4560,
      "has": 4561,
      "ru": 4562,
      "Ġjudicial": 4563,
      "Ġterreno": 4564,
      "mir": 4565,
      "Ã¡b": 4566,
      "ĠfabricaciÃ³n": 4567,
      "Ġirlanda": 4568,
      "Ġrestric": 4569,
      "bos": 4570,
      "eraciÃ³n": 4571,
      "Ġsencil": 4572,
      "Ġbruselas": 4573,
      "Ġesposa": 4574,
      "Ġprensa": 4575,
      "Ġpensar": 4576,
      "Ġchica": 4577,
      "Ġfiguran": 4578,
      "ĠlÃŃmites": 4579,
      "at": 4580,
      "Ġizquier": 4581,
      "ĠpequeÃ±os": 4582,
      "Ġherram": 4583,
      "viÃ³": 4584,
      "yan": 4585,
      "Ġadicionales": 4586,
      "Ġdeseo": 4587,
      "mn": 4588,
      "Ġarro": 4589,
      "Ġimpos": 4590,
      "Ġentender": 4591,
      "anda": 4592,
      "ĠexcepciÃ³n": 4593,
      "mÃ¡n": 4594,
      "Ġmm": 4595,
      "ĠagrÃŃcola": 4596,
      "Ġiba": 4597,
      "iri": 4598,
      "ĠtÃ©cnicos": 4599,
      "Ġprevistos": 4600,
      "siempre": 4601,
      "pren": 4602,
      "Ġllama": 4603,
      "gamos": 4604,
      "Ġhabitantes": 4605,
      "Ġcontiene": 4606,
      "Ġjam": 4607,
      "Ġmensaje": 4608,
      "ticias": 4609,
      "Ġdrogas": 4610,
      "ys": 4611,
      "Ġexcel": 4612,
      "bus": 4613,
      "Ġgubernamentales": 4614,
      "Ġmiedo": 4615,
      "Ġinicio": 4616,
      "ficientes": 4617,
      "Ġtri": 4618,
      "Ġlis": 4619,
      "Ġpreciso": 4620,
      "Ġconclusiones": 4621,
      "Ġisla": 4622,
      "Ġciudades": 4623,
      "ĠllegÃ³": 4624,
      "Ġconvocatoria": 4625,
      "Ġvino": 4626,
      "Ġsociedades": 4627,
      "Ġaco": 4628,
      "ĠpacÃŃfic": 4629,
      "41": 4630,
      "adÃ¡": 4631,
      "Ġsustancias": 4632,
      "ĠhabrÃ¡": 4633,
      "Ġth": 4634,
      "Ġrural": 4635,
      "arial": 4636,
      "ira": 4637,
      "ĠestratÃ©g": 4638,
      "Ġentorno": 4639,
      "Ġdiferente": 4640,
      "Ġposibilidades": 4641,
      "ĠindÃŃgen": 4642,
      "ny": 4643,
      "comunic": 4644,
      "Ġmedicamentos": 4645,
      "Ġmenores": 4646,
      "Ġcuidado": 4647,
      "Ġinmediatamente": 4648,
      "trucciones": 4649,
      "Ġresoluciones": 4650,
      "Ġdirecta": 4651,
      "Ġllamada": 4652,
      "Ġamplia": 4653,
      "ude": 4654,
      "Ġerror": 4655,
      "Ġrecibido": 4656,
      "Ġcreer": 4657,
      "verdad": 4658,
      "sÃ©": 4659,
      "lon": 4660,
      "Ġhotel": 4661,
      "Ġcambiar": 4662,
      "Ġcarrera": 4663,
      "Ġhospital": 4664,
      "ĠjesÃºs": 4665,
      "Ġalquil": 4666,
      "bla": 4667,
      "Ã©simo": 4668,
      "Ġcielo": 4669,
      "terrÃ¡n": 4670,
      "ical": 4671,
      "Ġaproximadamente": 4672,
      "Ã³sitos": 4673,
      "enas": 4674,
      "Ġlegislativo": 4675,
      "ĠpreocupaciÃ³n": 4676,
      "Ġadquis": 4677,
      "genes": 4678,
      "ĠcÃ¡mara": 4679,
      "Ġmecanismo": 4680,
      "Ġplanta": 4681,
      "ĠconservaciÃ³n": 4682,
      "Ġ37": 4683,
      "Ġdirectrices": 4684,
      "Ġav": 4685,
      "ses": 4686,
      "Ġolvid": 4687,
      "cciones": 4688,
      "Ġadul": 4689,
      "alizado": 4690,
      "Ġsiete": 4691,
      "Ġislas": 4692,
      "Ġcoleg": 4693,
      "ĠdiseÃ±": 4694,
      "ĠpeticiÃ³n": 4695,
      "Ġace": 4696,
      "Ġjuntos": 4697,
      "Ġaduan": 4698,
      "Ġdogc": 4699,
      "Ġrecor": 4700,
      "Ġhaces": 4701,
      "Ġactivo": 4702,
      "ĠlÃŃneas": 4703,
      "Ġrenta": 4704,
      "Ġapoyar": 4705,
      "Ġcertific": 4706,
      "Ġ46": 4707,
      "Ġbuenos": 4708,
      "Ġoriental": 4709,
      "ieza": 4710,
      "Ġimpuestos": 4711,
      "ĠselecciÃ³n": 4712,
      "Ġep": 4713,
      "mes": 4714,
      "culas": 4715,
      "Ġconvertir": 4716,
      "tamientos": 4717,
      "1992": 4718,
      "Ġdemocracia": 4719,
      "Ġ(\"": 4720,
      "Ġobservaciones": 4721,
      "Ġvigente": 4722,
      "pide": 4723,
      "ĠÃ¡mbitos": 4724,
      "ide": 4725,
      "Ġdificultades": 4726,
      "ilo": 4727,
      "rid": 4728,
      "arme": 4729,
      "Ġcomentar": 4730,
      "Ġaero": 4731,
      "fil": 4732,
      "gente": 4733,
      "Ġvien": 4734,
      "Ġvivienda": 4735,
      "Ġfan": 4736,
      "Ġcoste": 4737,
      "Ġpacto": 4738,
      "caciÃ³n": 4739,
      "cemos": 4740,
      "Ġintelig": 4741,
      "Ġcrea": 4742,
      "eh": 4743,
      "jera": 4744,
      "Ġjuven": 4745,
      "Ġenmiendas": 4746,
      "Ġ2013": 4747,
      "Ġdistribu": 4748,
      "Ġsomos": 4749,
      "capÃŃtulo": 4750,
      "Ġvel": 4751,
      "Ã¤": 4752,
      "84": 4753,
      "od": 4754,
      "Ġactuaciones": 4755,
      "Ġdestinados": 4756,
      "mientras": 4757,
      "Ġenorm": 4758,
      "Ġfomentar": 4759,
      "Ġbanda": 4760,
      "Ġcertificado": 4761,
      "itado": 4762,
      "ĠelecciÃ³n": 4763,
      "Ġafectados": 4764,
      "fono": 4765,
      "Ġtampoco": 4766,
      "Ġplenamente": 4767,
      "tador": 4768,
      "Ġsubsi": 4769,
      "ĠcontribuciÃ³n": 4770,
      "ĠprÃ³ximo": 4771,
      "Ġveo": 4772,
      "the": 4773,
      "micos": 4774,
      "Ġconvir": 4775,
      "Ġras": 4776,
      "Ġciencia": 4777,
      "Ġud": 4778,
      "Ġconsumidores": 4779,
      "escu": 4780,
      "Ġtemporal": 4781,
      "Ġposterior": 4782,
      "ĠpÃ©rdida": 4783,
      "Ġesperar": 4784,
      "51": 4785,
      "Ġib": 4786,
      "Ġsimilares": 4787,
      "Ãºcar": 4788,
      "Ġhel": 4789,
      "Ġimag": 4790,
      "Ġcomunicaciones": 4791,
      "Ġimplic": 4792,
      "ĠfrancÃ©s": 4793,
      "Ġbib": 4794,
      "Ġ1991": 4795,
      "Ġresponsables": 4796,
      "Ġlech": 4797,
      "fos": 4798,
      "Ġclaramente": 4799,
      "bel": 4800,
      "ĠjapÃ³n": 4801,
      "Ġjuicio": 4802,
      "Ġmilitares": 4803,
      "ĠtelÃ©": 4804,
      "Ġclasific": 4805,
      "Ġecus": 4806,
      "Ġordin": 4807,
      "54": 4808,
      "Ġmunicipio": 4809,
      "taba": 4810,
      "landia": 4811,
      "inte": 4812,
      "Ġesco": 4813,
      "Ġaper": 4814,
      "Ġpermiso": 4815,
      "Ġencima": 4816,
      "Ġindia": 4817,
      "Ġvul": 4818,
      "52": 4819,
      "Ġnucleares": 4820,
      "Ġedificio": 4821,
      "Ġdepor": 4822,
      "dicas": 4823,
      "imes": 4824,
      "ĠinstituciÃ³n": 4825,
      "nÃºm": 4826,
      "Ġhermos": 4827,
      "ĠdecidiÃ³": 4828,
      "Ġcompromisos": 4829,
      "dencias": 4830,
      "Ġgolpe": 4831,
      "Ġsupon": 4832,
      "Ġrefugiados": 4833,
      "Ġsiquiera": 4834,
      "09": 4835,
      "ĠnotificaciÃ³n": 4836,
      "puer": 4837,
      "tarÃ¡n": 4838,
      "ĠinnovaciÃ³n": 4839,
      "ifi": 4840,
      "Ġtransferencia": 4841,
      "hace": 4842,
      "tizaciÃ³n": 4843,
      "ualmente": 4844,
      "Ġdedic": 4845,
      "Ġaran": 4846,
      "Ġhabla": 4847,
      "alia": 4848,
      "toda": 4849,
      "Ġejecutivo": 4850,
      "Ġnie": 4851,
      "Ġadecuada": 4852,
      "tn": 4853,
      "82": 4854,
      "Ġcree": 4855,
      "Ġingen": 4856,
      "guar": 4857,
      "2008": 4858,
      "organ": 4859,
      "Ġdivi": 4860,
      "orro": 4861,
      "ĠcÃ¡n": 4862,
      "undido": 4863,
      "bres": 4864,
      "Ġpena": 4865,
      "Ġviejo": 4866,
      "Ġfamiliar": 4867,
      "Ġfes": 4868,
      "Ġcumbre": 4869,
      "Ġuniversi": 4870,
      "eciÃ³": 4871,
      "Ġtempera": 4872,
      "81": 4873,
      "emente": 4874,
      "tista": 4875,
      "ulos": 4876,
      "ĠeliminaciÃ³n": 4877,
      "pan": 4878,
      "Ġcongres": 4879,
      "Ġpare": 4880,
      "Ġconcer": 4881,
      "Ġdefens": 4882,
      "guas": 4883,
      "Ġllegado": 4884,
      "zcan": 4885,
      "algunos": 4886,
      "lad": 4887,
      "Ġenfermedades": 4888,
      "Ġescuch": 4889,
      "ĠdemocrÃ¡tica": 4890,
      "Ġabajo": 4891,
      "capacidad": 4892,
      "Ġcorresponde": 4893,
      "Ġdoble": 4894,
      "].": 4895,
      "Ġ70": 4896,
      "Ġnar": 4897,
      "cÃ³digo": 4898,
      "Ġanunci": 4899,
      "ĠautÃ³n": 4900,
      "Ġempleados": 4901,
      "ĠdeterminaciÃ³n": 4902,
      "Ġespecie": 4903,
      "Ġcontencios": 4904,
      "plan": 4905,
      "Ġciviles": 4906,
      "Ġanimal": 4907,
      "ĠjosÃ©": 4908,
      "entidad": 4909,
      "ciÃ³": 4910,
      "Ġmencionado": 4911,
      "Ġdigo": 4912,
      "Ġmotor": 4913,
      "2009": 4914,
      "xem": 4915,
      "ĠbritÃ¡n": 4916,
      "Ġministros": 4917,
      "Ġpuerto": 4918,
      "Ġquisiera": 4919,
      "Ġpropias": 4920,
      "Ġjusto": 4921,
      "Ġpotencial": 4922,
      "itaciones": 4923,
      "&#": 4924,
      "Ġcontribuir": 4925,
      "Ġ92": 4926,
      "viera": 4927,
      "Ġsiguen": 4928,
      "Ġdisponible": 4929,
      "83": 4930,
      "Ġocho": 4931,
      "tional": 4932,
      "sion": 4933,
      "Ġbilletes": 4934,
      "ham": 4935,
      ".-": 4936,
      "Ġps": 4937,
      "Ġexpediente": 4938,
      "Ġanun": 4939,
      "Ġaltura": 4940,
      "Ġgir": 4941,
      "cuÃ¡n": 4942,
      "ĠcontinÃº": 4943,
      "Ġsud": 4944,
      "Ġtrate": 4945,
      "Ġperiodis": 4946,
      "Ġabo": 4947,
      "Ġfas": 4948,
      "get": 4949,
      "Ġactualidad": 4950,
      "contra": 4951,
      "Ġvues": 4952,
      "Ġsuf": 4953,
      "Ġestructurales": 4954,
      "ĠtelevisiÃ³n": 4955,
      "Ġincluido": 4956,
      "dro": 4957,
      "Ġdiferencias": 4958,
      "lla": 4959,
      "ĠexposiciÃ³n": 4960,
      "ĠvehÃŃculo": 4961,
      "Ġmodificaciones": 4962,
      "Ġincluyendo": 4963,
      "Ġhom": 4964,
      "Ġaprueba": 4965,
      "crito": 4966,
      "53": 4967,
      "Ġcomprob": 4968,
      "Ġesca": 4969,
      "Ġacord": 4970,
      "tique": 4971,
      "Ġflex": 4972,
      "Ġces": 4973,
      "ĠÏ": 4974,
      "Ġresidentes": 4975,
      "Ġporcentaje": 4976,
      "ĠpresentÃ³": 4977,
      "Ġactuales": 4978,
      "Ġvuelta": 4979,
      "Ġremi": 4980,
      "solo": 4981,
      "af": 4982,
      "ĠÃ¡l": 4983,
      "Ġaconte": 4984,
      "Ġnuclear": 4985,
      "Ġincluida": 4986,
      "Ġportugal": 4987,
      "Ġjuegos": 4988,
      "hoy": 4989,
      "Ġexcepto": 4990,
      "ĠespecÃŃficos": 4991,
      "Ġoccidental": 4992,
      "Ġadoptadas": 4993,
      "aro": 4994,
      "Ġdescans": 4995,
      "Ġza": 4996,
      "dra": 4997,
      "emen": 4998,
      "Ġplane": 4999,
      "Ġyu": 5000,
      "Ġnorma": 5001,
      "ĠhÃ¡": 5002,
      "ĠexpresiÃ³n": 5003,
      "Ġmemoria": 5004,
      "Ġpubl": 5005,
      "Ġsimplemente": 5006,
      "oc": 5007,
      "Ġfomento": 5008,
      "dÃ©j": 5009,
      "Ġconstante": 5010,
      "Ġgesti": 5011,
      "Ġrazon": 5012,
      "Ã©tico": 5013,
      "Ġpone": 5014,
      "Ġagen": 5015,
      "Ġplantas": 5016,
      "truy": 5017,
      "73": 5018,
      "Ġlejos": 5019,
      "Ġ32": 5020,
      "Ġtrato": 5021,
      "gru": 5022,
      "Ġlegales": 5023,
      "Ġinterno": 5024,
      "ĠtamaÃ±o": 5025,
      "Ġimpe": 5026,
      "Ġ01": 5027,
      "ky": 5028,
      "Ġhablando": 5029,
      "comisiÃ³n": 5030,
      "obje": 5031,
      "Ġsecu": 5032,
      "adic": 5033,
      "igraciÃ³n": 5034,
      "we": 5035,
      "Ġrequiere": 5036,
      "Ġdol": 5037,
      "gio": 5038,
      "Ġileg": 5039,
      "eme": 5040,
      "Ġconsiderar": 5041,
      "ĠazÃºcar": 5042,
      "gues": 5043,
      "Ġflor": 5044,
      "Ġreper": 5045,
      "Ġdedi": 5046,
      "Ġinfan": 5047,
      "estu": 5048,
      "Ġ45": 5049,
      "Ġideas": 5050,
      "ĠfÃŃsica": 5051,
      "grÃŃa": 5052,
      "iamente": 5053,
      "ĠestadÃŃstica": 5054,
      "Ġeslo": 5055,
      "Ġargentina": 5056,
      "Ġbank": 5057,
      "Ġperder": 5058,
      "Ġger": 5059,
      "Ġpresidenta": 5060,
      "Ġfen": 5061,
      "Ġoficinas": 5062,
      "Ġpreocu": 5063,
      "debe": 5064,
      "xili": 5065,
      "ĠinstalaciÃ³n": 5066,
      "tulos": 5067,
      "Ġfarma": 5068,
      "quin": 5069,
      "Ġapartados": 5070,
      "Ġplano": 5071,
      "Ġtierras": 5072,
      "Ġmane": 5073,
      "decisiÃ³n": 5074,
      "Ġpercib": 5075,
      "Ġsuple": 5076,
      "upciÃ³n": 5077,
      "xi": 5078,
      "Ġesfuerzo": 5079,
      "Ġentren": 5080,
      "Ġaspecto": 5081,
      "cab": 5082,
      "Ġacta": 5083,
      "Ġadj": 5084,
      "Ġestuvo": 5085,
      "Ġminor": 5086,
      "Ġanuales": 5087,
      "imin": 5088,
      "Ġ?": 5089,
      "ĠelectrÃ³nico": 5090,
      "entÃ³": 5091,
      "ĠintroducciÃ³n": 5092,
      "gip": 5093,
      "Ġponente": 5094,
      "Ġmicro": 5095,
      "Ġdistancia": 5096,
      "Ã¡mica": 5097,
      "tia": 5098,
      "Ġsom": 5099,
      "laterales": 5100,
      "Ġlicencia": 5101,
      "Ã§": 5102,
      "Ġemisiones": 5103,
      "Ġsentir": 5104,
      "tilla": 5105,
      "Ġprestar": 5106,
      "Ġoferta": 5107,
      "Ã¨s": 5108,
      "Ġameric": 5109,
      "Ġafric": 5110,
      "Ġaprobar": 5111,
      "Ġcomunitarios": 5112,
      "ĠintenciÃ³n": 5113,
      "Ġseleccion": 5114,
      "Ġjohn": 5115,
      "Ġcarretera": 5116,
      "Ġambas": 5117,
      "Ġapertura": 5118,
      "Ġcorto": 5119,
      "Ġtarea": 5120,
      "Ġaven": 5121,
      "Ġbrasil": 5122,
      "timiento": 5123,
      "ĠorgÃ¡n": 5124,
      "Ġferro": 5125,
      "Ġciclo": 5126,
      "bor": 5127,
      "Ġgrab": 5128,
      "zados": 5129,
      "Ġmarca": 5130,
      "gentes": 5131,
      "Ġgrie": 5132,
      "ioso": 5133,
      "Ġdecidir": 5134,
      "Ġmutu": 5135,
      "Ġabon": 5136,
      "Ġaun": 5137,
      "Ġdesea": 5138,
      "gadas": 5139,
      "tora": 5140,
      "Ġcomponentes": 5141,
      "Ġinteresados": 5142,
      "Ġ33": 5143,
      "ÃŃz": 5144,
      "Ġsup": 5145,
      "Ġdelito": 5146,
      "ancis": 5147,
      "iro": 5148,
      "Ġdeclaraciones": 5149,
      "67": 5150,
      "ĠocupaciÃ³n": 5151,
      "Ġcoordin": 5152,
      "Ġaceptar": 5153,
      "Ġcabe": 5154,
      "Ġconclu": 5155,
      "zco": 5156,
      "ieran": 5157,
      "puedes": 5158,
      "Ġincremento": 5159,
      "Ġenem": 5160,
      "Ġhol": 5161,
      "Ġsupone": 5162,
      "Ġconsis": 5163,
      "luego": 5164,
      "2010": 5165,
      "baj": 5166,
      "izada": 5167,
      "dados": 5168,
      "Ġcombusti": 5169,
      "forma": 5170,
      "ĠrecomendaciÃ³n": 5171,
      "Ġturismo": 5172,
      "espera": 5173,
      "fron": 5174,
      "Ġsant": 5175,
      "Ġelector": 5176,
      "Ġdescar": 5177,
      "ĠcapacitaciÃ³n": 5178,
      "riÃ³": 5179,
      "duce": 5180,
      "Ġacog": 5181,
      "ĠperÃŃodos": 5182,
      "Ġmadrid": 5183,
      "Ġgrecia": 5184,
      "parece": 5185,
      "ecido": 5186,
      "Ġestilo": 5187,
      "Ġaprendi": 5188,
      "xic": 5189,
      "Ġkg": 5190,
      "Ġbuenas": 5191,
      "Ġabierta": 5192,
      "Ġchar": 5193,
      "âĢĻ": 5194,
      "sh": 5195,
      "Ġaplica": 5196,
      "ĠplanificaciÃ³n": 5197,
      "Ġsanto": 5198,
      "Ġvelocidad": 5199,
      "Ġatribu": 5200,
      "Ġexperim": 5201,
      "Ġcoche": 5202,
      "Ġasia": 5203,
      "Ġelemento": 5204,
      "traba": 5205,
      "grÃ¡fica": 5206,
      "Ġadecuado": 5207,
      "Ġantiguo": 5208,
      "Ġcee": 5209,
      "Ġfinalidad": 5210,
      "Ġamplio": 5211,
      "Ġdetec": 5212,
      "Ġreglas": 5213,
      "ĠdifusiÃ³n": 5214,
      "Ġnic": 5215,
      "pes": 5216,
      "Ġproporcionar": 5217,
      "turaciÃ³n": 5218,
      "Ġterritorios": 5219,
      "ting": 5220,
      "Ġsanciones": 5221,
      "Ġescuelas": 5222,
      "________": 5223,
      "Ġvacaciones": 5224,
      "ĠinterpretaciÃ³n": 5225,
      "Ġllamar": 5226,
      "ĠpapÃ¡": 5227,
      "Ġsustan": 5228,
      "Ġmierda": 5229,
      "Ġsuministro": 5230,
      "Ġcompati": 5231,
      "Ġcausas": 5232,
      "61": 5233,
      "Ġsimilar": 5234,
      "dores": 5235,
      "Ġseguros": 5236,
      "ĠalimentaciÃ³n": 5237,
      "Ġantigua": 5238,
      "cra": 5239,
      "Ġquieren": 5240,
      "Ġsch": 5241,
      "Ã©ndose": 5242,
      "Ġunivers": 5243,
      "gadores": 5244,
      "ĠindÃŃgenas": 5245,
      "Ġestructuras": 5246,
      "Ġutiliza": 5247,
      "use": 5248,
      "Ġkil": 5249,
      "Ġarg": 5250,
      "~~": 5251,
      "ware": 5252,
      "Ġnegocios": 5253,
      "Ġpremio": 5254,
      "ĠclÃŃn": 5255,
      "Ġdesemp": 5256,
      "Ġindicar": 5257,
      "ĠmamÃ¡": 5258,
      "sol": 5259,
      "Ġcomida": 5260,
      "presidente": 5261,
      "Ġacces": 5262,
      "ĠvaloraciÃ³n": 5263,
      "Ġdestinadas": 5264,
      "Ġarancel": 5265,
      "Ġutilizado": 5266,
      "Ġconsultas": 5267,
      "Ġano": 5268,
      "Ġaccidente": 5269,
      "ĠmarÃŃa": 5270,
      "Ġcolectivo": 5271,
      "Ġdinam": 5272,
      "Ġhun": 5273,
      "Ġindemn": 5274,
      "Ġvoto": 5275,
      "Ġartes": 5276,
      "Ġtiempos": 5277,
      "Ġsuma": 5278,
      "Ġcoher": 5279,
      "Ġparlam": 5280,
      "ĠconsideraciÃ³n": 5281,
      "Ġmonedas": 5282,
      "iÃ±o": 5283,
      "Ġpleno": 5284,
      "Ġfirma": 5285,
      "Ġmorir": 5286,
      "jado": 5287,
      "Ġabierto": 5288,
      "Ġafirm": 5289,
      "ker": 5290,
      "tieron": 5291,
      "Ġpul": 5292,
      "Ġasociaciones": 5293,
      "Ġcomisario": 5294,
      "Ġacce": 5295,
      "Ġalguno": 5296,
      "Ġif": 5297,
      "Ġconcep": 5298,
      "ment": 5299,
      "osas": 5300,
      "Ġempren": 5301,
      "Ġcreado": 5302,
      "Ġinfec": 5303,
      "Ġanteriormente": 5304,
      "79": 5305,
      "Ġcompletamente": 5306,
      "Ġinvestigaciones": 5307,
      "Ġespiri": 5308,
      "Ġconciencia": 5309,
      "Ġ1989": 5310,
      "jeron": 5311,
      "Ġvenir": 5312,
      "Ġpudo": 5313,
      "Ġvio": 5314,
      "econ": 5315,
      "ĠcontrataciÃ³n": 5316,
      "ĠocasiÃ³n": 5317,
      "Ġprofesor": 5318,
      "posiciones": 5319,
      "estaba": 5320,
      "Ġsalva": 5321,
      "Ġcruz": 5322,
      "tistas": 5323,
      "lico": 5324,
      "Ġprefer": 5325,
      "Ġpide": 5326,
      "Ġed": 5327,
      "benefici": 5328,
      "ificar": 5329,
      "igh": 5330,
      "continuaciÃ³n": 5331,
      "ĠclasificaciÃ³n": 5332,
      "Ġprecis": 5333,
      "Ġcabal": 5334,
      "Ġcliente": 5335,
      "ĠbÃ¡sicos": 5336,
      "Ġfiesta": 5337,
      "oye": 5338,
      "Ġvisita": 5339,
      "Ġsexual": 5340,
      "iere": 5341,
      "ĠcomenzÃ³": 5342,
      "Ġconfirm": 5343,
      "Ġcaden": 5344,
      "Ġcontroles": 5345,
      "Ġfronteras": 5346,
      "tate": 5347,
      "ĠcÃ¡ncer": 5348,
      "Ġpose": 5349,
      "terÃŃa": 5350,
      "cÃ©": 5351,
      "Ġtrimes": 5352,
      "Ġrele": 5353,
      "Ġderivados": 5354,
      "Ġchi": 5355,
      "Ġagrade": 5356,
      "ĠatrÃ¡s": 5357,
      "Ġsolicitar": 5358,
      "Ġgrad": 5359,
      "Ġizquierda": 5360,
      "ellos": 5361,
      "Ġvivo": 5362,
      "ĠautÃ©n": 5363,
      "Ġequip": 5364,
      "Ġavi": 5365,
      "Ġverde": 5366,
      "dita": 5367,
      "trÃ¡s": 5368,
      "Ġinyec": 5369,
      "barcelona": 5370,
      "Ġlabora": 5371,
      "Ġvesti": 5372,
      "Ġrefundido": 5373,
      "Ġpublicado": 5374,
      "Ġindis": 5375,
      "ĠpropÃ³sito": 5376,
      "Ġsubs": 5377,
      "Ġrealiza": 5378,
      "71": 5379,
      "seo": 5380,
      "Ġsocio": 5381,
      "Ġprevista": 5382,
      "gin": 5383,
      "ĠtransiciÃ³n": 5384,
      "Ġlarga": 5385,
      "Ġlibros": 5386,
      "ofici": 5387,
      "Ġpiel": 5388,
      "Ġestrategias": 5389,
      "Ġsar": 5390,
      "har": 5391,
      "tÃºa": 5392,
      "informe": 5393,
      "aciÃ³": 5394,
      "cadas": 5395,
      "Ġcoin": 5396,
      "Ġnoticias": 5397,
      "Ġdefen": 5398,
      "Ġgana": 5399,
      "ben": 5400,
      "Ġcongreso": 5401,
      "Ġaumen": 5402,
      "ĠgarantÃŃas": 5403,
      "Ġevaluar": 5404,
      "Ġmodificada": 5405,
      "toma": 5406,
      "grama": 5407,
      "Ġindustriales": 5408,
      "Ġ55": 5409,
      "Ġrecomienda": 5410,
      "Ġinstancia": 5411,
      "Ġconoce": 5412,
      "Ġnoches": 5413,
      "ĠsabÃŃa": 5414,
      "Ġegip": 5415,
      "Ġarqui": 5416,
      "ientas": 5417,
      "Ġverano": 5418,
      "uf": 5419,
      "Ġchile": 5420,
      "deros": 5421,
      "Ġexclu": 5422,
      "Ġtir": 5423,
      "ĠmarÃŃti": 5424,
      "Ġaquella": 5425,
      "arte": 5426,
      "68": 5427,
      "omÃŃa": 5428,
      "Ġdeterminado": 5429,
      "ĠmÃ¡quinas": 5430,
      "Ġsel": 5431,
      "Ġacum": 5432,
      "Ġmiles": 5433,
      "Ġaeropuer": 5434,
      "Ġejercer": 5435,
      "Ġcristo": 5436,
      "yÃ³": 5437,
      "Ġpresentes": 5438,
      "Ġtesti": 5439,
      "500": 5440,
      "Ã©lgica": 5441,
      "Ġdestru": 5442,
      "exp": 5443,
      "Ġesperanza": 5444,
      "ĠdebÃŃa": 5445,
      "Ġjugar": 5446,
      "ĠespecÃŃfica": 5447,
      "Ġka": 5448,
      "gador": 5449,
      "Ġbloque": 5450,
      "ines": 5451,
      "ariamente": 5452,
      "Ã³nica": 5453,
      "Ġpocos": 5454,
      "fras": 5455,
      "ĠmÃŃnima": 5456,
      "Ġetapa": 5457,
      "Ġlaborales": 5458,
      "ĠrecuperaciÃ³n": 5459,
      "1994": 5460,
      "micas": 5461,
      "ĠliquidaciÃ³n": 5462,
      "tadores": 5463,
      "orden": 5464,
      "amento": 5465,
      "Ġresponder": 5466,
      "Ġsum": 5467,
      "adiÃ³": 5468,
      "igue": 5469,
      "parte": 5470,
      "Ġrendimiento": 5471,
      "Ġcandidatos": 5472,
      "ĠaprobÃ³": 5473,
      "Ġmasa": 5474,
      "ĠtelÃ©fono": 5475,
      "viamente": 5476,
      "vol": 5477,
      "Ġentrega": 5478,
      "Ġofrec": 5479,
      "Ġais": 5480,
      "Ġdebajo": 5481,
      "Ġtonel": 5482,
      "ples": 5483,
      "ĠadoptÃ³": 5484,
      "trans": 5485,
      "rez": 5486,
      "ierno": 5487,
      "Ġinfraestructura": 5488,
      "Ġ34": 5489,
      "Ġabrir": 5490,
      "Ġtotalidad": 5491,
      "Ġindividual": 5492,
      "Ġdipl": 5493,
      "ĠtenÃŃan": 5494,
      "Ġgua": 5495,
      "alizada": 5496,
      "Ġhin": 5497,
      "Ġrepercu": 5498,
      "ep": 5499,
      "Ġsupervis": 5500,
      "Ġestatutos": 5501,
      "Ġvice": 5502,
      "Ġcelebrada": 5503,
      "Ġedificios": 5504,
      "72": 5505,
      "ug": 5506,
      "lace": 5507,
      "Ġderro": 5508,
      "ambien": 5509,
      "Ġido": 5510,
      "Ġrealizadas": 5511,
      "osos": 5512,
      "Ġchico": 5513,
      "ĠidentificaciÃ³n": 5514,
      "Ġmodelos": 5515,
      "mentos": 5516,
      "dy": 5517,
      "idez": 5518,
      "ĠfederaciÃ³n": 5519,
      "brica": 5520,
      "Ġinfluencia": 5521,
      "quia": 5522,
      "presiÃ³n": 5523,
      "Ġrevel": 5524,
      "Ġcaball": 5525,
      "Ġconstituyen": 5526,
      "Ġsubra": 5527,
      "Ġperspectiva": 5528,
      "Ġprivada": 5529,
      "65": 5530,
      "Ġbis": 5531,
      "Ġespa": 5532,
      "ĠvisiÃ³n": 5533,
      "fÃ©": 5534,
      "Ġjud": 5535,
      "Ġconec": 5536,
      "uncia": 5537,
      "Ġaquellas": 5538,
      "ecÃŃa": 5539,
      "Ġparticulares": 5540,
      "Ġcontribuciones": 5541,
      "Ġpesqu": 5542,
      "hol": 5543,
      "Ġglob": 5544,
      "Ġnegro": 5545,
      "Ġefectiva": 5546,
      "Ġajuste": 5547,
      "xemburgo": 5548,
      "Ġsalario": 5549,
      "zaron": 5550,
      "Ġiraq": 5551,
      "Ġleche": 5552,
      "Ġpatrimonio": 5553,
      "Ġmatrimonio": 5554,
      "cuÃ¡l": 5555,
      "Ġbro": 5556,
      "Ġclim": 5557,
      "Ġmodificar": 5558,
      "ĠÃ©stos": 5559,
      "Ġrecord": 5560,
      "Ġmala": 5561,
      "ÃŃci": 5562,
      "Ġdiputados": 5563,
      "denes": 5564,
      "Ġrepe": 5565,
      "Ġadju": 5566,
      "Ġamar": 5567,
      "Ġescas": 5568,
      "ĠcelebraciÃ³n": 5569,
      "bum": 5570,
      "fecha": 5571,
      "cimientos": 5572,
      "tbol": 5573,
      "Ġprepara": 5574,
      "Ġutilizados": 5575,
      "pil": 5576,
      "ĠrÃ¡pidamente": 5577,
      "ÃŃsticos": 5578,
      "Ġpartidos": 5579,
      "Ġfinanzas": 5580,
      "Ġplaza": 5581,
      "Ġadelan": 5582,
      "ĠvÃ©ase": 5583,
      "Ġteor": 5584,
      "elos": 5585,
      "ÃŃes": 5586,
      "Ġdiciendo": 5587,
      "igrantes": 5588,
      "Ġcapaz": 5589,
      "Ġaustria": 5590,
      "Ġfrancis": 5591,
      "Ġ1988": 5592,
      "dicciÃ³n": 5593,
      "Ġparque": 5594,
      "Ġpobres": 5595,
      "Ġrealizados": 5596,
      "Ġocasiones": 5597,
      "Ġfres": 5598,
      "Ġ$": 5599,
      "izas": 5600,
      "Ġinterr": 5601,
      "dalidades": 5602,
      "Ġqueremos": 5603,
      "quizÃ¡": 5604,
      "Ġprioridad": 5605,
      "llas": 5606,
      "ĠdaÃ±os": 5607,
      "Ġmue": 5608,
      "Ġsoluciones": 5609,
      "loj": 5610,
      "Ġ39": 5611,
      "Ġreciente": 5612,
      "Ġincumpl": 5613,
      "Ġdisco": 5614,
      "Ġhomo": 5615,
      "estÃ¡n": 5616,
      "Ġconsiderado": 5617,
      "ĠbÃºs": 5618,
      "ĠopciÃ³n": 5619,
      "proyec": 5620,
      "Ġcorriente": 5621,
      "Ġeliminar": 5622,
      "Ġloc": 5623,
      "ĠtransformaciÃ³n": 5624,
      "uci": 5625,
      "Ġfinalmente": 5626,
      "trÃ³leo": 5627,
      "dentro": 5628,
      "Ġciertas": 5629,
      "Ġlun": 5630,
      "Ġocurr": 5631,
      "Ġpodido": 5632,
      "Ġexpresa": 5633,
      "Ġequivalente": 5634,
      "Ġpersonales": 5635,
      "nÃºmero": 5636,
      "ĠdepÃ³sitos": 5637,
      "Ġgeor": 5638,
      "Ġpele": 5639,
      "Ġpropone": 5640,
      "ĠtransmisiÃ³n": 5641,
      "Ġpn": 5642,
      "ĠconclusiÃ³n": 5643,
      "Ġalquiler": 5644,
      "ĠÃ¡rbol": 5645,
      "Ġsam": 5646,
      "Ġcrees": 5647,
      "Ġrespectivamente": 5648,
      "tat": 5649,
      "Ġbrin": 5650,
      "Ġactiva": 5651,
      "Ġconsiste": 5652,
      "Ã²": 5653,
      "Ġcoches": 5654,
      "ibe": 5655,
      "Ġsuperiores": 5656,
      "Ġbeneficio": 5657,
      "tun": 5658,
      "ze": 5659,
      "Ġplaneta": 5660,
      "Ġ2014": 5661,
      "Ġenmienda": 5662,
      "Ġestric": 5663,
      "ivas": 5664,
      "ĠfundaciÃ³n": 5665,
      "Ġveci": 5666,
      "Ġbom": 5667,
      "tinos": 5668,
      "Ġflo": 5669,
      "Ġprevio": 5670,
      "Ġhicieron": 5671,
      "Ġinteresadas": 5672,
      "Ġroma": 5673,
      "ĠobstÃ¡": 5674,
      "enda": 5675,
      "Ġalco": 5676,
      "public": 5677,
      "\">": 5678,
      "Ġdiab": 5679,
      "Ġemo": 5680,
      "Ġemergencia": 5681,
      "metro": 5682,
      "ĠpÃ¡ginas": 5683,
      "one": 5684,
      "Ġsentencia": 5685,
      "Ġpertinente": 5686,
      "Ġfores": 5687,
      "ther": 5688,
      "todas": 5689,
      "Ġbul": 5690,
      "Ġdisponer": 5691,
      "Ġataque": 5692,
      "Ġprogreso": 5693,
      "Ġelaborar": 5694,
      "icia": 5695,
      "Ġdivis": 5696,
      "ĠconcentraciÃ³n": 5697,
      "iares": 5698,
      "Ġclara": 5699,
      "Ġoeste": 5700,
      "Ġasociados": 5701,
      "Ġuniform": 5702,
      "zaje": 5703,
      "Ã±ola": 5704,
      "Ġtasas": 5705,
      "Ġconcier": 5706,
      "Ġago": 5707,
      "ĠestaciÃ³n": 5708,
      "ĠcapitÃ¡n": 5709,
      "ĠcuÃ¡n": 5710,
      "ĠirÃ¡n": 5711,
      "Ġhier": 5712,
      "ĠcomposiciÃ³n": 5713,
      "Ġmarav": 5714,
      "Ġ43": 5715,
      "Ġempezar": 5716,
      "Ġetique": 5717,
      "Ġmanifi": 5718,
      "Ġtemperatura": 5719,
      "Ġequivo": 5720,
      "Ġvulner": 5721,
      "cier": 5722,
      "Ġimpuesto": 5723,
      "ĠsatisfacciÃ³n": 5724,
      "Ġtarje": 5725,
      "nadie": 5726,
      "Ġtren": 5727,
      "Ġdirecto": 5728,
      "Ġ48": 5729,
      "itarias": 5730,
      "Ġron": 5731,
      "Ġ85": 5732,
      "Ġvene": 5733,
      "Ġestatal": 5734,
      "Ġsexo": 5735,
      "ĠcompensaciÃ³n": 5736,
      "Ġamenaza": 5737,
      "Ġcursos": 5738,
      "Ġrecordar": 5739,
      "Ġmom": 5740,
      "Ġsospec": 5741,
      "Ġensayo": 5742,
      "Ġciertos": 5743,
      "Ġdura": 5744,
      "finalidad": 5745,
      "Ġmodalidades": 5746,
      "74": 5747,
      "Ġeee": 5748,
      "Ġinterponer": 5749,
      "Ġbalance": 5750,
      "pensiÃ³n": 5751,
      "ĠinspecciÃ³n": 5752,
      "desa": 5753,
      "gia": 5754,
      "tren": 5755,
      "Ġ500": 5756,
      "Ġresidencia": 5757,
      "ctos": 5758,
      "Ġbuques": 5759,
      "cual": 5760,
      "Ġcalend": 5761,
      "63": 5762,
      "Ġforo": 5763,
      "ĠemisiÃ³n": 5764,
      "Ġprogresos": 5765,
      "Ġves": 5766,
      "Ġdeja": 5767,
      "ĠespaÃ±ola": 5768,
      "Ġrespal": 5769,
      "Ġpronunci": 5770,
      "Ġtradicional": 5771,
      "Ġdesper": 5772,
      "Ġsurg": 5773,
      "Ġprioridades": 5774,
      "pc": 5775,
      "olÃ³gica": 5776,
      "Ġincom": 5777,
      "Ġplena": 5778,
      "Ġinsu": 5779,
      "Ġderecha": 5780,
      "Ã³gica": 5781,
      "Ġventas": 5782,
      "Ġsier": 5783,
      "tum": 5784,
      "Ġfactor": 5785,
      "Ġ#": 5786,
      "Ġcau": 5787,
      "Ġcontinuar": 5788,
      "licaciÃ³n": 5789,
      "hemos": 5790,
      "cono": 5791,
      "tios": 5792,
      "gur": 5793,
      "Ġhem": 5794,
      "Ġobserva": 5795,
      "tismo": 5796,
      "Ġfacili": 5797,
      "Ġtrabajando": 5798,
      "Ġingenier": 5799,
      "ĠprÃ³xima": 5800,
      "Ġcolegio": 5801,
      "Ġoriente": 5802,
      "ÃŃda": 5803,
      "gn": 5804,
      "Ġdicen": 5805,
      "Ġperdido": 5806,
      "Ġdesarme": 5807,
      "ĠvÃ¡l": 5808,
      "Ġocurre": 5809,
      "adÃ©": 5810,
      "Ġtransparencia": 5811,
      "ĠcontaminaciÃ³n": 5812,
      "Ġpelo": 5813,
      "Ġmotiv": 5814,
      "Ġcampos": 5815,
      "reo": 5816,
      "Ġdemues": 5817,
      "ĠturquÃŃa": 5818,
      "Ġsorpren": 5819,
      "nue": 5820,
      "Ġconceder": 5821,
      "Ġhubo": 5822,
      "ĠespecÃŃfico": 5823,
      "ive": 5824,
      "Ġparticularmente": 5825,
      "ĠllevÃ³": 5826,
      "Ġsabemos": 5827,
      "Ġmedioambien": 5828,
      "Ġrecons": 5829,
      "ionado": 5830,
      "Ġescolar": 5831,
      "Ġtemporada": 5832,
      "Ġpuso": 5833,
      "ĠpidiÃ³": 5834,
      "64": 5835,
      "vio": 5836,
      "Ġ75": 5837,
      "Ġindicadores": 5838,
      "Ġactuar": 5839,
      "Ġgasto": 5840,
      "ĠnÃº": 5841,
      "Ġenter": 5842,
      "Ġluna": 5843,
      "Ġreconocer": 5844,
      "beneficiario": 5845,
      "ĠjurÃŃdicos": 5846,
      "Ġboca": 5847,
      "Ġretribu": 5848,
      "hecho": 5849,
      "Ġconvers": 5850,
      "Ġreales": 5851,
      "adro": 5852,
      "lateral": 5853,
      "Ġhumanidad": 5854,
      "Ġmencionados": 5855,
      "Ġrestitu": 5856,
      "Ġproduci": 5857,
      "Ġaver": 5858,
      "Ġconvier": 5859,
      "Ġrenov": 5860,
      "Ġdebo": 5861,
      "Ġfeliz": 5862,
      "Ġinven": 5863,
      "Ġcumple": 5864,
      "Ġdesas": 5865,
      "Ġvaya": 5866,
      "Ġcampe": 5867,
      "Ġreforzar": 5868,
      "ĠbÃºsqueda": 5869,
      "Ġvih": 5870,
      "Ġran": 5871,
      "Ġadministrativos": 5872,
      "Ġanal": 5873,
      "Ġimpu": 5874,
      "seguro": 5875,
      "itados": 5876,
      "Ġinfl": 5877,
      "ĠÃ³rdenes": 5878,
      "Ġnecesitan": 5879,
      "ĠpetrÃ³leo": 5880,
      "Ġprestaciones": 5881,
      "Ġinformar": 5882,
      "Ġpoblaciones": 5883,
      "espero": 5884,
      "Ġrecientemente": 5885,
      "Ġocul": 5886,
      "Ġutilizando": 5887,
      "gl": 5888,
      "Ġsoft": 5889,
      "Ġtej": 5890,
      "bert": 5891,
      "ami": 5892,
      "Ġ1987": 5893,
      "uma": 5894,
      "1995": 5895,
      "by": 5896,
      "Ġavis": 5897,
      "ecos": 5898,
      "Î±": 5899,
      "Ġnacimiento": 5900,
      "Ġconcreto": 5901,
      "ĠsÃ³l": 5902,
      "ilitaciÃ³n": 5903,
      "Ġprobablemente": 5904,
      "ĠÃ¡lbum": 5905,
      "otras": 5906,
      "Ġretras": 5907,
      "ĠadquisiciÃ³n": 5908,
      "Ġauditor": 5909,
      "Ġreestruc": 5910,
      "Ġsemin": 5911,
      "adiÃ³s": 5912,
      "Ġmedicamento": 5913,
      "ĠadaptaciÃ³n": 5914,
      "Ġdefinitiva": 5915,
      "Ġcercan": 5916,
      "Ġfija": 5917,
      "Ġexactamente": 5918,
      "Ġpasando": 5919,
      "ĠcÃ¡lculo": 5920,
      "Ġconsta": 5921,
      "Ġmadera": 5922,
      "Ġcalific": 5923,
      "ĠÃ¡rabe": 5924,
      "ombia": 5925,
      "tral": 5926,
      "ĠcanadÃ¡": 5927,
      "Ġdespe": 5928,
      "Ġclima": 5929,
      "produc": 5930,
      "art": 5931,
      "ĠalemÃ¡n": 5932,
      "Ġcontrolar": 5933,
      "Ġlenguas": 5934,
      "Ġnegocio": 5935,
      "conse": 5936,
      "rible": 5937,
      "yn": 5938,
      "Ġencargado": 5939,
      "Ġafgan": 5940,
      "Ġvistas": 5941,
      "Ġfamos": 5942,
      "Ġconsideran": 5943,
      "Ġ300": 5944,
      "cuerdo": 5945,
      "Ġveter": 5946,
      "'s": 5947,
      "Ġnecesito": 5948,
      "Ġasesina": 5949,
      "Ġign": 5950,
      "Ġviviendas": 5951,
      "Ġbasado": 5952,
      "Ã©ndo": 5953,
      "ĠrÃ¡pida": 5954,
      "Ġconsejero": 5955,
      "Ġloco": 5956,
      "ĠpÃ©rdidas": 5957,
      "atos": 5958,
      "Ġposteriormente": 5959,
      "Ġbienestar": 5960,
      "Ġ1986": 5961,
      "ĠcÃ¡r": 5962,
      "Ġusos": 5963,
      "Ġentra": 5964,
      "Ġopiniones": 5965,
      "Ġdirigida": 5966,
      "Ġprimeras": 5967,
      "Ġhice": 5968,
      "Ġleer": 5969,
      "Ġadministrativas": 5970,
      "Ġfirme": 5971,
      "Ġprotes": 5972,
      "Ġproduce": 5973,
      "ĠdÃ©cada": 5974,
      "Ġasesoramiento": 5975,
      "Ġevidente": 5976,
      "Ġexperimen": 5977,
      "ĠcientÃŃficos": 5978,
      "Ġinstrucciones": 5979,
      "ĠÃºtil": 5980,
      "Ġhacerse": 5981,
      "Ġpy": 5982,
      "drÃ¡n": 5983,
      "Ġcolum": 5984,
      "smo": 5985,
      "Ġaclar": 5986,
      "ĠjurisdicciÃ³n": 5987,
      "jiste": 5988,
      "ĠediciÃ³n": 5989,
      "ung": 5990,
      "Ġcontro": 5991,
      "Ġverdadero": 5992,
      "ponen": 5993,
      "Ġpilo": 5994,
      "Ġocupar": 5995,
      "Ġpudiera": 5996,
      "Ġreca": 5997,
      "Ġexces": 5998,
      "ĠacadÃ©": 5999,
      "Ġsuspen": 6000,
      "Ġcompra": 6001,
      "Ġbancar": 6002,
      "ks": 6003,
      "nif": 6004,
      "condi": 6005,
      "incu": 6006,
      "Ġgratu": 6007,
      "Ġprac": 6008,
      "Ġaprendizaje": 6009,
      "Ġidentidad": 6010,
      "Â³": 6011,
      "Ġcho": 6012,
      "ĠprohibiciÃ³n": 6013,
      "Ġadultos": 6014,
      "olucion": 6015,
      "Ġreglamentos": 6016,
      "Ġestan": 6017,
      "Ġalumnos": 6018,
      "ĠdestrucciÃ³n": 6019,
      "Ġconferencias": 6020,
      "Ġvenido": 6021,
      "Ġreferente": 6022,
      "Ġabogado": 6023,
      "cÃ¡n": 6024,
      "Ġfamiliares": 6025,
      "Ġjard": 6026,
      "Ġeficiencia": 6027,
      "Ġbatalla": 6028,
      "Ġacel": 6029,
      "Ġarchivos": 6030,
      "Ġconvenios": 6031,
      "Ġencam": 6032,
      "Ġtoneladas": 6033,
      "Ġsolicitante": 6034,
      "Ġcertificados": 6035,
      "Ġpeor": 6036,
      "Ġexportaciones": 6037,
      "Ġreformas": 6038,
      "Ġmargen": 6039,
      "Ġdebidamente": 6040,
      "Ġq": 6041,
      "Ġpublicidad": 6042,
      "Ġazul": 6043,
      "uega": 6044,
      "ĠcomparaciÃ³n": 6045,
      "Ġembaj": 6046,
      "pÃ¡": 6047,
      "Ġsug": 6048,
      "Ġimpuls": 6049,
      "nav": 6050,
      "ĠmÃ©dicos": 6051,
      "econÃ³m": 6052,
      "Ġcuotas": 6053,
      "tana": 6054,
      "podrÃŃa": 6055,
      "Ġbasada": 6056,
      "ity": 6057,
      "bc": 6058,
      "serÃ¡": 6059,
      "edor": 6060,
      "tativo": 6061,
      "grado": 6062,
      "Ġdiscip": 6063,
      "Ã¡genes": 6064,
      "Ġterritoriales": 6065,
      "Ġcomprendido": 6066,
      "ash": 6067,
      "Ġcompu": 6068,
      "Ġcifras": 6069,
      "torial": 6070,
      "ong": 6071,
      "Ġdul": 6072,
      "curr": 6073,
      "Ġvos": 6074,
      "Ġimpar": 6075,
      "cro": 6076,
      "ĠdaÃ±o": 6077,
      "Ġreac": 6078,
      "%.": 6079,
      "Ġmeta": 6080,
      "Ġcontes": 6081,
      "Î¿": 6082,
      "Ġia": 6083,
      "Ġencuentro": 6084,
      "Ġtextos": 6085,
      "Ġarbi": 6086,
      "Ġlectura": 6087,
      "Ġprece": 6088,
      "62": 6089,
      "Ġpib": 6090,
      "Ġopciones": 6091,
      "Ġsaben": 6092,
      "Ġcolon": 6093,
      "Ġproducido": 6094,
      "Ġinstitucional": 6095,
      "euro": 6096,
      "Ġuniversal": 6097,
      "ĠseÃ±alar": 6098,
      "Ã³men": 6099,
      "ariales": 6100,
      "Ġjuz": 6101,
      "ĠdescripciÃ³n": 6102,
      "Ġargum": 6103,
      "tri": 6104,
      "Ġnombres": 6105,
      "Ġropa": 6106,
      "Ġgl": 6107,
      "Ġbuscando": 6108,
      "cien": 6109,
      "ĠcatalÃ¡n": 6110,
      "quieren": 6111,
      "entada": 6112,
      "Ġtaller": 6113,
      "Ġsecreto": 6114,
      "Ġanton": 6115,
      "Ġtransportes": 6116,
      "Ġsegura": 6117,
      "resoluciÃ³n": 6118,
      "Ġsubsidi": 6119,
      "Ġapreci": 6120,
      "Ġcaja": 6121,
      "Ġensayos": 6122,
      "ĠrecibiÃ³": 6123,
      "fal": 6124,
      "Ġcalendario": 6125,
      "ĠmÃºlti": 6126,
      "menta": 6127,
      "Ġacero": 6128,
      "Ġcama": 6129,
      "tipo": 6130,
      "dres": 6131,
      "derÃŃa": 6132,
      "Ġsacar": 6133,
      "Ġcanal": 6134,
      "Ġinnov": 6135,
      "Ġllega": 6136,
      "tÃ¡s": 6137,
      "................": 6138,
      "kistÃ¡n": 6139,
      "Ġcierta": 6140,
      "agÃ©simo": 6141,
      "Ġausencia": 6142,
      "guay": 6143,
      "ecimiento": 6144,
      "Ġcontencioso": 6145,
      "cle": 6146,
      "tesis": 6147,
      "aÃºn": 6148,
      "Ġauton": 6149,
      "Ġencontrado": 6150,
      "Ġespacios": 6151,
      "ingÃ¼": 6152,
      "Ġcomportamiento": 6153,
      "Ġcombin": 6154,
      "ĠoposiciÃ³n": 6155,
      "Ġusuario": 6156,
      "pla": 6157,
      "Ġrespuestas": 6158,
      "damente": 6159,
      "olÃ³gico": 6160,
      "Ġigualmente": 6161,
      "Ġauxili": 6162,
      "eos": 6163,
      "fel": 6164,
      "grupo": 6165,
      "entaciÃ³n": 6166,
      "ĠparÃŃs": 6167,
      "Ġmostr": 6168,
      "Ġbiblio": 6169,
      "Ġclases": 6170,
      "tomas": 6171,
      "Ġmono": 6172,
      "Ġsuprim": 6173,
      "Ġconsiderando": 6174,
      "icen": 6175,
      "dijo": 6176,
      "Ġextranjero": 6177,
      "lim": 6178,
      "Ġcomienzo": 6179,
      "buenas": 6180,
      "tecciÃ³n": 6181,
      "Ġdetalles": 6182,
      "cidos": 6183,
      "Ġsober": 6184,
      "Ġmando": 6185,
      "Ġindividuales": 6186,
      "liaciÃ³n": 6187,
      "Ġpoderes": 6188,
      "Ġcualific": 6189,
      "Ġinfantil": 6190,
      "Ġ44": 6191,
      "Ġesfera": 6192,
      "Ġagente": 6193,
      "mensiÃ³n": 6194,
      "ĠdetrÃ¡s": 6195,
      "Ġdestina": 6196,
      "tions": 6197,
      "guen": 6198,
      "\")": 6199,
      "Ġresistencia": 6200,
      "ĠoÃŃdo": 6201,
      "Ġprevenir": 6202,
      "Ġdelitos": 6203,
      "ĠâĢ¢": 6204,
      "ane": 6205,
      "Ġdiversidad": 6206,
      "Ġhermana": 6207,
      "1997": 6208,
      "roga": 6209,
      "Ġparecer": 6210,
      "Ġxvi": 6211,
      "Ġanex": 6212,
      "Ġcorreo": 6213,
      "Ġconstitutivo": 6214,
      "Ġabsor": 6215,
      "posi": 6216,
      "gosla": 6217,
      "recuer": 6218,
      "my": 6219,
      "Ġextranjeros": 6220,
      "Ġste": 6221,
      "timos": 6222,
      "Ġimplan": 6223,
      "Ġsubvencion": 6224,
      "Ã©ticos": 6225,
      "gitud": 6226,
      "ĠfenÃ³men": 6227,
      "Ġresuel": 6228,
      "Ġmencionada": 6229,
      "nosotros": 6230,
      "Ġrecogida": 6231,
      "Ġdepende": 6232,
      "Ġplus": 6233,
      "Ġimposible": 6234,
      "Ġchicos": 6235,
      "Ġpab": 6236,
      "Ġindirec": 6237,
      "Ġrehab": 6238,
      "ĠsuspensiÃ³n": 6239,
      "ĠentrarÃ¡": 6240,
      "ĠvÃŃas": 6241,
      "Ġhermanos": 6242,
      "vÃ¡": 6243,
      "encio": 6244,
      "Ġcro": 6245,
      "ulares": 6246,
      "dame": 6247,
      "Ġganar": 6248,
      "Ġestadounidense": 6249,
      "Ġtomado": 6250,
      "umping": 6251,
      "Ġprolon": 6252,
      "ĠsueÃ±o": 6253,
      "Ġalf": 6254,
      "Ġcuidad": 6255,
      "Ġsuiza": 6256,
      "Ġdesaf": 6257,
      "Ġenga": 6258,
      "esas": 6259,
      "tuaciÃ³n": 6260,
      "Ġpropuesto": 6261,
      "rique": 6262,
      "Ġdec": 6263,
      "ĠmediterrÃ¡n": 6264,
      "Ġinvol": 6265,
      "Ġtribunales": 6266,
      "mia": 6267,
      "Ġrei": 6268,
      "algo": 6269,
      "Ġexclusivamente": 6270,
      "Ġdoce": 6271,
      "Ġamp": 6272,
      "st": 6273,
      "Ġsindica": 6274,
      "ĠbÃ©lgica": 6275,
      "Ġrecurr": 6276,
      "ĠextensiÃ³n": 6277,
      "Ġtitulado": 6278,
      "Ġtribu": 6279,
      "Ġresponsabilidades": 6280,
      "Ġalimentaria": 6281,
      "Ġvier": 6282,
      "Ġlatina": 6283,
      "Ġdesempleo": 6284,
      "ĠnaciÃ³n": 6285,
      "Ġcasas": 6286,
      "Ġacos": 6287,
      "ĠimÃ¡genes": 6288,
      "ĠaplicarÃ¡": 6289,
      "Ġacontecimientos": 6290,
      "Ġllevado": 6291,
      "Ġhuel": 6292,
      "Ġmalo": 6293,
      "ĠdejÃ³": 6294,
      "Ġinfraestructuras": 6295,
      "deras": 6296,
      "Ġequilibrio": 6297,
      "Ġarquitec": 6298,
      "Ġcomenzar": 6299,
      "Ġobligatorio": 6300,
      "Ġfol": 6301,
      "Ġquedan": 6302,
      "dum": 6303,
      "Ãºr": 6304,
      "ĠtomÃ³": 6305,
      "Ġgestion": 6306,
      "Ã©lulas": 6307,
      "Ġcolombia": 6308,
      "Ġdisminu": 6309,
      "ĠhacÃŃa": 6310,
      "Ġ>": 6311,
      "lados": 6312,
      "Ġprobable": 6313,
      "Ġ56": 6314,
      "aje": 6315,
      "Ġbreve": 6316,
      "Ġcine": 6317,
      "grad": 6318,
      "Ġdirectivas": 6319,
      "Ġpermiten": 6320,
      "donde": 6321,
      "ĠnegociaciÃ³n": 6322,
      "Ġfortalecer": 6323,
      "Ġmetro": 6324,
      "tirÃ¡": 6325,
      "Ġestatales": 6326,
      "ĠcatÃ³": 6327,
      "ĠmuriÃ³": 6328,
      "Ġwin": 6329,
      "Ġletras": 6330,
      "ĠcafÃ©": 6331,
      "Ġrit": 6332,
      "Ġmira": 6333,
      "actualmente": 6334,
      "Ġprofundi": 6335,
      "Ġimpedir": 6336,
      "Ġsl": 6337,
      "vir": 6338,
      "Î¹": 6339,
      "ĠdÃ©fici": 6340,
      "Ġutilizan": 6341,
      "Ġenfren": 6342,
      "Ġfrancesa": 6343,
      "Ġyugosla": 6344,
      "Ġ95": 6345,
      "Ġminas": 6346,
      "Ġsacri": 6347,
      "Ġnumerosos": 6348,
      "tillo": 6349,
      "Ġculpa": 6350,
      "ices": 6351,
      "Ġdinamarca": 6352,
      "Ġluxemburgo": 6353,
      "habla": 6354,
      "Ġuniversidades": 6355,
      "Ġservir": 6356,
      "dam": 6357,
      "Ġpermita": 6358,
      "Ġcober": 6359,
      "Ġexperiencias": 6360,
      "aliza": 6361,
      "ĠÃ¡ngel": 6362,
      "Ġsituado": 6363,
      "Ġtradicionales": 6364,
      "Ġsta": 6365,
      "Ġdestinado": 6366,
      "Ġsolidar": 6367,
      "Ġparlamentar": 6368,
      "Ġcm": 6369,
      "cc": 6370,
      "arr": 6371,
      "ĠregulaciÃ³n": 6372,
      "podemos": 6373,
      "Ġmomentos": 6374,
      "ĠdimensiÃ³n": 6375,
      "ĠdisminuciÃ³n": 6376,
      "Ġhubi": 6377,
      "Ġtorno": 6378,
      "Ġseres": 6379,
      "ds": 6380,
      "Ġxx": 6381,
      "Ġtraslad": 6382,
      "ahÃŃ": 6383,
      "Ġindustrias": 6384,
      "Ġperteneci": 6385,
      "ĠinclusiÃ³n": 6386,
      "hey": 6387,
      "Ġviven": 6388,
      "Ġcuba": 6389,
      "df": 6390,
      "necesito": 6391,
      "Ġexige": 6392,
      "Ġaplicaciones": 6393,
      "debemos": 6394,
      "Ġ42": 6395,
      "Ġtraduc": 6396,
      "tol": 6397,
      "Ġfelici": 6398,
      "institu": 6399,
      "Ġlimitar": 6400,
      "Ġlici": 6401,
      "Ġcostos": 6402,
      "Ġinternos": 6403,
      "Ġsometer": 6404,
      "andia": 6405,
      "Ġfrancisco": 6406,
      "Ġamo": 6407,
      "Ġconceptos": 6408,
      "Ġpaque": 6409,
      "vina": 6410,
      "Ġrode": 6411,
      "Ġcarlos": 6412,
      "ĠrevoluciÃ³n": 6413,
      "tus": 6414,
      "norm": 6415,
      "Ġrig": 6416,
      "Ġdomici": 6417,
      "Ġconstruir": 6418,
      "Ġcomprar": 6419,
      "ĠvÃŃn": 6420,
      "ĠseÃ±ala": 6421,
      "Ġsoftware": 6422,
      "Ġph": 6423,
      "comunicaciones": 6424,
      "wn": 6425,
      "Ãºtbol": 6426,
      "Ġestablecida": 6427,
      "Ġterroristas": 6428,
      "municip": 6429,
      "espe": 6430,
      "ĠobservaciÃ³n": 6431,
      "Ġremun": 6432,
      "Ġpresentan": 6433,
      "Ġbene": 6434,
      "Ġpolonia": 6435,
      "Ġcomisiones": 6436,
      "Ġerrores": 6437,
      "ĠcohesiÃ³n": 6438,
      "Ġformula": 6439,
      "Ġefectuar": 6440,
      "Ġmuertos": 6441,
      "Ġconveniente": 6442,
      "Ġpresentada": 6443,
      "Ġherramientas": 6444,
      "rar": 6445,
      "Ġcreciente": 6446,
      "Ġremo": 6447,
      "Ġperspectivas": 6448,
      "Ġfre": 6449,
      "apia": 6450,
      "Ġvidas": 6451,
      "Ġafectado": 6452,
      "Ġlla": 6453,
      "69": 6454,
      "Ġwil": 6455,
      "Ġcaribe": 6456,
      "Ġmilen": 6457,
      "ĠcÃ©lulas": 6458,
      "Ġformular": 6459,
      "ĠprisiÃ³n": 6460,
      "Ġaeropuerto": 6461,
      "Ġmexic": 6462,
      "Ġifm": 6463,
      "Ġafirma": 6464,
      "Ġvotos": 6465,
      "dito": 6466,
      "Ġdelante": 6467,
      "Ġcubrir": 6468,
      "ges": 6469,
      "Ġhago": 6470,
      "dÃ³": 6471,
      "Ġjuventud": 6472,
      "Ġcoinci": 6473,
      "Ġdando": 6474,
      "Ġdistrito": 6475,
      "Ã³stico": 6476,
      "Ġaparece": 6477,
      "Ġpublicaciones": 6478,
      "Ġhome": 6479,
      "Ġmisiones": 6480,
      "aprob": 6481,
      "Ġ2015": 6482,
      "jen": 6483,
      "pul": 6484,
      "ĠÃ©stas": 6485,
      "Ġ49": 6486,
      "Ġexplos": 6487,
      "Ġmovimientos": 6488,
      "Ġdelegaciones": 6489,
      "Ġdiplom": 6490,
      "Ġfiscales": 6491,
      "Ġcalor": 6492,
      "Ġcadena": 6493,
      "Ġalcal": 6494,
      "ila": 6495,
      "Ġnueve": 6496,
      "ĠhabitaciÃ³n": 6497,
      "Ġarma": 6498,
      "Ġinforma": 6499,
      "Ġafecta": 6500,
      "Ġesenciales": 6501,
      "1996": 6502,
      "Ġpris": 6503,
      "Ġsatisfa": 6504,
      "iii": 6505,
      "ick": 6506,
      "Ġintelec": 6507,
      "Ġcontinua": 6508,
      "ĠcientÃŃfico": 6509,
      "Ġhue": 6510,
      "ĠguÃŃa": 6511,
      "Ġcombatir": 6512,
      "Ġrestricciones": 6513,
      "ĠmÃ³vil": 6514,
      "ĠestarÃ¡n": 6515,
      "Ġfrontera": 6516,
      "Ġexen": 6517,
      "Ġintegrado": 6518,
      "Ġconcretas": 6519,
      "ĠsÃŃntomas": 6520,
      "ĠfÃºtbol": 6521,
      "muchas": 6522,
      "fronter": 6523,
      "ĠharÃ©": 6524,
      "Ġsuficientes": 6525,
      "eles": 6526,
      "exis": 6527,
      "Ġdue": 6528,
      "ceptor": 6529,
      "ĠgeneraciÃ³n": 6530,
      "Ġverte": 6531,
      "Ġcopa": 6532,
      "Ġinciden": 6533,
      "Ġprocur": 6534,
      "Ġprimaria": 6535,
      "Ã¢": 6536,
      "Ġbusca": 6537,
      "secciÃ³n": 6538,
      "cÃŃ": 6539,
      "Ġdelincu": 6540,
      "Ġcalles": 6541,
      "Ġentiende": 6542,
      "Ġai": 6543,
      "amor": 6544,
      "Ġciento": 6545,
      "ĠviolaciÃ³n": 6546,
      "Ġtendencia": 6547,
      "Ġenorme": 6548,
      "ĠinflaciÃ³n": 6549,
      "Ġsupre": 6550,
      "Ġluchar": 6551,
      "Ġoral": 6552,
      "gÃ¼edad": 6553,
      "Ġcongo": 6554,
      "Ġtempr": 6555,
      "gran": 6556,
      "Ġescuchar": 6557,
      "Ġentiendo": 6558,
      "op": 6559,
      "financi": 6560,
      "Ġdemon": 6561,
      "Ġfirmado": 6562,
      "Ġeu": 6563,
      "vale": 6564,
      "itales": 6565,
      "ington": 6566,
      "len": 6567,
      "Ġpur": 6568,
      "Ġ1985": 6569,
      "ĠtÃŃo": 6570,
      "trad": 6571,
      "Ġagrup": 6572,
      "Ġcorrecto": 6573,
      "Ġlongitud": 6574,
      "Ġdiag": 6575,
      "iger": 6576,
      "Ġintroducir": 6577,
      "ĠreestructuraciÃ³n": 6578,
      "Ġposiciones": 6579,
      "Ġindependientes": 6580,
      "Ġnecesitamos": 6581,
      "Ġobjetos": 6582,
      "Ġexistente": 6583,
      "Ġformar": 6584,
      "tativa": 6585,
      "Ġpreparar": 6586,
      "ĠreligiÃ³n": 6587,
      "Ġcompetitividad": 6588,
      "Ġarres": 6589,
      "Ġsocios": 6590,
      "Ġplazos": 6591,
      "Ġine": 6592,
      "Ġrealizada": 6593,
      "Ġciencias": 6594,
      "Ġecol": 6595,
      "Ġenviar": 6596,
      "Ġgeneralmente": 6597,
      "Ġaspir": 6598,
      "Ġdecen": 6599,
      "cop": 6600,
      "izon": 6601,
      "Ġascen": 6602,
      "ilizaciÃ³n": 6603,
      "Ġml": 6604,
      "Ġsolidaridad": 6605,
      "ĠcariÃ±o": 6606,
      "Ġintentar": 6607,
      "Ġincumplimiento": 6608,
      "Ġvenez": 6609,
      "Ġconsumidor": 6610,
      "Ġpotencia": 6611,
      "igual": 6612,
      "Ġsimpl": 6613,
      "Ġali": 6614,
      "Ġvideo": 6615,
      "Ġvictoria": 6616,
      "ĠniÃ±as": 6617,
      "Ġtransfronter": 6618,
      "Ġutilizarse": 6619,
      "pien": 6620,
      "piÃ©": 6621,
      "Ġ41": 6622,
      "Ġnove": 6623,
      "ĠproporciÃ³n": 6624,
      "estim": 6625,
      "Ġterminar": 6626,
      "Ġelectoral": 6627,
      "Ġmantiene": 6628,
      "llam": 6629,
      "Ġempresarial": 6630,
      "Ġmonetario": 6631,
      "Ġviolaciones": 6632,
      "ĠÃŃndice": 6633,
      "lesc": 6634,
      "Ġhipo": 6635,
      "Ġdefinitivamente": 6636,
      "Ġbeneficiarios": 6637,
      "Ġcriterio": 6638,
      "Ġforman": 6639,
      "Ġrob": 6640,
      "ĠcuantÃŃa": 6641,
      "Ġrein": 6642,
      "Ġinmediato": 6643,
      "rate": 6644,
      "Ġasi": 6645,
      "Ġpiezas": 6646,
      "Ġinsul": 6647,
      "Ġaprender": 6648,
      "Ġrurales": 6649,
      "tema": 6650,
      "Ġvuelo": 6651,
      "Ġrue": 6652,
      "Ġpromov": 6653,
      "Ġcorrecta": 6654,
      "Ġcorea": 6655,
      "Ġreconoce": 6656,
      "drÃŃa": 6657,
      "Ġcontenidos": 6658,
      "ĠquedarÃ¡": 6659,
      "Ġaer": 6660,
      "Ġ--": 6661,
      "Ġconsiderarse": 6662,
      "Ġjefes": 6663,
      "pongo": 6664,
      "Ġvive": 6665,
      "bano": 6666,
      "Ġreduci": 6667,
      "Ġsoldados": 6668,
      "Ġpresentadas": 6669,
      "ĠkilÃ³": 6670,
      "Ġveterin": 6671,
      "Ġeuropean": 6672,
      "Ġelegido": 6673,
      "Ġllor": 6674,
      "ĠdÃ©ficit": 6675,
      "Ġpies": 6676,
      "Ġintercambios": 6677,
      "ĠpacÃŃfico": 6678,
      "Ġexcelente": 6679,
      "Ġencamin": 6680,
      "Ġacceder": 6681,
      "nombre": 6682,
      "Ġisl": 6683,
      "Ġmel": 6684,
      "ĠperÃº": 6685,
      "Ġespero": 6686,
      "cÃ¡l": 6687,
      "Ġucr": 6688,
      "Ġverdadera": 6689,
      "ĠentenderÃ¡": 6690,
      "ĠcanciÃ³n": 6691,
      "Ġconocida": 6692,
      "Ġpasivos": 6693,
      "Ġinspir": 6694,
      "Ġvariedad": 6695,
      "Ġexigencias": 6696,
      "ĠperiÃ³dico": 6697,
      "Ġinteresado": 6698,
      "Ġlibres": 6699,
      "Ġ65": 6700,
      "Ġestudiar": 6701,
      "Ġsimul": 6702,
      "ĠaviÃ³n": 6703,
      "Ġmiras": 6704,
      "Ġaves": 6705,
      "Ġbasa": 6706,
      "tadora": 6707,
      "Ġ]": 6708,
      "ĠparÃ¡": 6709,
      "Ġtransfer": 6710,
      "Ġsuperar": 6711,
      "Ġfern": 6712,
      "Ġcapacidades": 6713,
      "Ġhogares": 6714,
      "Ġelegir": 6715,
      "Ġalmacenamiento": 6716,
      "Ġsucede": 6717,
      "Ġredac": 6718,
      "Ġaprobada": 6719,
      "anti": 6720,
      "terial": 6721,
      "ĠindemnizaciÃ³n": 6722,
      "Ġreflex": 6723,
      "Ġnotas": 6724,
      "presa": 6725,
      "Ġadolesc": 6726,
      "Ġfracas": 6727,
      "otra": 6728,
      "orcio": 6729,
      "ÃŃmenes": 6730,
      "wo": 6731,
      "Ġrepresentan": 6732,
      "Ġtercero": 6733,
      "muchos": 6734,
      "teles": 6735,
      "Ġesperando": 6736,
      "Ġvecinos": 6737,
      "Ġcobertura": 6738,
      "Ġdemostr": 6739,
      "lique": 6740,
      "Ġdejado": 6741,
      "Ġsujetos": 6742,
      "ĠbaÃ±o": 6743,
      "dremos": 6744,
      "Ġku": 6745,
      "Ġeventos": 6746,
      "Ġjuez": 6747,
      "Ġpedro": 6748,
      "Ġdices": 6749,
      "ardo": 6750,
      "Ġsuger": 6751,
      "Ġrecientes": 6752,
      "Ġaltos": 6753,
      "sito": 6754,
      "Ġconcluy": 6755,
      "municipio": 6756,
      "Ġpiedra": 6757,
      "tano": 6758,
      "ĠrehabilitaciÃ³n": 6759,
      "ĠlÃ¡": 6760,
      "Ġviernes": 6761,
      "Ġnumerosas": 6762,
      "ĠquizÃ¡": 6763,
      "Ġmencionadas": 6764,
      "Ġgras": 6765,
      "Ġpresupuestario": 6766,
      "ÃŃble": 6767,
      "Ġsalvador": 6768,
      "fas": 6769,
      "ĠpÃ¡rr": 6770,
      "Ġcomentarios": 6771,
      "Ġimple": 6772,
      "Ġrica": 6773,
      "Ġum": 6774,
      "ĠasignaciÃ³n": 6775,
      "tornos": 6776,
      "Ġjubil": 6777,
      "Ġimpul": 6778,
      "Ġadecuadas": 6779,
      "Ġdll": 6780,
      "Ġegipto": 6781,
      "Ġreglamentar": 6782,
      "Ġacaba": 6783,
      "direcciÃ³n": 6784,
      "Ġvalle": 6785,
      "ĠconvirtiÃ³": 6786,
      "Ġdisponibilidad": 6787,
      "Ġprivados": 6788,
      "Ġsecundaria": 6789,
      "Ã¡us": 6790,
      "Ġapenas": 6791,
      "Ġregla": 6792,
      "ĠniÃ±a": 6793,
      "Ġabor": 6794,
      "Ġgusto": 6795,
      "valor": 6796,
      "ĠcombinaciÃ³n": 6797,
      "Ġimplica": 6798,
      "Ġhidro": 6799,
      "acuerdo": 6800,
      "Ġabre": 6801,
      "parti": 6802,
      "Ġpensiones": 6803,
      "vÃŃ": 6804,
      "Ġdeliber": 6805,
      "Ġcha": 6806,
      "mÃ¡tica": 6807,
      "Ġentregar": 6808,
      "ĠbÃ¡sica": 6809,
      "lÃ¡n": 6810,
      "Ġlisto": 6811,
      "Ġnerv": 6812,
      "his": 6813,
      "ĠreÃºn": 6814,
      "ĠvolviÃ³": 6815,
      "alguien": 6816,
      "carr": 6817,
      "Ġsierra": 6818,
      "Ġ1980": 6819,
      "cuadro": 6820,
      "Ġproveedores": 6821,
      "Ġvemos": 6822,
      "ĠclimÃ¡tico": 6823,
      "Ġtranspor": 6824,
      "ĠÃºltimas": 6825,
      "ĠquedÃ³": 6826,
      "Ã©ramos": 6827,
      "Ġtomando": 6828,
      "Ġ!": 6829,
      "grÃ¡fico": 6830,
      "Ġimperio": 6831,
      "Ġexplor": 6832,
      "cÃ©u": 6833,
      "iano": 6834,
      "incl": 6835,
      "iel": 6836,
      "=\"": 6837,
      "informaciÃ³n": 6838,
      "cÃº": 6839,
      "ĠcompaÃ±ÃŃas": 6840,
      "Ġama": 6841,
      "Ġdescanso": 6842,
      "Ġescon": 6843,
      "Ġpensando": 6844,
      "Ġataques": 6845,
      "nu": 6846,
      "Ġlanz": 6847,
      "Ġplur": 6848,
      "vers": 6849,
      "Ġidioma": 6850,
      "Ġdemostrado": 6851,
      "Ġpractic": 6852,
      "ĠjurÃŃdicas": 6853,
      "Ġhambre": 6854,
      "Ġ08": 6855,
      "Ġ47": 6856,
      "Ġmaestro": 6857,
      "bernamental": 6858,
      "Ġcoron": 6859,
      "ĠnÃºmeros": 6860,
      "estar": 6861,
      "Ġabordar": 6862,
      "Ġcopia": 6863,
      "venta": 6864,
      "Ġsobreviv": 6865,
      "Ġ93": 6866,
      "Ġcuyos": 6867,
      "Ġhagan": 6868,
      "Ġdormir": 6869,
      "Ã³gico": 6870,
      "ĠedificaciÃ³n": 6871,
      "Ġpreguntar": 6872,
      "Ġextrem": 6873,
      "Ġlaboratorio": 6874,
      "Ġescribir": 6875,
      "vete": 6876,
      "Ġduro": 6877,
      "Ġminuto": 6878,
      "Ġmilenio": 6879,
      "Ġ91": 6880,
      "Ġintergu": 6881,
      "ĠprogramaciÃ³n": 6882,
      "Ġhorizon": 6883,
      "Ġlondres": 6884,
      "blas": 6885,
      "ĠmÃ³": 6886,
      "Ġmuestras": 6887,
      "ema": 6888,
      "mula": 6889,
      "ĠmÃ¡quina": 6890,
      "Ġpapa": 6891,
      "talidad": 6892,
      "ĠarmonizaciÃ³n": 6893,
      "aces": 6894,
      "teca": 6895,
      "Ġcelebrar": 6896,
      "pp": 6897,
      "Ġmod": 6898,
      "ĠteorÃŃa": 6899,
      "Ġ57": 6900,
      "Ġtardar": 6901,
      "ĠclÃ¡s": 6902,
      "Ġdependencia": 6903,
      "proyecto": 6904,
      "Ġpedido": 6905,
      "Ġenum": 6906,
      "unta": 6907,
      "Ã¡nsito": 6908,
      "Ġesferas": 6909,
      "cura": 6910,
      "net": 6911,
      "Ġganado": 6912,
      "Ġcastel": 6913,
      "ĠcorrupciÃ³n": 6914,
      "ĠantigÃ¼edad": 6915,
      "Ġech": 6916,
      "Ġsujeto": 6917,
      "Ġnormalmente": 6918,
      "Ġconcedida": 6919,
      "Ġcargos": 6920,
      "iosa": 6921,
      "oras": 6922,
      "Ġmuseo": 6923,
      "garia": 6924,
      "tilic": 6925,
      "unya": 6926,
      "secre": 6927,
      "ĠcientÃŃfica": 6928,
      "Ġconducta": 6929,
      "ĠcreÃ³": 6930,
      "hat": 6931,
      "teros": 6932,
      "Ġdav": 6933,
      "amo": 6934,
      "Ãºp": 6935,
      "itat": 6936,
      "Ã¡ticamente": 6937,
      "Ġavances": 6938,
      "otro": 6939,
      "Ġjack": 6940,
      "Ġcredi": 6941,
      "ĠconexiÃ³n": 6942,
      "ĠdenominaciÃ³n": 6943,
      "izaciones": 6944,
      "directiva": 6945,
      "ĠtÃŃtulos": 6946,
      "lÃŃn": 6947,
      "Ġescla": 6948,
      "irmar": 6949,
      "Ġhorario": 6950,
      "Ġalber": 6951,
      "Ġ58": 6952,
      "ÃŃna": 6953,
      "ĠdepÃ³sito": 6954,
      "ĠinscripciÃ³n": 6955,
      "denominaciÃ³n": 6956,
      "Ġproceder": 6957,
      "2011": 6958,
      "tativas": 6959,
      "Ġinfancia": 6960,
      "tÃŃtulo": 6961,
      "Ġlimpieza": 6962,
      "fera": 6963,
      "Ġseno": 6964,
      "Ġliter": 6965,
      "ĠmÃŃa": 6966,
      "Ġllen": 6967,
      "Ġmensual": 6968,
      "mol": 6969,
      "Ġnew": 6970,
      "programa": 6971,
      "Ġmagn": 6972,
      "1990": 6973,
      "finalmente": 6974,
      "ĠlÃŃder": 6975,
      "ĠmÃ©dica": 6976,
      "ĠfarmacÃ©u": 6977,
      "ĠoÃŃr": 6978,
      "Ġdisfrutar": 6979,
      "Ġblog": 6980,
      "Ġ03": 6981,
      "cuÃ¡nto": 6982,
      "Ġimportes": 6983,
      "Ġactitud": 6984,
      "Ġnecesitar": 6985,
      "ĠmÃŃnimas": 6986,
      "Ġprimas": 6987,
      "Ġpaciente": 6988,
      "ĠhistÃ³rico": 6989,
      "Ġllo": 6990,
      "nota": 6991,
      "Ġfunciona": 6992,
      "proce": 6993,
      "Ġfavorable": 6994,
      "Ġconducir": 6995,
      "pecto": 6996,
      "ĠquizÃ¡s": 6997,
      "Ġdestacar": 6998,
      "Ġcomprender": 6999,
      "Ġusa": 7000,
      "Ġconsultar": 7001,
      "Ġmarido": 7002,
      "ĠafganistÃ¡n": 7003,
      "ĠaceptaciÃ³n": 7004,
      "Ġaparatos": 7005,
      "Ġsuecia": 7006,
      "Ġpase": 7007,
      "1993": 7008,
      "mentaciÃ³n": 7009,
      "Ġtorre": 7010,
      "Ġfib": 7011,
      "Ġcatalana": 7012,
      "Ġfues": 7013,
      "Ġdescen": 7014,
      "Ġsustancia": 7015,
      "Ġiniciar": 7016,
      "Ġrecopil": 7017,
      "Ġconjunta": 7018,
      "Ġpalestina": 7019,
      "Ġplacer": 7020,
      "uo": 7021,
      "vel": 7022,
      "Ġpresupuestos": 7023,
      "sor": 7024,
      "Ġinmediata": 7025,
      "vaya": 7026,
      "enten": 7027,
      "Ġcomprobar": 7028,
      "Ġmostrar": 7029,
      "Ġevan": 7030,
      "tones": 7031,
      "izadas": 7032,
      "Ġteatro": 7033,
      "Ġpartidas": 7034,
      "Ġlunes": 7035,
      "add": 7036,
      "ĠlÃŃqu": 7037,
      "amÃ©rica": 7038,
      "Ġpreparado": 7039,
      "idi": 7040,
      "ĠtÃºn": 7041,
      "Ġhall": 7042,
      "Ġmaravillos": 7043,
      "Ġtropas": 7044,
      "medio": 7045,
      "Ġcatalunya": 7046,
      "gus": 7047,
      "ef": 7048,
      "Ġplataforma": 7049,
      "ciles": 7050,
      "ĠdarÃ¡": 7051,
      "ey": 7052,
      "Ġvigentes": 7053,
      "ĠprÃ³ximos": 7054,
      "Ġabar": 7055,
      "Ġterres": 7056,
      "Ġidiomas": 7057,
      "unidad": 7058,
      "Ġcontemp": 7059,
      "asiÃ³n": 7060,
      "Ġconstitucional": 7061,
      "Ġmovilidad": 7062,
      "ĠaÃ©reo": 7063,
      "ĠtrÃ¡nsito": 7064,
      "discul": 7065,
      "Ġtelecomunicaciones": 7066,
      "Ġencom": 7067,
      "Ġprecisamente": 7068,
      "mÃ©": 7069,
      "bamos": 7070,
      "Ġagreg": 7071,
      "Ġindispens": 7072,
      "Ġvilla": 7073,
      "Ġdecidido": 7074,
      "Ġdebates": 7075,
      "jÃ³": 7076,
      "tables": 7077,
      "olÃ³gicos": 7078,
      "Ġprivadas": 7079,
      "Ġampliar": 7080,
      "Ġfortalecimiento": 7081,
      "incluso": 7082,
      "embol": 7083,
      "Ġelevado": 7084,
      "ĠobstÃ¡culos": 7085,
      "Ġfinlandia": 7086,
      "Ġpene": 7087,
      "Ġcobr": 7088,
      "Ġvall": 7089,
      "abes": 7090,
      "cy": 7091,
      "Ġfich": 7092,
      "Ġurbano": 7093,
      "Ġluis": 7094,
      "haz": 7095,
      "Ġopera": 7096,
      "Ġdemand": 7097,
      "Ġflores": 7098,
      "Ĥ¬": 7099,
      "Ġhacemos": 7100,
      "algunas": 7101,
      "ĠrecepciÃ³n": 7102,
      "Ġautores": 7103,
      "geno": 7104,
      "Ġpolvo": 7105,
      "Ġintervenciones": 7106,
      "Ġcartas": 7107,
      "sim": 7108,
      "Ġtuvieron": 7109,
      "Ġintento": 7110,
      "Ġvuelve": 7111,
      "glos": 7112,
      "pÃ³": 7113,
      "Ġatender": 7114,
      "Ġaceler": 7115,
      "clas": 7116,
      "Ġhabitual": 7117,
      "rÃ³": 7118,
      "Ġurgencia": 7119,
      "Ġseguido": 7120,
      "Ġdarle": 7121,
      "Ġpost": 7122,
      "Ġvid": 7123,
      "Ġdie": 7124,
      "onato": 7125,
      "Ġ52": 7126,
      "laterra": 7127,
      "cerdo": 7128,
      "Ġelectricidad": 7129,
      "Ġcelebrado": 7130,
      "ctur": 7131,
      "Ġdibu": 7132,
      "presu": 7133,
      "Ġtratando": 7134,
      "Ġexpresar": 7135,
      "Ġnoruega": 7136,
      "Ġindican": 7137,
      "Ġformal": 7138,
      "Ġalianza": 7139,
      "hid": 7140,
      "jefe": 7141,
      "Ġorgul": 7142,
      "ĠartÃŃs": 7143,
      "Ġparticipan": 7144,
      "Ġaceite": 7145,
      "ĠraÃŃz": 7146,
      "Ġcomplemento": 7147,
      "Ġpath": 7148,
      "Ġperro": 7149,
      "Ġcocina": 7150,
      "Ġken": 7151,
      "ĠautonomÃŃa": 7152,
      "quizÃ¡s": 7153,
      "ĠmecÃ¡n": 7154,
      "cionado": 7155,
      "Ġreina": 7156,
      "inebra": 7157,
      "aremos": 7158,
      "util": 7159,
      "Ġllu": 7160,
      "ĠliberaciÃ³n": 7161,
      "Ġeducativo": 7162,
      "Ġdispositivo": 7163,
      "Ġinteresante": 7164,
      "monos": 7165,
      "ĠrealizÃ³": 7166,
      "Ġlibertades": 7167,
      "Ġcorrientes": 7168,
      "Ġ54": 7169,
      "Ġnomin": 7170,
      "cuagÃ©simo": 7171,
      "cripciones": 7172,
      "Ġgor": 7173,
      "Ġcierre": 7174,
      "Ġbec": 7175,
      "Ġglor": 7176,
      "Ġmc": 7177,
      "Ġrico": 7178,
      "Ġhumanitaria": 7179,
      "ĠfÃ³r": 7180,
      "Ġconsenso": 7181,
      "ĠelectrÃ³nica": 7182,
      "ij": 7183,
      "Ġio": 7184,
      "Ġdomingo": 7185,
      "itÃ³": 7186,
      "tamo": 7187,
      "fran": 7188,
      "Ġmalas": 7189,
      "Ġaustralia": 7190,
      "\"?": 7191,
      "licos": 7192,
      "lia": 7193,
      "let": 7194,
      "inten": 7195,
      "Ġadecuados": 7196,
      "viene": 7197,
      "observ": 7198,
      "Ġbosques": 7199,
      "Ġinformaciones": 7200,
      "Ġpiensa": 7201,
      "Ġcumplan": 7202,
      "Ġdefender": 7203,
      "ĠcÃ¡rcel": 7204,
      "Ġtriste": 7205,
      "apar": 7206,
      "Ġahor": 7207,
      "ime": 7208,
      "gital": 7209,
      "Ġpermitan": 7210,
      "Ġvil": 7211,
      "prin": 7212,
      "Ġcompartir": 7213,
      "Ġradi": 7214,
      "teo": 7215,
      "Ġsopor": 7216,
      "Ġdefine": 7217,
      "ĠreparaciÃ³n": 7218,
      "igation": 7219,
      "Ġpiso": 7220,
      "Ġtrabaja": 7221,
      "Ġblanca": 7222,
      "quie": 7223,
      "esos": 7224,
      "Ġsuficientemente": 7225,
      "Ġintra": 7226,
      "Ġllegada": 7227,
      "eral": 7228,
      "cara": 7229,
      "Ġcolegas": 7230,
      "Ġrecuerda": 7231,
      "arla": 7232,
      "Ġvisitar": 7233,
      "Ġlegislaciones": 7234,
      "Ġpositivo": 7235,
      "ĠdecÃŃa": 7236,
      "eco": 7237,
      "Ġturno": 7238,
      "Ġllevan": 7239,
      "Ġcrimin": 7240,
      "Ġbarco": 7241,
      "Ġformato": 7242,
      "Ġagres": 7243,
      "Ġsonido": 7244,
      "Ġinteligencia": 7245,
      "Ġvuelto": 7246,
      "Ġdepartamentos": 7247,
      "Ġsovi": 7248,
      "Ġasus": 7249,
      "Ġ51": 7250,
      "Ġconvertido": 7251,
      "Ġchipre": 7252,
      "cuenta": 7253,
      "Ġofrecen": 7254,
      "Ġalar": 7255,
      "ĠbebÃ©": 7256,
      "Ġgab": 7257,
      "Ġrevista": 7258,
      "Ġambientales": 7259,
      "Ġestrecha": 7260,
      "Ġcuadr": 7261,
      "Ġextraordinarias": 7262,
      "navigation": 7263,
      "Ġsalvar": 7264,
      "Ġregreso": 7265,
      "sar": 7266,
      "Ġcalcular": 7267,
      "ĠincorporaciÃ³n": 7268,
      "Ġvale": 7269,
      "Ġtoler": 7270,
      "Ġmunicipios": 7271,
      "ĠjamÃ¡s": 7272,
      "Ġtrabajan": 7273,
      "Ġposee": 7274,
      "Ġadjudic": 7275,
      "Ġpis": 7276,
      "Ġdefinir": 7277,
      "Ġquerido": 7278,
      "Ġrecuerdo": 7279,
      "Ġmetodo": 7280,
      "tenciÃ³n": 7281,
      "Ġby": 7282,
      "ĠcalificaciÃ³n": 7283,
      "Ġinser": 7284,
      "Ġpasos": 7285,
      "Ġutilic": 7286,
      "eu": 7287,
      "Ġafectadas": 7288,
      "rep": 7289,
      "Ġcorresponda": 7290,
      "!!": 7291,
      "defin": 7292,
      "usos": 7293,
      "Ġfalle": 7294,
      "Ġventajas": 7295,
      "Î½": 7296,
      "%,": 7297,
      "Ġtin": 7298,
      "Ġtraer": 7299,
      "Ġantonio": 7300,
      "Ġmetal": 7301,
      "ers": 7302,
      "Ġobis": 7303,
      "rÃ¡": 7304,
      "ĠempezÃ³": 7305,
      "Ġsitios": 7306,
      "Ġsiente": 7307,
      "anim": 7308,
      "pira": 7309,
      "Ġpienso": 7310,
      "edi": 7311,
      "Ġcuota": 7312,
      "Ġterminado": 7313,
      "Ġfotos": 7314,
      "ĠcertificaciÃ³n": 7315,
      "objeto": 7316,
      "ĠjustificaciÃ³n": 7317,
      "tz": 7318,
      "tagon": 7319,
      "Ġproceda": 7320,
      "Ġsustituye": 7321,
      "Ġeter": 7322,
      "Ġlogrado": 7323,
      "Ġfabricante": 7324,
      "Ġestr": 7325,
      "tive": 7326,
      "Ġconfiden": 7327,
      "Ġabog": 7328,
      "dadas": 7329,
      "Ġplaya": 7330,
      "Ġdeporte": 7331,
      "garse": 7332,
      "adminis": 7333,
      "dimos": 7334,
      "itadas": 7335,
      "debido": 7336,
      "Ġpuertas": 7337,
      "ĠkilÃ³metros": 7338,
      "Ġayer": 7339,
      "Ġaqui": 7340,
      "Ġsiga": 7341,
      "quien": 7342,
      "Ġconstruc": 7343,
      "Ġpreviamente": 7344,
      "Ġreembol": 7345,
      "bn": 7346,
      "cela": 7347,
      "Ġsirve": 7348,
      "Ġdispositivos": 7349,
      "Ġaudiencia": 7350,
      "Ġmundiales": 7351,
      "Ġcans": 7352,
      "Ġrespetar": 7353,
      "critos": 7354,
      "Ġextranjera": 7355,
      "Ġapre": 7356,
      "Ġeficaces": 7357,
      "Ġrojo": 7358,
      "ĠhÃŃ": 7359,
      "Ġconjuntamente": 7360,
      "...?": 7361,
      "ĠpublicÃ³": 7362,
      "bis": 7363,
      "Ġsacerdo": 7364,
      "Ġrepor": 7365,
      "Ġprima": 7366,
      "Ġox": 7367,
      "Ġcosto": 7368,
      "ĠexclusiÃ³n": 7369,
      "ĠdomÃ©s": 7370,
      "ik": 7371,
      "Ġreemp": 7372,
      "Ġsemej": 7373,
      "Ġenviado": 7374,
      "Ġobr": 7375,
      "ĠdetenciÃ³n": 7376,
      "????": 7377,
      "zarÃ¡": 7378,
      "Ġmonte": 7379,
      "Ġanticip": 7380,
      "ĠsÃŃm": 7381,
      "Ġcomprende": 7382,
      "Ġfemen": 7383,
      "Ġsanitaria": 7384,
      "igan": 7385,
      "ĠclÃ¡us": 7386,
      "Ġdigital": 7387,
      "Ġdemostrar": 7388,
      "Ġruta": 7389,
      "Ġindicado": 7390,
      "Ġsatisfac": 7391,
      "aso": 7392,
      "Ġresis": 7393,
      "todavÃŃa": 7394,
      "Ġtarif": 7395,
      "Ġcheca": 7396,
      "ĠÃ©tn": 7397,
      "Ã³digos": 7398,
      "Ġaudio": 7399,
      "ĠaquÃ©": 7400,
      "Ġdavid": 7401,
      "Îµ": 7402,
      "ĠeconomÃŃas": 7403,
      "subvenciÃ³n": 7404,
      "Ġdefec": 7405,
      "Ġpalacio": 7406,
      "ĠfÃ¡brica": 7407,
      "Ġpyme": 7408,
      "Ġenrique": 7409,
      "Ġdebes": 7410,
      "Ġdetener": 7411,
      "sida": 7412,
      "bili": 7413,
      "Ġobtenido": 7414,
      "ĠconsolidaciÃ³n": 7415,
      "ĠtrÃ¡": 7416,
      "Ġdimen": 7417,
      "Ġinglaterra": 7418,
      "gs": 7419,
      "ĠregÃŃmenes": 7420,
      "Ġbole": 7421,
      "Ġdetalle": 7422,
      "Ġ150": 7423,
      "Ġejemplos": 7424,
      "Ġalcohol": 7425,
      "Ġacp": 7426,
      "tanto": 7427,
      "gat": 7428,
      "Ġefectivamente": 7429,
      "aÃ±os": 7430,
      "Ġcuestion": 7431,
      "olÃ³gicas": 7432,
      "inta": 7433,
      "nal": 7434,
      "Ġrefuer": 7435,
      "Ġpdf": 7436,
      "Ġsilencio": 7437,
      "Ġproli": 7438,
      "ĠcuÃ¡l": 7439,
      "ĠverificaciÃ³n": 7440,
      "usa": 7441,
      "Ġabra": 7442,
      "itÃ©s": 7443,
      "Ġenfrentar": 7444,
      "Ġfijado": 7445,
      "Ġresumen": 7446,
      "ĠtendrÃŃa": 7447,
      "ĠseÃ±alÃ³": 7448,
      "concepto": 7449,
      "Ġregistros": 7450,
      "Ġcomand": 7451,
      "ei": 7452,
      "Ġaires": 7453,
      "Ġinstitucionales": 7454,
      "Ġdestinada": 7455,
      "ĠautomÃ³vil": 7456,
      "Ġfuertes": 7457,
      "arle": 7458,
      "Ġgama": 7459,
      "Ġurgente": 7460,
      "dujo": 7461,
      "ĠtradiciÃ³n": 7462,
      "Ġasc": 7463,
      "eur": 7464,
      "Ġonu": 7465,
      "mejor": 7466,
      "Ġpiloto": 7467,
      ".âĢĿ": 7468,
      "Ġit": 7469,
      "ms": 7470,
      "debo": 7471,
      "tener": 7472,
      "Ġreguladora": 7473,
      "Ġbruto": 7474,
      "boa": 7475,
      "alizados": 7476,
      "Ġfrank": 7477,
      "Ġsw": 7478,
      "conven": 7479,
      "Ġespiritual": 7480,
      "Ġcomplic": 7481,
      "Ġrecibe": 7482,
      "ĠdÃ©bil": 7483,
      "ragona": 7484,
      "Ġluch": 7485,
      "dome": 7486,
      "triz": 7487,
      "Ġeco": 7488,
      "Ġelaborado": 7489,
      "uera": 7490,
      "ĠbÃ¡sicas": 7491,
      "Ġcerebro": 7492,
      "Ġbill": 7493,
      "Ġocupa": 7494,
      "Ġdieron": 7495,
      "Ġdijiste": 7496,
      "sta": 7497,
      "Ġpoli": 7498,
      "Ġcuarta": 7499,
      "crees": 7500,
      "Ġ080": 7501,
      "Ġerradic": 7502,
      "tamento": 7503,
      "Ġnoctur": 7504,
      "Ġidentificar": 7505,
      "Ã¡frica": 7506,
      "cleo": 7507,
      "ries": 7508,
      "ĠlegÃŃti": 7509,
      "Ġconsidere": 7510,
      "Ġconsiderable": 7511,
      "Ġ77": 7512,
      "Ġpropiedades": 7513,
      "Ġnavidad": 7514,
      "Ġmanip": 7515,
      "ĠlÃŃderes": 7516,
      "rio": 7517,
      "ĠplÃ¡s": 7518,
      "Ġcombustible": 7519,
      "Ġidio": 7520,
      "ĠmÃºltiples": 7521,
      "gros": 7522,
      "%)": 7523,
      "estad": 7524,
      "ĠcarbÃ³n": 7525,
      "Ġhiciste": 7526,
      "Ġritmo": 7527,
      "ĠciÃ³n": 7528,
      "lamos": 7529,
      "Ġpensamiento": 7530,
      "Ġasesinato": 7531,
      "Ġinvolucr": 7532,
      "Ġdominio": 7533,
      "depen": 7534,
      "turos": 7535,
      "nuestro": 7536,
      "Ġfechas": 7537,
      "Ġempleado": 7538,
      "ezca": 7539,
      "polÃŃ": 7540,
      "buenos": 7541,
      "cipe": 7542,
      "Ġsho": 7543,
      "arnos": 7544,
      "sias": 7545,
      "Ġrin": 7546,
      "Ġuru": 7547,
      "ĠpodÃŃan": 7548,
      "hen": 7549,
      "Ġ64": 7550,
      "Ġsegundos": 7551,
      "Ġafuera": 7552,
      "domin": 7553,
      "ĠfÃ¡cilmente": 7554,
      "Ġdiga": 7555,
      "Ġpublicar": 7556,
      "cursos": 7557,
      "personal": 7558,
      "ang": 7559,
      "Ġptas": 7560,
      "rey": 7561,
      "Ġdonantes": 7562,
      "Ġmedicina": 7563,
      "Ġrelativamente": 7564,
      "ĠreacciÃ³n": 7565,
      "Ġagricultores": 7566,
      "Ġdiscapacidad": 7567,
      "ĠlingÃ¼": 7568,
      "dias": 7569,
      "ĠescribiÃ³": 7570,
      "lie": 7571,
      "traje": 7572,
      "aplicaciÃ³n": 7573,
      "Ġfacultad": 7574,
      "Ġinjus": 7575,
      "Ġkar": 7576,
      "late": 7577,
      "Ġproductor": 7578,
      "Ġacumul": 7579,
      "agr": 7580,
      "Ġparecen": 7581,
      "Ġcifra": 7582,
      "chi": 7583,
      "Ġpositiva": 7584,
      "ĠprÃŃn": 7585,
      "Ġaplicarse": 7586,
      "Ġconstruy": 7587,
      "Ġpic": 7588,
      "ciendo": 7589,
      "Ġbeneficiario": 7590,
      "nuestra": 7591,
      "nivel": 7592,
      "Ġcalcul": 7593,
      "ĠelÃ©ctrica": 7594,
      "ith": 7595,
      "cionamiento": 7596,
      "Ġfrase": 7597,
      "Ġrefieren": 7598,
      "venga": 7599,
      "Ġbasta": 7600,
      "Ġalcanzado": 7601,
      "Ġinternational": 7602,
      "jam": 7603,
      "Ġestima": 7604,
      "Ġtocar": 7605,
      "dÃ©jame": 7606,
      "Ġintensific": 7607,
      "emia": 7608,
      "Ġmoral": 7609,
      "cuÃ¡ndo": 7610,
      "capiÃ©": 7611,
      "Ġplanos": 7612,
      "gor": 7613,
      "Ġsoporte": 7614,
      "Ġfui": 7615,
      "Ġucrania": 7616,
      "ĠmÃ¡r": 7617,
      "Ġimponer": 7618,
      "2012": 7619,
      "Ġbarrio": 7620,
      "1991": 7621,
      "Ġpretende": 7622,
      "Ġmunicipales": 7623,
      "Ġobligatoria": 7624,
      "Ġdesgr": 7625,
      "propuesta": 7626,
      "paÃŃs": 7627,
      "Ġposteriores": 7628,
      "ĠfÃŃsicas": 7629,
      "Ġplaneamiento": 7630,
      "ĠdeclarÃ³": 7631,
      "tiago": 7632,
      "Ġignor": 7633,
      "Ġpuente": 7634,
      "Ġestablecimientos": 7635,
      "Ġalej": 7636,
      "Ġfuncionario": 7637,
      "Ġcongel": 7638,
      "ĠextraÃ±o": 7639,
      "ptimo": 7640,
      "Ġzo": 7641,
      "Ã¡les": 7642,
      "Ġnuevamente": 7643,
      "Ġninguno": 7644,
      "ĠhincapiÃ©": 7645,
      "Ġfic": 7646,
      "Ġoriginarios": 7647,
      "ĠprÃ©stamo": 7648,
      "turalmente": 7649,
      "Ġtum": 7650,
      "dificaciÃ³n": 7651,
      "zadas": 7652,
      "Ġquiera": 7653,
      "Ïģ": 7654,
      "Ġtrip": 7655,
      "Ġrique": 7656,
      "Ġginebra": 7657,
      "Ġdesen": 7658,
      "Ġprolifer": 7659,
      "Ġ53": 7660,
      "Ġsiguiendo": 7661,
      "gol": 7662,
      "Ġneu": 7663,
      "uras": 7664,
      "Ġperjudi": 7665,
      "Ġantiguos": 7666,
      "Ġafectan": 7667,
      "ĠenergÃ©tica": 7668,
      "Ġreducido": 7669,
      "Ġaler": 7670,
      "Ã³cra": 7671,
      "anes": 7672,
      "Ġingreso": 7673,
      "Ġyou": 7674,
      "ĠÃ¡rabes": 7675,
      "ierto": 7676,
      "echos": 7677,
      "Ġdifun": 7678,
      "Ġtrimestre": 7679,
      "Ġliqui": 7680,
      "Ġfrutas": 7681,
      "?\"": 7682,
      "Ġanexos": 7683,
      "Ġdeterminada": 7684,
      "Ġagrad": 7685,
      "ĠobtenciÃ³n": 7686,
      "mad": 7687,
      "Ġrebel": 7688,
      "ĠaproximaciÃ³n": 7689,
      "Ġregu": 7690,
      "Ġconsign": 7691,
      "hal": 7692,
      "Ġ400": 7693,
      "Ġcita": 7694,
      "zona": 7695,
      "Ġhomolo": 7696,
      "Ġcrimen": 7697,
      "ĠredacciÃ³n": 7698,
      "Ġ59": 7699,
      "Ġclic": 7700,
      "Ġrequisito": 7701,
      "perdÃ³n": 7702,
      "Ġvisi": 7703,
      "Ġ1984": 7704,
      "Ġquinto": 7705,
      "Ġabaste": 7706,
      "Ġproporcional": 7707,
      "Ġgases": 7708,
      "ashington": 7709,
      "texto": 7710,
      "Ġlocalidad": 7711,
      "ĠfijaciÃ³n": 7712,
      "Ġdefensor": 7713,
      "ind": 7714,
      "Ġconfigur": 7715,
      "Ġgobernador": 7716,
      "ĠpelÃŃculas": 7717,
      "icales": 7718,
      "Ġvege": 7719,
      "hael": 7720,
      "trocin": 7721,
      "Ġ87": 7722,
      "Ġingles": 7723,
      "Ġjudiciales": 7724,
      "Ġhagas": 7725,
      "Ġabsoluto": 7726,
      "ĠseÃ±orÃŃas": 7727,
      "Ġmanifiesto": 7728,
      "ĠcÃ³digos": 7729,
      "Ġculp": 7730,
      "Ġsolicitado": 7731,
      "Ġbosque": 7732,
      "date": 7733,
      "ĠespectÃ¡": 7734,
      "ĠsÃ¡b": 7735,
      "queo": 7736,
      "Ġocupado": 7737,
      "ĠpÃ¡rrafos": 7738,
      "ĠhÃ¡bi": 7739,
      "ej": 7740,
      "pÃ³n": 7741,
      "ney": 7742,
      "Ġlenguaje": 7743,
      "taÃ±a": 7744,
      "Ġdiscurso": 7745,
      "Ġdomicilio": 7746,
      "total": 7747,
      "iÃ©ndose": 7748,
      "Ġtabla": 7749,
      "ieren": 7750,
      "lina": 7751,
      "conoci": 7752,
      "Ġdisminuy": 7753,
      "Ġpalestinos": 7754,
      "Ã³x": 7755,
      "Ġpaisa": 7756,
      "Ġhabido": 7757,
      "yu": 7758,
      "Ġ98": 7759,
      "Ġfantas": 7760,
      "Ġrealizan": 7761,
      "ĠÂ°": 7762,
      "Ġhaberse": 7763,
      "Ġsencillo": 7764,
      "Ġviento": 7765,
      "director": 7766,
      "Ġtuv": 7767,
      "Ġmejoras": 7768,
      "berg": 7769,
      "ĠhungrÃŃa": 7770,
      "Ġcapaces": 7771,
      "Ġsemillas": 7772,
      "Ġilegal": 7773,
      "Ġbulgaria": 7774,
      "ĠÃ": 7775,
      "cebo": 7776,
      "Ġic": 7777,
      "Ġcultivo": 7778,
      "ĠhÃ©": 7779,
      "cida": 7780,
      "Ġcuerpos": 7781,
      "Ġhig": 7782,
      "Ġlistas": 7783,
      "Ġdesf": 7784,
      "Ġcontrapartida": 7785,
      "Ġ89": 7786,
      "Ġdepos": 7787,
      "ĠentrÃ³": 7788,
      "Ġracional": 7789,
      "Ġdor": 7790,
      "Ġtaba": 7791,
      "Ġobtenidos": 7792,
      "Ġevangel": 7793,
      "ĠharÃŃa": 7794,
      "dows": 7795,
      "ĠfÃŃsico": 7796,
      "iencia": 7797,
      "ĠparÃ¡metros": 7798,
      "Ġvigencia": 7799,
      "Ã¡is": 7800,
      "Ġnicara": 7801,
      "Ġembaraz": 7802,
      "ilip": 7803,
      "ĠdesempeÃ±ar": 7804,
      "ĠmontaÃ±a": 7805,
      "Ġevento": 7806,
      "jeras": 7807,
      "Ġcapitales": 7808,
      "inea": 7809,
      "preci": 7810,
      "Ġcuyas": 7811,
      "Ġgirona": 7812,
      "Ġconozco": 7813,
      "Ġaccidentes": 7814,
      "ĠcrÃŃtica": 7815,
      "fac": 7816,
      "Ġsituada": 7817,
      "ĠcontinÃºa": 7818,
      "tÃ¡menes": 7819,
      "Ġrelacionado": 7820,
      "Ġcitado": 7821,
      "Ġdisponen": 7822,
      "Ġextraordinario": 7823,
      "Ġaloj": 7824,
      "Ġbl": 7825,
      "Ġexplica": 7826,
      "Ġperiodistas": 7827,
      "Ġkoso": 7828,
      "Ġcomienza": 7829,
      "tima": 7830,
      "mierda": 7831,
      "Ġsiria": 7832,
      "ĠâĤ¬": 7833,
      "Ġpromedio": 7834,
      "Ġsecciones": 7835,
      "dime": 7836,
      "Ġpropa": 7837,
      "Ġfuncional": 7838,
      "tch": 7839,
      "Ġador": 7840,
      "ĠestableciÃ³": 7841,
      "Ġpau": 7842,
      "Ġvisitas": 7843,
      "Ġdetallada": 7844,
      "Ġconvertirse": 7845,
      "Ġasen": 7846,
      "Ġzapa": 7847,
      "Ġdene": 7848,
      "Ġvivos": 7849,
      "Ġdenunci": 7850,
      "Ġreiter": 7851,
      "-,": 7852,
      "Ġitaliano": 7853,
      "Ġdesarrollado": 7854,
      "Ġexpresamente": 7855,
      "Ġreclamaciones": 7856,
      "Ġescena": 7857,
      "Ġinau": 7858,
      "Ġsupuestos": 7859,
      "Ġtemporales": 7860,
      "Ġpeda": 7861,
      "Ġlicencias": 7862,
      "Ġarras": 7863,
      "tÃ©cn": 7864,
      "Ġoperadores": 7865,
      "abo": 7866,
      "Ġvosotros": 7867,
      "ĠfenÃ³meno": 7868,
      "Ġcreen": 7869,
      "Ġretirada": 7870,
      "Ġ72": 7871,
      "ĠdirÃ©": 7872,
      "Ġexplicar": 7873,
      "dicho": 7874,
      "ĠfrÃŃo": 7875,
      "Ġinsis": 7876,
      "Ġvender": 7877,
      "Ġfestiv": 7878,
      "bul": 7879,
      "somos": 7880,
      "supongo": 7881,
      "Ġfuturos": 7882,
      "segun": 7883,
      "Ġmental": 7884,
      "Ġmensajes": 7885,
      "Ġcompuesto": 7886,
      "Ġvenezuela": 7887,
      "oficial": 7888,
      "cau": 7889,
      "Ġcereales": 7890,
      "Ġprobar": 7891,
      "iana": 7892,
      "Ġmalta": 7893,
      "Ġges": 7894,
      "tame": 7895,
      "ĠorgÃ¡nica": 7896,
      "Ġdetermina": 7897,
      "Ġapoya": 7898,
      "izos": 7899,
      "Ġretro": 7900,
      "Ġcomar": 7901,
      "control": 7902,
      "abas": 7903,
      "Ġmuestran": 7904,
      "Ġresca": 7905,
      "quilla": 7906,
      "Ġestrellas": 7907,
      "sto": 7908,
      "Ġestadounidenses": 7909,
      "Ġguatem": 7910,
      "ĠexpediciÃ³n": 7911,
      "Ġsole": 7912,
      "Ġalemana": 7913,
      "Ġpesetas": 7914,
      "tara": 7915,
      "Ġoperativo": 7916,
      "Ġejecutiva": 7917,
      "dole": 7918,
      "Ġartifici": 7919,
      "eval": 7920,
      "deraciÃ³n": 7921,
      "Ġocta": 7922,
      "Ġaltas": 7923,
      "Ġregresar": 7924,
      "Ġcumplen": 7925,
      "xx": 7926,
      "Ġpermitido": 7927,
      "Ġfrecuentes": 7928,
      "Ġdiscre": 7929,
      "Ġmodern": 7930,
      "Ġobligado": 7931,
      "Ġpref": 7932,
      "camiento": 7933,
      "dea": 7934,
      "Ġdelic": 7935,
      "Ġrestr": 7936,
      "Ġcomisionado": 7937,
      "Ġfijar": 7938,
      "Ġferrocarr": 7939,
      "red": 7940,
      "Ġcubierta": 7941,
      "ruecos": 7942,
      "ĠpermitirÃ¡": 7943,
      "dese": 7944,
      "Ġcontamin": 7945,
      "Ġherramienta": 7946,
      "ĠÃ¡cido": 7947,
      "ld": 7948,
      "Ġdoy": 7949,
      "ua": 7950,
      "Ġsuele": 7951,
      "Ġdecis": 7952,
      "Ġtendencias": 7953,
      "Ġpocas": 7954,
      "ombra": 7955,
      "Ġcasti": 7956,
      "Ġsatisfacer": 7957,
      "Ġaprovechar": 7958,
      "Ġpus": 7959,
      "Ġrepercusiones": 7960,
      "Ġexpans": 7961,
      "ÃŃdos": 7962,
      "igna": 7963,
      "Ġrazonable": 7964,
      "Ġadoptada": 7965,
      "ĠindicaciÃ³n": 7966,
      "Ġrector": 7967,
      "Ġorganizar": 7968,
      "adura": 7969,
      "titudes": 7970,
      "Ġanuncio": 7971,
      "ĠproliferaciÃ³n": 7972,
      "erra": 7973,
      "servicios": 7974,
      "Ġobservar": 7975,
      "uelvo": 7976,
      "Ġtienda": 7977,
      "Ġchicas": 7978,
      "Ġutilizadas": 7979,
      "tÃ©li": 7980,
      "cialmente": 7981,
      "ĠcelebrÃ³": 7982,
      "ise": 7983,
      "Ġvelar": 7984,
      "ĠvÃŃctima": 7985,
      "Ġsucesivo": 7986,
      "ĠinmigraciÃ³n": 7987,
      "Ġreacciones": 7988,
      "Ġsenti": 7989,
      "ĠcompaÃ±eros": 7990,
      "Ġlisboa": 7991,
      "Ġpolici": 7992,
      "Ġrespectivos": 7993,
      "hum": 7994,
      "esp": 7995,
      "ĠinformÃ³": 7996,
      "1989": 7997,
      "irÃŃa": 7998,
      "Ġtarjeta": 7999,
      "ÏĦ": 8000,
      "Ġkosovo": 8001,
      "Ġextin": 8002,
      "Ġorganizada": 8003,
      "Ġintegridad": 8004,
      "Ġdistingu": 8005,
      "Ġideal": 8006,
      "dulo": 8007,
      "Ġcalif": 8008,
      "Ġpasajeros": 8009,
      "ant": 8010,
      "Ġdas": 8011,
      "Ġlimitado": 8012,
      "Ġsolar": 8013,
      "dicamente": 8014,
      "Ġrelev": 8015,
      "Ġexpec": 8016,
      "Ġexpl": 8017,
      "Ġfaltas": 8018,
      "ĠbretaÃ±a": 8019,
      "ĠdeberÃŃamos": 8020,
      "Ġdispu": 8021,
      "ĠocÃ©": 8022,
      "Ġguerr": 8023,
      "Ġinoc": 8024,
      "Ġofertas": 8025,
      "Ġautorizado": 8026,
      "Ġlogro": 8027,
      "Ġrepu": 8028,
      "Ġordinario": 8029,
      "Ġproductividad": 8030,
      "Ġenemigo": 8031,
      "Ġfinanciar": 8032,
      "ĠquÃŃmicos": 8033,
      "Ġfus": 8034,
      "Ġperfecto": 8035,
      "Ġincompati": 8036,
      "Ġarmados": 8037,
      "Ġhorm": 8038,
      "Ġeva": 8039,
      "Ġviajes": 8040,
      "Ġsindic": 8041,
      "2013": 8042,
      "Ġlleida": 8043,
      "nie": 8044,
      "Ġcaer": 8045,
      "ĠacÃ¡": 8046,
      "Ġvariable": 8047,
      "Ġfranco": 8048,
      "Ġintegrada": 8049,
      "ĠnÃºcleo": 8050,
      "trados": 8051,
      "rollo": 8052,
      "Ã±ar": 8053,
      "Ġgon": 8054,
      "Ġespecializados": 8055,
      "Ġintelectual": 8056,
      "ini": 8057,
      "Ġang": 8058,
      "Ġreconocido": 8059,
      "Ġgro": 8060,
      "graf": 8061,
      "Ġrelator": 8062,
      "Ġpodamos": 8063,
      "ĠtÃŃp": 8064,
      "Ġbelle": 8065,
      "Ġhierro": 8066,
      "record": 8067,
      "Ġasistir": 8068,
      "ĠsimultÃ¡n": 8069,
      "onesia": 8070,
      "Ġdenominado": 8071,
      "Ġec": 8072,
      "Ġescolares": 8073,
      "izan": 8074,
      "docu": 8075,
      "fique": 8076,
      "haus": 8077,
      "Ġboliv": 8078,
      "Ġcomponente": 8079,
      "Ġflexibilidad": 8080,
      "sch": 8081,
      "Ġcorreg": 8082,
      "Ġsecues": 8083,
      "Ġcolores": 8084,
      "ĠauditorÃŃa": 8085,
      "Ġdimensiones": 8086,
      "inclu": 8087,
      "ganda": 8088,
      "Ġtestimon": 8089,
      "Ġronda": 8090,
      "Ġdulce": 8091,
      "tenÃŃa": 8092,
      "ĠaplicarÃ¡n": 8093,
      "centro": 8094,
      "Ġputa": 8095,
      "Ġalternativa": 8096,
      "pru": 8097,
      "pregun": 8098,
      "deja": 8099,
      "Ġproporciona": 8100,
      "Ġestabil": 8101,
      "aco": 8102,
      "Â·": 8103,
      "Ġruido": 8104,
      "Ġfraude": 8105,
      "Ġevidencia": 8106,
      "Ġpermanecer": 8107,
      "jÃ³n": 8108,
      "Ġpresentados": 8109,
      "cÃ©n": 8110,
      "ĠestÃ¡ndar": 8111,
      "Ġconviene": 8112,
      "int": 8113,
      "ĠsatÃ©li": 8114,
      "~~~": 8115,
      "ĠsaliÃ³": 8116,
      "ĠprevÃ©n": 8117,
      "ticios": 8118,
      "desar": 8119,
      "Ġliga": 8120,
      "ĠprÃ¡cticamente": 8121,
      "Ġreduc": 8122,
      "Ġ<": 8123,
      "ipe": 8124,
      "pado": 8125,
      "ites": 8126,
      "Ġpropon": 8127,
      "Ġbes": 8128,
      "ĠcomitÃ©s": 8129,
      "Ġfutura": 8130,
      "Ġconsen": 8131,
      "quilo": 8132,
      "Ġsepa": 8133,
      "Ġcitada": 8134,
      "Ġtortura": 8135,
      "ĠquincuagÃ©simo": 8136,
      "Ġdesglos": 8137,
      "ĠaÃ±adir": 8138,
      "Ġche": 8139,
      "Ġfuese": 8140,
      "Ġpropietarios": 8141,
      "Ġparticipa": 8142,
      "Ġmusul": 8143,
      "Ġ02": 8144,
      "Ġverific": 8145,
      "Ġuniforme": 8146,
      "Ġrecoger": 8147,
      "Ã¡m": 8148,
      "Ġterrenos": 8149,
      "ĠformulaciÃ³n": 8150,
      "ĠpartÃŃ": 8151,
      "Ġhues": 8152,
      "ĠdictÃ¡menes": 8153,
      "Ġprocedente": 8154,
      "ĠaÃ±adido": 8155,
      "presupuesto": 8156,
      "resul": 8157,
      "Ġnacionalidad": 8158,
      "Ġsospech": 8159,
      "Ġ1983": 8160,
      "apro": 8161,
      "omÃ©": 8162,
      "bral": 8163,
      "iguel": 8164,
      "mamÃ¡": 8165,
      "Ġsebc": 8166,
      "Ġpaga": 8167,
      "Ġpreserv": 8168,
      "estado": 8169,
      "garÃ¡": 8170,
      "Ġaplican": 8171,
      "ĠoraciÃ³n": 8172,
      "Ġsalarios": 8173,
      "Ġpareja": 8174,
      "Ġindispensable": 8175,
      "Ġanalizar": 8176,
      "Ġpasan": 8177,
      "uratom": 8178,
      "Ġgracia": 8179,
      "Ġventaja": 8180,
      "ĠseguirÃ¡": 8181,
      "ĠminorÃŃas": 8182,
      "Ġdeterior": 8183,
      "ĠimpresiÃ³n": 8184,
      "Ġacogida": 8185,
      "Ġliquidez": 8186,
      "Ġamis": 8187,
      "Ġinvierno": 8188,
      "ters": 8189,
      "Ġsuelen": 8190,
      "Ġorganizado": 8191,
      "blemente": 8192,
      "Ġcomplejo": 8193,
      "Ġ99": 8194,
      "Ġrequieren": 8195,
      "Ġatrac": 8196,
      "Ġamenazas": 8197,
      "ht": 8198,
      "ĠestÃºp": 8199,
      "Ġpreocupes": 8200,
      "Ġbilaterales": 8201,
      "activ": 8202,
      "Ġtarget": 8203,
      "super": 8204,
      "ĠincreÃŃble": 8205,
      "jal": 8206,
      "ĠparecÃŃa": 8207,
      "ĠbÃ¡sico": 8208,
      "Ġbomb": 8209,
      "Ġencontramos": 8210,
      "vino": 8211,
      "rÃ³n": 8212,
      "Ġorientaciones": 8213,
      "Ġpudieran": 8214,
      "Ġdirigido": 8215,
      "Ġagencias": 8216,
      "Ġhil": 8217,
      "Ġsincer": 8218,
      "Ġdada": 8219,
      "Ġplas": 8220,
      "Ġsignificado": 8221,
      "Ġciudadano": 8222,
      "ux": 8223,
      "Ġproven": 8224,
      "Ġprorro": 8225,
      "Ġ94": 8226,
      "Ġreproduc": 8227,
      "Ġusando": 8228,
      "carse": 8229,
      "Ġinvestigadores": 8230,
      "Ġpermanentes": 8231,
      "Ġvicepresidente": 8232,
      "ran": 8233,
      "Ġvirus": 8234,
      "ĠmÃŃnimos": 8235,
      "Ġcastillo": 8236,
      "cualquier": 8237,
      "Ġenamor": 8238,
      "vien": 8239,
      "Ġdiferenci": 8240,
      "Ġcancel": 8241,
      "paÃ±as": 8242,
      "Ġconcretos": 8243,
      "ĠaÃ©rea": 8244,
      "Ġpreparados": 8245,
      "Ġconvergencia": 8246,
      "Ġdelim": 8247,
      "Ġindividuos": 8248,
      "azo": 8249,
      "Ġseparado": 8250,
      "Ġeslova": 8251,
      "Ġnotificado": 8252,
      "Ġabord": 8253,
      "Ġhubiese": 8254,
      "duras": 8255,
      "Ġlimitaciones": 8256,
      "conf": 8257,
      "Ġmarcas": 8258,
      "ĠseparaciÃ³n": 8259,
      "papÃ¡": 8260,
      "Ġracial": 8261,
      "dices": 8262,
      "pueden": 8263,
      "ĠocurriÃ³": 8264,
      "compr": 8265,
      "Ġcomprim": 8266,
      "Ġdescribe": 8267,
      "ĠexpansiÃ³n": 8268,
      "Ġtraslado": 8269,
      "Ġdiscul": 8270,
      "Ġmix": 8271,
      "Ġterrible": 8272,
      "Ġlimitada": 8273,
      "Ġquedado": 8274,
      "Ġaj": 8275,
      "Ġdudas": 8276,
      "Ġwal": 8277,
      "culaciÃ³n": 8278,
      "Ġ96": 8279,
      "ĠrenovaciÃ³n": 8280,
      "Ġsobr": 8281,
      "Ã³mica": 8282,
      "Ġraza": 8283,
      "ĠenseÃ±anzas": 8284,
      "Ġventana": 8285,
      "Ġvencimiento": 8286,
      "ĠperiÃ³dicos": 8287,
      "Ġfuturas": 8288,
      "300": 8289,
      "Ġdero": 8290,
      "Ġavance": 8291,
      "Ġpalestino": 8292,
      "ĠacabÃ³": 8293,
      "Ġhermosa": 8294,
      "Ġpendientes": 8295,
      "Ġfum": 8296,
      "Ġpnud": 8297,
      "Ġkuwa": 8298,
      "Ġproponer": 8299,
      "ĠestarÃŃa": 8300,
      "umin": 8301,
      "Ġpatrocin": 8302,
      "Ġrepresentar": 8303,
      "Ġfijo": 8304,
      "selo": 8305,
      "medidas": 8306,
      "Ġadjunto": 8307,
      "tese": 8308,
      "ear": 8309,
      "Ġpsic": 8310,
      "estados": 8311,
      "Ġcontras": 8312,
      "Ġcaballo": 8313,
      "Ġconcurso": 8314,
      "Ġdecirle": 8315,
      "princip": 8316,
      "Ġllegue": 8317,
      "Ġagre": 8318,
      "ancias": 8319,
      "Ġrefleja": 8320,
      "Ġcambiado": 8321,
      "Ġsantiago": 8322,
      "Ġveinte": 8323,
      "habÃŃa": 8324,
      "Ġ\"\"": 8325,
      "ĠseÃ±ores": 8326,
      "Ġdigas": 8327,
      "vado": 8328,
      "Ġdignidad": 8329,
      "Ġquinta": 8330,
      "Ġtreinta": 8331,
      "Ġodio": 8332,
      "Ġasal": 8333,
      "ot": 8334,
      "sabe": 8335,
      "Ġvienen": 8336,
      "primero": 8337,
      "Ġextremo": 8338,
      "ĠcÃ³": 8339,
      "Ġrenunci": 8340,
      "Ġregula": 8341,
      "Ġcometido": 8342,
      "Ġyugoslavia": 8343,
      "Ġmediados": 8344,
      "cp": 8345,
      "ilandia": 8346,
      "Ġguardia": 8347,
      "ides": 8348,
      "Ã©ste": 8349,
      "Ġuniverso": 8350,
      "Ġconcluir": 8351,
      "miem": 8352,
      "ĠpensÃ©": 8353,
      "Ġexcepcional": 8354,
      "Ġnutr": 8355,
      "of": 8356,
      "ĠmillÃ³n": 8357,
      "Ġ1982": 8358,
      "Ġtarragona": 8359,
      "ĠtecnolÃ³gico": 8360,
      "Ġgeneralitat": 8361,
      "Ġprofunda": 8362,
      "Ġespacial": 8363,
      "querÃŃa": 8364,
      "Ġaportar": 8365,
      "distr": 8366,
      "itor": 8367,
      "ĠtrÃ¡mi": 8368,
      "Ġintegral": 8369,
      "ĠcaÃŃda": 8370,
      "Ġejecutar": 8371,
      "mediante": 8372,
      "locu": 8373,
      "Ġsing": 8374,
      "allÃŃ": 8375,
      "Ġbordo": 8376,
      "Ġprotagon": 8377,
      "liquen": 8378,
      "escucha": 8379,
      "Ġsiglos": 8380,
      "Ġmagis": 8381,
      "Ġsuplemen": 8382,
      "ĠrealizarÃ¡": 8383,
      "ĠÃ¡rboles": 8384,
      "amp": 8385,
      "ĠprÃŃncipe": 8386,
      "ĠlicitaciÃ³n": 8387,
      "gÃ©n": 8388,
      "Ġ97": 8389,
      "trato": 8390,
      "Ġcerrado": 8391,
      "Ġdirigidas": 8392,
      "Ġase": 8393,
      "Ġtransacciones": 8394,
      "Ġasumir": 8395,
      "ayuda": 8396,
      "quisiera": 8397,
      "Ġprodujo": 8398,
      ";&#": 8399,
      "Ġsalvaguar": 8400,
      "Ġpaquete": 8401,
      "Ġreciben": 8402,
      "400": 8403,
      "Ġasilo": 8404,
      "Ġgenial": 8405,
      "Ġfacilidad": 8406,
      "die": 8407,
      "hacer": 8408,
      "ĠcomprensiÃ³n": 8409,
      "ĠllevarÃ¡": 8410,
      ".Â»": 8411,
      "Ġmanuel": 8412,
      "Ġtransferencias": 8413,
      "Ġprofundo": 8414,
      "Ġpreocupa": 8415,
      "Ġcontinente": 8416,
      "Ġmodos": 8417,
      "Ġajustes": 8418,
      "Ġsaldo": 8419,
      "Ġvotar": 8420,
      "ĠautÃ©ntico": 8421,
      "Ġformado": 8422,
      "ĠllamÃ³": 8423,
      "tÃŃan": 8424,
      "declar": 8425,
      "Ġconsorcio": 8426,
      "americana": 8427,
      "Ġmanual": 8428,
      "0000100": 8429,
      "Ġwindows": 8430,
      "ĠtraducciÃ³n": 8431,
      "Ġguinea": 8432,
      "Ġdesconoci": 8433,
      "aprobaciÃ³n": 8434,
      "Ġtrabajado": 8435,
      "Ġbuque": 8436,
      "Ġproducen": 8437,
      "Ġenvas": 8438,
      "Ġprovocar": 8439,
      "Ġcola": 8440,
      "Ġimpulso": 8441,
      "Ġlatino": 8442,
      "ĠgeogrÃ¡fica": 8443,
      "mm": 8444,
      "lamiento": 8445,
      "Ġlog": 8446,
      "Ġcolectivos": 8447,
      "Ġrecuperar": 8448,
      "Ġwashington": 8449,
      "Ġvii": 8450,
      "ÃŃsimo": 8451,
      "Ġparticipante": 8452,
      "Ġurbana": 8453,
      "Ġsubray": 8454,
      "Ġapel": 8455,
      "Ġcaliente": 8456,
      "Ġcolumna": 8457,
      "kin": 8458,
      "condiciones": 8459,
      "Ġpecado": 8460,
      "Ġanaliz": 8461,
      "sil": 8462,
      "teniendo": 8463,
      "Ã©ndice": 8464,
      "ĠencontrÃ³": 8465,
      "Ġelimin": 8466,
      "yendo": 8467,
      "Ġflujo": 8468,
      "ĠiniciÃ³": 8469,
      "Ġpresentarse": 8470,
      "Ġdedicado": 8471,
      "Ġagradecer": 8472,
      "ĠcampaÃ±as": 8473,
      "Ġfla": 8474,
      "Ġcontienen": 8475,
      "Ġtransmitir": 8476,
      "Ġincidencia": 8477,
      "melo": 8478,
      "Ġestrella": 8479,
      "rado": 8480,
      "integr": 8481,
      "Ġferrovi": 8482,
      "Ġparcela": 8483,
      "Ġespal": 8484,
      "Ġdivul": 8485,
      "Ġinaugur": 8486,
      "ĠcÃ³n": 8487,
      "Ġdescubier": 8488,
      "ĠactÃº": 8489,
      "Ġsalarial": 8490,
      "\"),": 8491,
      "plic": 8492,
      "Ġsale": 8493,
      "Ġhojas": 8494,
      "Ġtos": 8495,
      "ĠtensiÃ³n": 8496,
      "Ġvirgen": 8497,
      "Ġrestable": 8498,
      "Ġrib": 8499,
      "Ġcorta": 8500,
      "Ġmezcla": 8501,
      "Ġformulario": 8502,
      "Ġhen": 8503,
      "Ġpromue": 8504,
      "avera": 8505,
      "âĸ": 8506,
      "Ġtecho": 8507,
      "Ġincrementar": 8508,
      "Ġef": 8509,
      "osamente": 8510,
      "Ġ88": 8511,
      "aras": 8512,
      "Ġimpon": 8513,
      "ficio": 8514,
      "tte": 8515,
      "esen": 8516,
      "Ġ62": 8517,
      "Ġdirigentes": 8518,
      "ĠhÃ¡bil": 8519,
      "Ġatre": 8520,
      "vÃ©": 8521,
      "Ġnombrado": 8522,
      "Ġrestring": 8523,
      "Ġafron": 8524,
      "ku": 8525,
      "casi": 8526,
      "organizaciÃ³n": 8527,
      "Ġong": 8528,
      "ĠjardÃŃn": 8529,
      "tron": 8530,
      "Ġestructural": 8531,
      "Ġpremios": 8532,
      "pez": 8533,
      "Ġcanciones": 8534,
      "ĠreconstrucciÃ³n": 8535,
      "ĠharÃ¡n": 8536,
      "Ġlitu": 8537,
      "pÃ¡g": 8538,
      "Ġdelincuencia": 8539,
      "recom": 8540,
      "Ġirreg": 8541,
      "Ġdenuncia": 8542,
      "asunto": 8543,
      "Ġparal": 8544,
      "Ġsanidad": 8545,
      "Ġcomandante": 8546,
      "Ġinmun": 8547,
      "Ġchil": 8548,
      "Ġracismo": 8549,
      "Ġroja": 8550,
      "Ġtriun": 8551,
      "Ġinto": 8552,
      "ense": 8553,
      "ĠapariciÃ³n": 8554,
      "Ġpertenecientes": 8555,
      "Ġirre": 8556,
      "ĠrecopilaciÃ³n": 8557,
      "eamente": 8558,
      "ĠurbanÃŃstica": 8559,
      "Ġpresi": 8560,
      "Ġdemuestra": 8561,
      "crÃ©di": 8562,
      "grÃ¡ficas": 8563,
      "ĠinyecciÃ³n": 8564,
      "productos": 8565,
      "ward": 8566,
      "Ġinquie": 8567,
      "Ġbolsa": 8568,
      "Ġdiagn": 8569,
      "Ġoscur": 8570,
      "Ġuse": 8571,
      "ĠcÃŃr": 8572,
      "Ġsindicales": 8573,
      "Ġmaquin": 8574,
      "existen": 8575,
      "Ġaduanero": 8576,
      "ĠreglamentaciÃ³n": 8577,
      "ĠdemocrÃ¡tico": 8578,
      "Ġreto": 8579,
      "Ġbah": 8580,
      "Ġuruguay": 8581,
      "ĠhomologaciÃ³n": 8582,
      "Ġarran": 8583,
      "unas": 8584,
      "Ġenumer": 8585,
      "Ġmarch": 8586,
      "Ġbau": 8587,
      "Ġpreocupaciones": 8588,
      "ume": 8589,
      "Ġbaj": 8590,
      "Ġprofesores": 8591,
      "Ġapues": 8592,
      "Ġrealizarse": 8593,
      "hos": 8594,
      "cientes": 8595,
      "Ġsec": 8596,
      "ĠsiguiÃ³": 8597,
      "Ġeficiente": 8598,
      "Ġartistas": 8599,
      "Ġmarruecos": 8600,
      "ĠexenciÃ³n": 8601,
      "wit": 8602,
      "amen": 8603,
      "Ġcorresponden": 8604,
      "ĠmediterrÃ¡neo": 8605,
      "ÃŃcito": 8606,
      "Ġmusical": 8607,
      "ĠpresentarÃ¡": 8608,
      "pel": 8609,
      "Ġrevolucion": 8610,
      "Ġmacro": 8611,
      "pensÃ©": 8612,
      "Ġultra": 8613,
      "!\"": 8614,
      "inf": 8615,
      "Ġenlace": 8616,
      "ĠubicaciÃ³n": 8617,
      "Ġconsultivo": 8618,
      "vias": 8619,
      "Ġko": 8620,
      "Ġconvierte": 8621,
      "001": 8622,
      "gaba": 8623,
      "Ġbienio": 8624,
      "ĠespaÃ±oles": 8625,
      "Ġapropiado": 8626,
      "rer": 8627,
      "Ġconsejos": 8628,
      "Ġactivamente": 8629,
      "ight": 8630,
      "ladas": 8631,
      "ĠcÃŃ": 8632,
      "Ġpresta": 8633,
      "Ġrestos": 8634,
      "Ġfueran": 8635,
      "Ġsignificativa": 8636,
      "Ġcombate": 8637,
      "Ġexcepciones": 8638,
      "Ġmargin": 8639,
      "ĠautÃ³noma": 8640,
      "Ġaprobadas": 8641,
      "Ġadopten": 8642,
      "bs": 8643,
      "Ġrelacionada": 8644,
      "Ġadmis": 8645,
      "Ġaplicado": 8646,
      "seÃ±ora": 8647,
      "ĠespecÃŃficamente": 8648,
      "liam": 8649,
      "ĠvariaciÃ³n": 8650,
      "Ġinmo": 8651,
      "ĠleÃ³n": 8652,
      "Ġfrag": 8653,
      "Ġvalidez": 8654,
      "Ġacor": 8655,
      "Ġhaz": 8656,
      "Ġ101": 8657,
      "Ġrelie": 8658,
      "ĠjubilaciÃ³n": 8659,
      "Ã³logo": 8660,
      "Ġapun": 8661,
      "Ġprision": 8662,
      "amentos": 8663,
      "Ġ05": 8664,
      "Ġpablo": 8665,
      "sula": 8666,
      "ĠlogrÃ³": 8667,
      "Ġdecide": 8668,
      "Ġtuve": 8669,
      "Ġbienven": 8670,
      "Ġ1979": 8671,
      "Ġquince": 8672,
      "estre": 8673,
      "ĠprofesiÃ³n": 8674,
      "Ġseminario": 8675,
      "Ġcandidato": 8676,
      "Ġ107": 8677,
      "caba": 8678,
      "dictamen": 8679,
      "Ġnoticia": 8680,
      "Ġhecha": 8681,
      "portaciones": 8682,
      "icef": 8683,
      "Ġaliv": 8684,
      "Ġtuviera": 8685,
      "Ġcoherencia": 8686,
      "pÃ¡r": 8687,
      "Ġconsiderablemente": 8688,
      "Ġwa": 8689,
      "ĠlÃŃbano": 8690,
      "Ġrock": 8691,
      "ĠconsiderarÃ¡": 8692,
      "Ġpertenece": 8693,
      "Ġguatemala": 8694,
      "Ã±ado": 8695,
      "Ġestancia": 8696,
      "Ġ86": 8697,
      "Ġcontemplados": 8698,
      "dical": 8699,
      "ĠâĢĺ": 8700,
      "Ġbelleza": 8701,
      "ster": 8702,
      "ĠingenierÃŃa": 8703,
      "bolo": 8704,
      "Ġoficio": 8705,
      "Ġ61": 8706,
      "Ġpere": 8707,
      "Ġvieja": 8708,
      "ĠsustituciÃ³n": 8709,
      "Ġabogados": 8710,
      "Ġacabar": 8711,
      "Ġafectar": 8712,
      "nis": 8713,
      "Ġllamamiento": 8714,
      "ĠpakistÃ¡n": 8715,
      "Ġacoge": 8716,
      "Ġfur": 8717,
      "Ġbla": 8718,
      "Ġlleno": 8719,
      "Ġmarina": 8720,
      "Ġoficialmente": 8721,
      "Ġmaj": 8722,
      "ĠconsiderÃ³": 8723,
      "ĠurbanÃŃsticas": 8724,
      "Ġtv": 8725,
      "amar": 8726,
      "Ġcultivos": 8727,
      "Ġaerona": 8728,
      "Ġmover": 8729,
      "Ġsolicita": 8730,
      "ĠmetÃ¡": 8731,
      "Ġllegaron": 8732,
      "Ġcarbono": 8733,
      "Ġexpor": 8734,
      "Ġfranceses": 8735,
      "Ġjim": 8736,
      "Ġpc": 8737,
      "cuciÃ³n": 8738,
      "sario": 8739,
      "Ġpaul": 8740,
      "Ġdestaca": 8741,
      "Ġfren": 8742,
      "Ġcontrac": 8743,
      "Ġalemanes": 8744,
      "Ġdefinitivo": 8745,
      "Ġfases": 8746,
      "ĠantelaciÃ³n": 8747,
      "ornia": 8748,
      "Ġsuperviv": 8749,
      "Ġdistinto": 8750,
      "ĠreclamaciÃ³n": 8751,
      "Ġlimpi": 8752,
      "Ġdirigir": 8753,
      "Ġfacultades": 8754,
      "Ġcontingentes": 8755,
      "Ġcompletar": 8756,
      "Ġcontactos": 8757,
      "Ġavanzar": 8758,
      "Ġcero": 8759,
      "ologÃŃa": 8760,
      "Ġparcialmente": 8761,
      "viendo": 8762,
      "Ġlago": 8763,
      "0100": 8764,
      "Ġdijeron": 8765,
      "lez": 8766,
      "bieron": 8767,
      "fur": 8768,
      "ĠcorrecciÃ³n": 8769,
      "mb": 8770,
      "mÃŃ": 8771,
      "Ġcanales": 8772,
      "tira": 8773,
      "Ġdemonios": 8774,
      "dÃŃan": 8775,
      "Ġindependientemente": 8776,
      "itamos": 8777,
      "Ġitaliana": 8778,
      "deos": 8779,
      "ĠposesiÃ³n": 8780,
      "Ġtiro": 8781,
      "Ã©ricas": 8782,
      "currido": 8783,
      "Ġperpe": 8784,
      "ĠtramitaciÃ³n": 8785,
      "Ġmuchacho": 8786,
      "viste": 8787,
      "Ġhablado": 8788,
      "rito": 8789,
      "istemas": 8790,
      "Ġacade": 8791,
      "Ġanci": 8792,
      "Ġnegativa": 8793,
      "Ġagenda": 8794,
      "Ġjurisdic": 8795,
      "Ġautorizados": 8796,
      "Ġllan": 8797,
      "Ġparo": 8798,
      "Ġsul": 8799,
      "Ġexplotaciones": 8800,
      "Ġbosnia": 8801,
      "Ġadolescentes": 8802,
      "determin": 8803,
      "Ġinterval": 8804,
      "Ġcontabilidad": 8805,
      "Ġperf": 8806,
      "ĠenvÃŃo": 8807,
      "Ġmatem": 8808,
      "Ã¡bamos": 8809,
      "Ã¡ndole": 8810,
      "Ġescenario": 8811,
      "Ġclaridad": 8812,
      "Ġzel": 8813,
      "Ġescapar": 8814,
      "cord": 8815,
      "Ġcese": 8816,
      "Ġprecisa": 8817,
      "rom": 8818,
      "ĠdifÃŃciles": 8819,
      "Ġestabas": 8820,
      "fuera": 8821,
      "tillas": 8822,
      "Ġdeclarado": 8823,
      "ĠdetecciÃ³n": 8824,
      "Ġline": 8825,
      "Ġvital": 8826,
      "bregat": 8827,
      "Ġnc": 8828,
      "Ġcristianos": 8829,
      "Ġana": 8830,
      "recordando": 8831,
      "Ġads": 8832,
      "td": 8833,
      "Ġforestal": 8834,
      "Ġconfidencial": 8835,
      "Ġcorrer": 8836,
      "Ġponerse": 8837,
      "Ġcolectiva": 8838,
      "Ġmiguel": 8839,
      "formaciÃ³n": 8840,
      "dedores": 8841,
      "Ġmonum": 8842,
      "icion": 8843,
      "Ġacondi": 8844,
      "Ġsexto": 8845,
      "Ġutilizada": 8846,
      "Ġlanzamiento": 8847,
      "Ġmixto": 8848,
      "Ġfuncionar": 8849,
      "Ġnombramiento": 8850,
      "Ġplantea": 8851,
      "ĠseÃ±ales": 8852,
      "Ġsostenibilidad": 8853,
      "Ġsuici": 8854,
      "Ġveras": 8855,
      "Ġesloven": 8856,
      "ron": 8857,
      "Ã©rcol": 8858,
      "Ġ120": 8859,
      "Ġisbn": 8860,
      "drÃ©": 8861,
      "Ġponen": 8862,
      "Ġ66": 8863,
      "Ġmedioambiental": 8864,
      "Ġcad": 8865,
      "Ġtome": 8866,
      "zi": 8867,
      "Ġsuyo": 8868,
      "Ġ115": 8869,
      "abia": 8870,
      "ilio": 8871,
      "Ġabsoluta": 8872,
      "ĠelectrÃ³nicos": 8873,
      "ÏĤ": 8874,
      "Ġacuerda": 8875,
      "tÃ¡lo": 8876,
      "Ġverlo": 8877,
      "ĠfÃ³rmula": 8878,
      "Ġembal": 8879,
      "culares": 8880,
      "Ġexistir": 8881,
      "ĠterminÃ³": 8882,
      "Ġconsultiva": 8883,
      "Ġ76": 8884,
      "Ġbob": 8885,
      "Ġdegrad": 8886,
      "Ġelig": 8887,
      "ĠcuÃ¡ndo": 8888,
      "kar": 8889,
      "ĠbritÃ¡nico": 8890,
      "resuelvo": 8891,
      "Ġreferencias": 8892,
      "dada": 8893,
      "ĠmigraciÃ³n": 8894,
      "Ġquitar": 8895,
      "Ġrobo": 8896,
      "Ġregistrado": 8897,
      "Ġfronter": 8898,
      "ĠcuÃ¡nto": 8899,
      "Ġpeces": 8900,
      "lantes": 8901,
      "ĠnavegaciÃ³n": 8902,
      "tig": 8903,
      "iremos": 8904,
      "Ġiva": 8905,
      "Â©": 8906,
      "ĠquÃŃmica": 8907,
      "Ġdesarrollados": 8908,
      "ata": 8909,
      "Ġfiloso": 8910,
      "Ġaudiovis": 8911,
      "ĠlÃ¡c": 8912,
      "Ġentero": 8913,
      "arlos": 8914,
      "Ġsensib": 8915,
      "Ġtemplo": 8916,
      "Ġoptim": 8917,
      "inidad": 8918,
      "Ġconseguido": 8919,
      "misos": 8920,
      "Ġsuya": 8921,
      "ases": 8922,
      "Ġplantilla": 8923,
      "Ġ//": 8924,
      "Ġdiablos": 8925,
      "Ġrealice": 8926,
      "acep": 8927,
      "Ġdesestim": 8928,
      "Ġpresupuestarias": 8929,
      "Ġkb": 8930,
      "fuer": 8931,
      "Ġnicaragua": 8932,
      "Ġgig": 8933,
      "ĠatlÃ¡n": 8934,
      "Ġladr": 8935,
      "Ġseas": 8936,
      "Ġcoordinar": 8937,
      "Ġconfes": 8938,
      "uto": 8939,
      "Ġperfectamente": 8940,
      "Ġbajas": 8941,
      "Ġcampes": 8942,
      "Ġllobregat": 8943,
      "tiende": 8944,
      "Ġdespl": 8945,
      "dras": 8946,
      "Ġtantos": 8947,
      "Ġprovincias": 8948,
      "cÃŃan": 8949,
      "Ġbea": 8950,
      "ement": 8951,
      "Ġ1981": 8952,
      "financiaciÃ³n": 8953,
      "ĠenviÃ³": 8954,
      "Ġproveedor": 8955,
      "vemente": 8956,
      "Ġsp": 8957,
      "Ġintermedi": 8958,
      "Ġrespectivas": 8959,
      "Ġcumplido": 8960,
      "Ġdelegados": 8961,
      "Ġinscrib": 8962,
      "Ġexterna": 8963,
      "Ġsentar": 8964,
      "tidi": 8965,
      "trÃŃa": 8966,
      "Ġpersegu": 8967,
      "Ġcuentan": 8968,
      "taste": 8969,
      "ĠpensiÃ³n": 8970,
      "alem": 8971,
      "Ġaduana": 8972,
      "Ġsindical": 8973,
      "Ġinterlocu": 8974,
      "Ġlitera": 8975,
      "Ġcuanti": 8976,
      "Ġ73": 8977,
      "Ġcig": 8978,
      "Ġperfil": 8979,
      "iriÃ³": 8980,
      "zÃ³n": 8981,
      "prop": 8982,
      "Ġxix": 8983,
      "Ġglobales": 8984,
      "Ġesqu": 8985,
      "Ġgira": 8986,
      "Ġpasivo": 8987,
      "Ġcate": 8988,
      "Ġconsentimiento": 8989,
      "Ġgravedad": 8990,
      "Ġmaur": 8991,
      "Ġ68": 8992,
      "ĠfusiÃ³n": 8993,
      "Ġesposo": 8994,
      "Ġaline": 8995,
      "Ġcomplementarias": 8996,
      "Î·": 8997,
      "cf": 8998,
      "dumping": 8999,
      "Ġdup": 9000,
      "Ġelevada": 9001,
      "americano": 9002,
      "Ġviena": 9003,
      "ĠdebÃŃan": 9004,
      "ss": 9005,
      "Ġriqueza": 9006,
      "ĠreciÃ©n": 9007,
      "ĠremuneraciÃ³n": 9008,
      "Ġalternativas": 9009,
      "ĠrestituciÃ³n": 9010,
      "Ġemper": 9011,
      "Ġtotales": 9012,
[...]
